{
  "version": "1.0",
  "truncation": null,
  "padding": null,
  "added_tokens": [
    {
      "id": 0,
      "content": "[UNK]",
      "single_word": false,
      "lstrip": false,
      "rstrip": false,
      "normalized": false,
      "special": true
    },
    {
      "id": 1,
      "content": "[PAD]",
      "single_word": false,
      "lstrip": false,
      "rstrip": false,
      "normalized": false,
      "special": true
    },
    {
      "id": 2,
      "content": "[CLS]",
      "single_word": false,
      "lstrip": false,
      "rstrip": false,
      "normalized": false,
      "special": true
    },
    {
      "id": 3,
      "content": "[SEP]",
      "single_word": false,
      "lstrip": false,
      "rstrip": false,
      "normalized": false,
      "special": true
    },
    {
      "id": 4,
      "content": "[MASK]",
      "single_word": false,
      "lstrip": false,
      "rstrip": false,
      "normalized": false,
      "special": true
    }
  ],
  "normalizer": null,
  "pre_tokenizer": {
    "type": "Whitespace"
  },
  "post_processor": {
    "type": "TemplateProcessing",
    "single": [
      {
        "SpecialToken": {
          "id": "[CLS]",
          "type_id": 0
        }
      },
      {
        "Sequence": {
          "id": "A",
          "type_id": 0
        }
      },
      {
        "SpecialToken": {
          "id": "[SEP]",
          "type_id": 0
        }
      }
    ],
    "pair": [
      {
        "SpecialToken": {
          "id": "[CLS]",
          "type_id": 0
        }
      },
      {
        "Sequence": {
          "id": "A",
          "type_id": 0
        }
      },
      {
        "SpecialToken": {
          "id": "[SEP]",
          "type_id": 0
        }
      },
      {
        "Sequence": {
          "id": "B",
          "type_id": 1
        }
      },
      {
        "SpecialToken": {
          "id": "[SEP]",
          "type_id": 1
        }
      }
    ],
    "special_tokens": {
      "[CLS]": {
        "id": "[CLS]",
        "ids": [
          2
        ],
        "tokens": [
          "[CLS]"
        ]
      },
      "[SEP]": {
        "id": "[SEP]",
        "ids": [
          3
        ],
        "tokens": [
          "[SEP]"
        ]
      }
    }
  },
  "decoder": {
    "type": "WordPiece",
    "prefix": "##",
    "cleanup": true
  },
  "model": {
    "type": "WordPiece",
    "unk_token": "[UNK]",
    "continuing_subword_prefix": "##",
    "max_input_chars_per_word": 100,
    "vocab": {
      "[UNK]": 0,
      "[PAD]": 1,
      "[CLS]": 2,
      "[SEP]": 3,
      "[MASK]": 4,
      "!": 5,
      "\"": 6,
      "#": 7,
      "$": 8,
      "%": 9,
      "&": 10,
      "'": 11,
      "(": 12,
      ")": 13,
      "+": 14,
      ",": 15,
      "-": 16,
      ".": 17,
      "/": 18,
      "0": 19,
      "1": 20,
      "2": 21,
      "3": 22,
      "4": 23,
      "5": 24,
      "6": 25,
      "7": 26,
      "8": 27,
      "9": 28,
      ":": 29,
      ";": 30,
      "<": 31,
      "=": 32,
      ">": 33,
      "?": 34,
      "@": 35,
      "A": 36,
      "B": 37,
      "C": 38,
      "D": 39,
      "E": 40,
      "F": 41,
      "G": 42,
      "H": 43,
      "I": 44,
      "J": 45,
      "K": 46,
      "L": 47,
      "M": 48,
      "N": 49,
      "O": 50,
      "P": 51,
      "Q": 52,
      "R": 53,
      "S": 54,
      "T": 55,
      "U": 56,
      "V": 57,
      "W": 58,
      "X": 59,
      "Y": 60,
      "Z": 61,
      "[": 62,
      "]": 63,
      "^": 64,
      "_": 65,
      "a": 66,
      "b": 67,
      "c": 68,
      "d": 69,
      "e": 70,
      "f": 71,
      "g": 72,
      "h": 73,
      "i": 74,
      "j": 75,
      "k": 76,
      "l": 77,
      "m": 78,
      "n": 79,
      "o": 80,
      "p": 81,
      "q": 82,
      "r": 83,
      "s": 84,
      "t": 85,
      "u": 86,
      "v": 87,
      "w": 88,
      "x": 89,
      "y": 90,
      "z": 91,
      "{": 92,
      "}": 93,
      "##2": 94,
      "##a": 95,
      "##c": 96,
      "##k": 97,
      "##g": 98,
      "##r": 99,
      "##o": 100,
      "##u": 101,
      "##n": 102,
      "##d": 103,
      "##D": 104,
      "##w": 105,
      "##l": 106,
      "##f": 107,
      "##0": 108,
      "##A": 109,
      "##C": 110,
      "##B": 111,
      "##4": 112,
      "##H": 113,
      "##K": 114,
      "##Q": 115,
      "##M": 116,
      "##U": 117,
      "##G": 118,
      "##E": 119,
      "##Y": 120,
      "##I": 121,
      "##9": 122,
      "##8": 123,
      "##3": 124,
      "##6": 125,
      "##7": 126,
      "##e": 127,
      "##t": 128,
      "##5": 129,
      "##b": 130,
      "##1": 131,
      "##s": 132,
      "##h": 133,
      "##p": 134,
      "##x": 135,
      "##m": 136,
      "##i": 137,
      "##N": 138,
      "##X": 139,
      "##F": 140,
      "##v": 141,
      "##T": 142,
      "##O": 143,
      "##R": 144,
      "##_": 145,
      "##y": 146,
      "##z": 147,
      "##L": 148,
      "##W": 149,
      "##S": 150,
      "##P": 151,
      "##q": 152,
      "##j": 153,
      "##V": 154,
      "##J": 155,
      "##Z": 156,
      "##/": 157,
      "##%": 158,
      "##(": 159,
      "##)": 160,
      "##;": 161,
      "##\"": 162,
      "##,": 163,
      "##{": 164,
      "##'": 165,
      "##-": 166,
      "##:": 167,
      "##]": 168,
      "##}": 169,
      "##@": 170,
      "###": 171,
      "##.": 172,
      "##?": 173,
      "##=": 174,
      "##$": 175,
      "##er": 176,
      "ex": 177,
      "exe": 178,
      "##ra": 179,
      "##in": 180,
      "##AA": 181,
      "##ho": 182,
      "##en": 183,
      "##te": 184,
      "##on": 185,
      "##ram": 186,
      "##be": 187,
      "Ha": 188,
      "##ur": 189,
      "##rambe": 190,
      "Harambe": 191,
      "--": 192,
      "##pp": 193,
      "##min": 194,
      "##UH": 195,
      "##DS": 196,
      "##ute": 197,
      "##hour": 198,
      "##minute": 199,
      "DE": 200,
      "DES": 201,
      "##KT": 202,
      "##LL": 203,
      "7UH": 204,
      "##OP": 205,
      "##DSLL": 206,
      "DESKT": 207,
      "7UHDSLL": 208,
      "DESKTOP": 209,
      "##ta": 210,
      "##es": 211,
      "##ent": 212,
      "##ea": 213,
      "##og": 214,
      "##li": 215,
      "##st": 216,
      "##AAAA": 217,
      "##ue": 218,
      "##ft": 219,
      "##end": 220,
      "##gue": 221,
      "##eague": 222,
      "##am": 223,
      "##vc": 224,
      "##no": 225,
      "##le": 226,
      "##ot": 227,
      "League": 228,
      "aft": 229,
      "##erno": 230,
      "afterno": 231,
      "afternoon": 232,
      "##ca": 233,
      "App": 234,
      "##AW": 235,
      "##pper": 236,
      "##rapper": 237,
      "##AWrapper": 238,
      "OAWrapper": 239,
      "##ser": 240,
      "##iot": 241,
      "##ro": 242,
      "##lient": 243,
      "##ig": 244,
      "##ht": 245,
      "##ight": 246,
      "night": 247,
      "##host": 248,
      "Riot": 249,
      "User": 250,
      "Users": 251,
      "##ata": 252,
      "##ic": 253,
      "##an": 254,
      "##or": 255,
      "Gam": 256,
      "##ff": 257,
      "##Client": 258,
      "##Data": 259,
      "##ti": 260,
      "AppData": 261,
      "##gend": 262,
      "##gends": 263,
      "Games": 264,
      "##onta": 265,
      "##ontain": 266,
      "##ontainer": 267,
      "nvc": 268,
      "nvcontainer": 269,
      "##GR": 270,
      "##OR": 271,
      "##OU": 272,
      "##oca": 273,
      "WOR": 274,
      "WORK": 275,
      "##GROU": 276,
      "WORKGROU": 277,
      "WORKGROUP": 278,
      "Loca": 279,
      "Local": 280,
      "##ch": 281,
      "##DO": 282,
      "##me": 283,
      "##IN": 284,
      "##egends": 285,
      "WIN": 286,
      "##WS": 287,
      "##DOWS": 288,
      "WINDOWS": 289,
      "##and": 290,
      "LeagueClient": 291,
      "##ac": 292,
      "con": 293,
      "of": 294,
      "Legends": 295,
      "ch": 296,
      "##32": 297,
      "##Ux": 298,
      "conhost": 299,
      "##rome": 300,
      "##il": 301,
      "##el": 302,
      "log": 303,
      "##ys": 304,
      "svc": 305,
      "svchost": 306,
      "##AAAAAAAA": 307,
      "##sh": 308,
      "##ack": 309,
      "##pe": 310,
      "##tion": 311,
      "20": 312,
      "##rog": 313,
      "##rogram": 314,
      "Program": 315,
      "##it": 316,
      "##tem": 317,
      "##ystem": 318,
      "##iles": 319,
      "##ystem32": 320,
      "LeagueClientUx": 321,
      "##rash": 322,
      "##re": 323,
      "chrome": 324,
      "Files": 325,
      "##DI": 326,
      "##VI": 327,
      "##ing": 328,
      "14": 329,
      "NVI": 330,
      "##DIA": 331,
      "NVIDIA": 332,
      "13": 333,
      "fi": 334,
      "en": 335,
      "##ame": 336,
      "##vic": 337,
      "system32": 338,
      "##de": 339,
      "##ble": 340,
      "di": 341,
      "16": 342,
      "=\"": 343,
      "##ogs": 344,
      "##8minute": 345,
      "##ut": 346,
      "##la": 347,
      "##ol": 348,
      "##un": 349,
      "##able": 350,
      "##cation": 351,
      "14hour": 352,
      "##lication": 353,
      "Application": 354,
      "Nv": 355,
      "##Back": 356,
      "NvBack": 357,
      "NvBackend": 358,
      "##2hour": 359,
      "##23": 360,
      "##et": 361,
      "15": 362,
      "##al": 363,
      "##ender": 364,
      "##ffff": 365,
      "Co": 366,
      "Logs": 367,
      "##7minute": 368,
      "##On": 369,
      "##86": 370,
      "##ervic": 371,
      "##ment": 372,
      "##olog": 373,
      "##tolog": 374,
      "ApplicationOn": 375,
      "##tology": 376,
      "ApplicationOntology": 377,
      "##ype": 378,
      "##ost": 379,
      "file": 380,
      "16hour": 381,
      "type": 382,
      "##se": 383,
      "##07": 384,
      "23": 385,
      "##64": 386,
      "##ow": 387,
      "##oft": 388,
      "##Host": 389,
      "de": 390,
      "no": 391,
      "##2minute": 392,
      "##ry": 393,
      "22hour": 394,
      "##9minute": 395,
      "15hour": 396,
      "x86": 397,
      "git": 398,
      "06": 399,
      "hand": 400,
      "Client": 401,
      "##ge": 402,
      "2023": 403,
      "##ipe": 404,
      "servic": 405,
      "##14": 406,
      "##rch": 407,
      "##sk": 408,
      "##earch": 409,
      "Search": 410,
      "tr": 411,
      "04": 412,
      "##soft": 413,
      "##rosoft": 414,
      "##icrosoft": 415,
      "at": 416,
      "##th": 417,
      "##Render": 418,
      "##In": 419,
      "13hour": 420,
      "##ok": 421,
      "04T": 422,
      "handle": 423,
      "Microsoft": 424,
      "##Hand": 425,
      "LeagueClientUxRender": 426,
      "Code": 427,
      "##Handl": 428,
      "crash": 429,
      "##_o": 430,
      "##gent": 431,
      "app": 432,
      "##entry": 433,
      "enable": 434,
      "11": 435,
      "##ce": 436,
      "dis": 437,
      "##lit": 438,
      "##tach": 439,
      "attach": 440,
      "attachment": 441,
      "##Crash": 442,
      "18minute": 443,
      "name": 444,
      "##29": 445,
      "17": 446,
      "##ox": 447,
      "##lt": 448,
      "dir": 449,
      "##jo": 450,
      "##per": 451,
      "Game": 452,
      "##ite": 453,
      "mo": 454,
      "##f_": 455,
      "##_of_": 456,
      "##ec": 457,
      "league": 458,
      "##legends": 459,
      "##_of_legends": 460,
      "league_of_legends": 461,
      "23hour": 462,
      "data": 463,
      "##mp": 464,
      "##Site": 465,
      "20hour": 466,
      "##6minute": 467,
      "disable": 468,
      "##box": 469,
      "##andbox": 470,
      "##ies": 471,
      "##ameSite": 472,
      "##okies": 473,
      "##are": 474,
      "##ef": 475,
      "##sc": 476,
      "##di": 477,
      "sandbox": 478,
      "##20": 479,
      "##bG": 480,
      "##4minute": 481,
      "##ZW": 482,
      "##ind": 483,
      "##ask": 484,
      "##19": 485,
      "##Co": 486,
      "##elper": 487,
      "##und": 488,
      "gp": 489,
      "##15": 490,
      "re": 491,
      "user": 492,
      "##1minute": 493,
      "##oog": 494,
      "##oogle": 495,
      "Google": 496,
      "agent": 497,
      "##orce": 498,
      "##gro": 499,
      "##ackgro": 500,
      "##ackground": 501,
      "##b2": 502,
      "##indow": 503,
      "gpu": 504,
      "##83": 505,
      "##indows": 506,
      "US": 507,
      "lan": 508,
      "lang": 509,
      "##5minute": 510,
      "##ware": 511,
      "##ning": 512,
      "##stic": 513,
      "##lastic": 514,
      "mor": 515,
      "morning": 516,
      "0hour": 517,
      "##ord": 518,
      "##tur": 519,
      "##AAAAAAAAA": 520,
      "##ref": 521,
      "##ey": 522,
      "services": 523,
      "##rea": 524,
      "##Task": 525,
      "##ackgroundTask": 526,
      "##ackgroundTaskHost": 527,
      "##ad": 528,
      ":/": 529,
      "mojo": 530,
      "##0minute": 531,
      "##ate": 532,
      "##du": 533,
      "##si": 534,
      "Windows": 535,
      "##at": 536,
      "##YX": 537,
      "##thr": 538,
      "##YW": 539,
      "##um": 540,
      "0x": 541,
      "##Gthr": 542,
      "##sGthr": 543,
      "##Pipe": 544,
      "##00": 545,
      "##87": 546,
      "##vi": 547,
      "##bu": 548,
      "Di": 549,
      "##ial": 550,
      "##cy": 551,
      "pro": 552,
      "##scord": 553,
      "Discord": 554,
      "debu": 555,
      "debug": 556,
      "ux": 557,
      "##md": 558,
      "pref": 559,
      "##read": 560,
      "##eld": 561,
      "field": 562,
      "trial": 563,
      "enabled": 564,
      "##ort": 565,
      "##_s": 566,
      "##V1": 567,
      "co": 568,
      "##aW": 569,
      "##dG": 570,
      "##Handler": 571,
      "##CrashHandler": 572,
      "render": 573,
      "renderer": 574,
      "##ffic": 575,
      "##orm": 576,
      "##49": 577,
      "##Mu": 578,
      "__s": 579,
      "__sentry": 580,
      "12hour": 581,
      "##au": 582,
      "##lo": 583,
      "backgroundTaskHost": 584,
      "Force": 585,
      "##ffffffff": 586,
      "0xffffffff": 587,
      "ForceV1": 588,
      "RiotClient": 589,
      "##ault": 590,
      "##13": 591,
      "##pd": 592,
      "5hour": 593,
      "chan": 594,
      "17hour": 595,
      "##lity": 596,
      "##AAAAAAAAAA": 597,
      "##By": 598,
      "##62": 599,
      "uti": 600,
      "##tor": 601,
      "##ase": 602,
      "##ker": 603,
      "##beat": 604,
      "##dge": 605,
      "utility": 606,
      "##12": 607,
      "##16": 608,
      "##hrome": 609,
      "cmd": 610,
      "##80": 611,
      "##3minute": 612,
      "Chrome": 613,
      "##vice": 614,
      "##sion": 615,
      "##107": 616,
      "##_R": 617,
      "##etch": 618,
      "device": 619,
      "true": 620,
      "prefetch": 621,
      "##Pr": 622,
      "##tf": 623,
      "##dia": 624,
      "id": 625,
      "##36": 626,
      "##_Riot": 627,
      "##nel": 628,
      "##eS": 629,
      "21": 630,
      "18": 631,
      "channel": 632,
      "##ll": 633,
      "##latf": 634,
      "##latform": 635,
      "##18": 636,
      "##eatur": 637,
      "##SI": 638,
      "##uth": 639,
      "##edia": 640,
      "##rd": 641,
      "featur": 642,
      "features": 643,
      "platform": 644,
      "##Oi": 645,
      "##oc": 646,
      "sentry": 647,
      "##74": 648,
      "13107": 649,
      "131072": 650,
      "17minute": 651,
      "##ell": 652,
      "##litz": 653,
      "##ces": 654,
      "##Key": 655,
      "##ure": 656,
      "##ecure": 657,
      "elastic": 658,
      "##Media": 659,
      "Hard": 660,
      "##Handling": 661,
      "##wareMedia": 662,
      "##KeyHandling": 663,
      "HardwareMedia": 664,
      "HardwareMediaKeyHandling": 665,
      "##GF": 666,
      "##put": 667,
      "##Wit": 668,
      "##otoc": 669,
      "##olHost": 670,
      "SearchPr": 671,
      "##otocolHost": 672,
      "SearchProtocolHost": 673,
      "##tt": 674,
      "SameSite": 675,
      "##Def": 676,
      "##BeS": 677,
      "##SameSite": 678,
      "##hout": 679,
      "##stBeS": 680,
      "Cookies": 681,
      "##Cookies": 682,
      "##MustBeS": 683,
      "##aultCookies": 684,
      "##ByDef": 685,
      "##Without": 686,
      "SameSiteByDef": 687,
      "##SameSiteMustBeS": 688,
      "CookiesWithout": 689,
      "SameSiteByDefaultCookies": 690,
      "##SameSiteMustBeSecure": 691,
      "CookiesWithoutSameSiteMustBeSecure": 692,
      "19": 693,
      "##actor": 694,
      "28minute": 695,
      "factor": 696,
      "Run": 697,
      "sca": 698,
      "scale": 699,
      "htt": 700,
      "http": 701,
      "##075": 702,
      "##cr": 703,
      "Blitz": 704,
      "##46": 705,
      "##gAAAAAAAAA": 706,
      "##10": 707,
      "##time": 708,
      "Runtime": 709,
      "bread": 710,
      "##crum": 711,
      "breadcrum": 712,
      "##Bro": 713,
      "RuntimeBro": 714,
      "RuntimeBroker": 715,
      "##gr": 716,
      "##ub": 717,
      "##ZX": 718,
      "##ct": 719,
      "##mgr": 720,
      "##ath": 721,
      "##pad": 722,
      "##Rh": 723,
      "##iOi": 724,
      "##0Y": 725,
      "##hon": 726,
      "##eb": 727,
      "##yt": 728,
      "filebeat": 729,
      "##mx": 730,
      "##utput": 731,
      "##pdate": 732,
      "##47": 733,
      "##Helper": 734,
      "18hour": 735,
      "sch": 736,
      "##ython": 737,
      "##Crashes": 738,
      "GameCrashes": 739,
      "##zL": 740,
      "offic": 741,
      "##esvc": 742,
      "officesvc": 743,
      "officesvcmgr": 744,
      "##AAA": 745,
      "##2x": 746,
      "##der": 747,
      "##sIn": 748,
      "##im": 749,
      "##ric": 750,
      "port": 751,
      "fal": 752,
      "crashpad": 753,
      "run": 754,
      "Fi": 755,
      "##11": 756,
      "Glo": 757,
      "##bal": 758,
      "false": 759,
      "Global": 760,
      "##tiv": 761,
      "##28": 762,
      "##duct": 763,
      "pipe": 764,
      "path": 765,
      "##90": 766,
      "##BE": 767,
      "19hour": 768,
      "##CrashHandler64": 769,
      "##ation": 770,
      "##08": 771,
      "##79": 772,
      "64": 773,
      "LeagueCrashHandler64": 774,
      "##Servic": 775,
      "##mm": 776,
      "##us": 777,
      "7minute": 778,
      "service": 779,
      "File": 780,
      "product": 781,
      "42minute": 782,
      "sub": 783,
      "##Auth": 784,
      "##EF": 785,
      "##43": 786,
      "##sta": 787,
      "##ower": 788,
      "39minute": 789,
      "##CoAuth": 790,
      "FileCoAuth": 791,
      "##etric": 792,
      "47minute": 793,
      "metric": 794,
      "UsGthr": 795,
      "##Ms": 796,
      "##Flt": 797,
      "##sGthrPipe": 798,
      "##PipeMs": 799,
      "##FltPipeMs": 800,
      "##FltPipeMssGthrPipe": 801,
      "##lay": 802,
      "##task": 803,
      "##rl": 804,
      "11hour": 805,
      "client": 806,
      "mse": 807,
      "msedge": 808,
      "91": 809,
      "##dio": 810,
      "CEF": 811,
      "##mF": 812,
      "##ar": 813,
      "##fL": 814,
      "##OfL": 815,
      "LeagueOfL": 816,
      "##egendsClient": 817,
      "LeagueOfLegendsClient": 818,
      "##WV": 819,
      "##fi": 820,
      "##22": 821,
      "power": 822,
      "ig": 823,
      "##nore": 824,
      "ignore": 825,
      "##Vu": 826,
      "30": 827,
      "04T20": 828,
      "##AAAAAAAAAAAAAAAA": 829,
      "##udio": 830,
      "##vZ": 831,
      "set": 832,
      "##2F": 833,
      "57minute": 834,
      "##ver": 835,
      "59minute": 836,
      "##iOiJ": 837,
      "lim": 838,
      "limit": 839,
      "##shell": 840,
      "powershell": 841,
      "32": 842,
      "##xer": 843,
      "##dexer": 844,
      "SearchIn": 845,
      "SearchIndexer": 846,
      "System32": 847,
      "##ew": 848,
      "rate": 849,
      "cer": 850,
      "er": 851,
      "##rs": 852,
      "##cate": 853,
      "##rors": 854,
      "##tifi": 855,
      "certifi": 856,
      "errors": 857,
      "certificate": 858,
      "##CJ": 859,
      "helper": 860,
      "##42": 861,
      "39": 862,
      "://": 863,
      "LeagueClientUxHelper": 864,
      "22minute": 865,
      "Elastic": 866,
      "##5075": 867,
      "27minute": 868,
      "##76": 869,
      "511": 870,
      "6414": 871,
      "##33": 872,
      "##ana": 873,
      "30minute": 874,
      "##Logs": 875,
      "GameLogs": 876,
      "schtask": 877,
      "schtasks": 878,
      "21hour": 879,
      "##1l": 880,
      "Crash": 881,
      "ma": 882,
      "##ClientUx": 883,
      "base": 884,
      "##ron": 885,
      "##50": 886,
      "output": 887,
      "37minute": 888,
      "49minute": 889,
      "##cess": 890,
      "##Service": 891,
      "##ks": 892,
      "res": 893,
      "##up": 894,
      "##c4": 895,
      "##b1": 896,
      "20minute": 897,
      "##sZW": 898,
      "Programs": 899,
      "##GF0Y": 900,
      "10": 901,
      "##play": 902,
      "##ml": 903,
      "sta": 904,
      "Agent": 905,
      "Ro": 906,
      "##bGV": 907,
      "##dl": 908,
      "main": 909,
      "100": 910,
      "in": 911,
      "##ZS": 912,
      "Git": 913,
      "mojom": 914,
      "Crashes": 915,
      "##ted": 916,
      "32minute": 917,
      "comp": 918,
      "##team": 919,
      "##ture": 920,
      "##lZ": 921,
      "##ZV": 922,
      "23minute": 923,
      "##dd": 924,
      "setup": 925,
      "NA": 926,
      "riot": 927,
      "##ging": 928,
      "##LCJ": 929,
      "mana": 930,
      "##ersion": 931,
      "python": 932,
      "48minute": 933,
      "datab": 934,
      "logging": 935,
      "##pb": 936,
      "envi": 937,
      "##ronment": 938,
      "environment": 939,
      "##dC": 940,
      "RiotClientCrashHandler": 941,
      "##56": 942,
      "##gement": 943,
      "management": 944,
      "24minute": 945,
      "##21": 946,
      "database": 947,
      "breadcrumb1": 948,
      "##oli": 949,
      "##olicy": 950,
      "53minute": 951,
      "##_RiotClientUx": 952,
      "th": 953,
      "36minute": 954,
      "##fig": 955,
      "56minute": 956,
      "##Update": 957,
      "num": 958,
      "1hour": 959,
      "##hb": 960,
      "##ore": 961,
      "un": 962,
      "##38": 963,
      "36": 964,
      "##ri": 965,
      "##ime": 966,
      "tic": 967,
      "time": 968,
      "ticks": 969,
      "##I6": 970,
      "50minute": 971,
      "ac": 972,
      "##pi": 973,
      "##rame": 974,
      "sentry_": 975,
      "activ": 976,
      "##qu": 977,
      "RiotClientUx": 978,
      "##view": 979,
      "##ebview": 980,
      "##ster": 981,
      "##port": 982,
      "ra": 983,
      "report": 984,
      "11minute": 985,
      "reporting": 986,
      "26minute": 987,
      "##Im": 988,
      "##Ijo": 989,
      "##ZW5": 990,
      "##Ijoi": 991,
      "bef": 992,
      "frame": 993,
      "##reads": 994,
      "threads": 995,
      "activation": 996,
      "raster": 997,
      "before": 998,
      "35minute": 999,
      "##one": 1000,
      "##mmon": 1001,
      "##lc": 1002,
      "##client": 1003,
      "##qui": 1004,
      "52minute": 1005,
      "41minute": 1006,
      "##58": 1007,
      "57": 1008,
      "##9sZW": 1009,
      "##aW90": 1010,
      "##AAAAAAAAAAAA": 1011,
      "##AAAAAAAAAAB": 1012,
      "##uto": 1013,
      "54minute": 1014,
      "##91": 1015,
      "##ork": 1016,
      "##3R": 1017,
      "##red": 1018,
      "NA1": 1019,
      "##AQ": 1020,
      "requi": 1021,
      "##ffice": 1022,
      "##stall": 1023,
      "##IE": 1024,
      "##27": 1025,
      "##AQAAAA": 1026,
      "##YXRh": 1027,
      "##YXRhL": 1028,
      "fc4": 1029,
      "##a15": 1030,
      "##nd": 1031,
      "##svc": 1032,
      "fc4a15": 1033,
      "##4AAAAAAAAA": 1034,
      "##own": 1035,
      "##TI": 1036,
      "##pb2": 1037,
      "auto": 1038,
      "ges": 1039,
      "policy": 1040,
      "required": 1041,
      "autoplay": 1042,
      "gesture": 1043,
      "force": 1044,
      "metrics": 1045,
      "##rus": 1046,
      "##rusted": 1047,
      "##Jpb": 1048,
      "##SI6": 1049,
      "##dul": 1050,
      "##88": 1051,
      "##229": 1052,
      "##d1": 1053,
      "##ads": 1054,
      "##ode": 1055,
      "##63": 1056,
      "##583": 1057,
      "##mU": 1058,
      "config": 1059,
      "##iLCJ": 1060,
      "Office": 1061,
      "##ZH": 1062,
      "##24": 1063,
      "31minute": 1064,
      "##97": 1065,
      "##dH": 1066,
      "##G9": 1067,
      "##55": 1068,
      "##work": 1069,
      "##Tk": 1070,
      "##SU": 1071,
      "##etwork": 1072,
      "51minute": 1073,
      "34minute": 1074,
      "##co": 1075,
      "##emp": 1076,
      "audio": 1077,
      "##Jl": 1078,
      "04T14": 1079,
      "##6214": 1080,
      "2minute": 1081,
      "##9S": 1082,
      "PBE": 1083,
      "##53": 1084,
      "##8708": 1085,
      "55minute": 1086,
      "##17": 1087,
      "10hour": 1088,
      "##jec": 1089,
      "##xt": 1090,
      "Soft": 1091,
      "Software": 1092,
      "26214": 1093,
      "##em": 1094,
      "262144": 1095,
      "##vY": 1096,
      "##vent": 1097,
      "##ownlo": 1098,
      "21minute": 1099,
      "49": 1100,
      "45minute": 1101,
      "UsGthrFltPipeMssGthrPipe": 1102,
      "##dules": 1103,
      "##Name": 1104,
      "##i9": 1105,
      "process": 1106,
      "46minute": 1107,
      "##ev": 1108,
      "##Vl": 1109,
      "##2_": 1110,
      "##GF0YS": 1111,
      "url": 1112,
      "event": 1113,
      "files": 1114,
      "win": 1115,
      "##mR": 1116,
      "https": 1117,
      "25minute": 1118,
      "44minute": 1119,
      "##52": 1120,
      "modules": 1121,
      "##ZV9": 1122,
      "##cm": 1123,
      "##Ij": 1124,
      "breadcrumb2": 1125,
      "6minute": 1126,
      "38minute": 1127,
      "##1Y": 1128,
      "##94": 1129,
      "##eyJ": 1130,
      "Mo": 1131,
      "ls": 1132,
      "14minute": 1133,
      "stage": 1134,
      "##93": 1135,
      "##erver": 1136,
      "6hour": 1137,
      "##646": 1138,
      "619": 1139,
      "61946": 1140,
      "vsc": 1141,
      "##ib": 1142,
      "vscode": 1143,
      "##dGF": 1144,
      "##3Q": 1145,
      "##nQ": 1146,
      "##ames": 1147,
      "##29u": 1148,
      "##zil": 1149,
      "##1512": 1150,
      "Mozil": 1151,
      "Mozilla": 1152,
      "##d8": 1153,
      "214": 1154,
      "##lYW": 1155,
      "##bmR": 1156,
      "##iOn": 1157,
      "##7483": 1158,
      "##dlbmR": 1159,
      "##aW90IE": 1160,
      "##9SaW90IE": 1161,
      "##lYWd1": 1162,
      "##app": 1163,
      "##3227": 1164,
      "2012": 1165,
      "178708": 1166,
      "##8342": 1167,
      "##6219": 1168,
      "##8036": 1169,
      "##5075229": 1170,
      "##211512": 1171,
      "365075229": 1172,
      "##913227": 1173,
      "1787088036": 1174,
      "##2115128342": 1175,
      "3650752292115128342": 1176,
      "##9132276219": 1177,
      "17870880369132276219": 1178,
      "##Ct": 1179,
      "##60": 1180,
      "reg": 1181,
      "UsGthrCt": 1182,
      "##rlFltPipeMssGthrPipe": 1183,
      "2147483": 1184,
      "UsGthrCtrlFltPipeMssGthrPipe": 1185,
      "2147483646": 1186,
      "05": 1187,
      "9minute": 1188,
      "##mbe": 1189,
      "##2Vu": 1190,
      "0minute": 1191,
      "##X2x": 1192,
      "##games": 1193,
      "##wic": 1194,
      "##l9sZW": 1195,
      "##0sIn": 1196,
      "##35": 1197,
      "##p7": 1198,
      "##OG": 1199,
      "##Z3": 1200,
      "##Zml": 1201,
      "##DOi9": 1202,
      "##siYX": 1203,
      "##2xlYWd1": 1204,
      "##vZl9sZW": 1205,
      "##iOiJDOi9": 1206,
      "riotgames": 1207,
      "##ZV9vZl9sZW": 1208,
      "##Ijp7": 1209,
      "##iOnsiYX": 1210,
      "##dlbmRzL": 1211,
      "##2xlYWd1ZV9vZl9sZW": 1212,
      "##2xlYWd1ZV9vZl9sZWdlbmRzL": 1213,
      "##Version": 1214,
      "##rt": 1215,
      "43minute": 1216,
      "8minute": 1217,
      "##ming": 1218,
      "##nB": 1219,
      "Steam": 1220,
      "##Lib": 1221,
      "##rary": 1222,
      "SteamLib": 1223,
      "SteamLibrary": 1224,
      "515": 1225,
      "##_L": 1226,
      "NT": 1227,
      "29minute": 1228,
      "##aX": 1229,
      "##late": 1230,
      "##eck": 1231,
      "##ject": 1232,
      "##ten": 1233,
      "##QAAA": 1234,
      "##Nlc": 1235,
      "Embe": 1236,
      "##dding": 1237,
      "Embedding": 1238,
      "##hZ3": 1239,
      "##bGl": 1240,
      "##YXJ": 1241,
      "##YW1l": 1242,
      "##lZ2Vu": 1243,
      "##SI6eyJ": 1244,
      "##hZ3Vl": 1245,
      "##lZ2VuZH": 1246,
      "to": 1247,
      "BackgroundTaskHost": 1248,
      "##868": 1249,
      "Downlo": 1250,
      "##_2": 1251,
      "##284": 1252,
      "##ebview2": 1253,
      "check": 1254,
      "31": 1255,
      "##lh": 1256,
      "##po": 1257,
      "77": 1258,
      "exten": 1259,
      "extension": 1260,
      "##496": 1261,
      "Server": 1262,
      "##AC": 1263,
      "ServerName": 1264,
      "##saW": 1265,
      "##tive": 1266,
      "##evel": 1267,
      "temp": 1268,
      "##cH": 1269,
      "template": 1270,
      "Common": 1271,
      "Get": 1272,
      "##ative": 1273,
      "##_S": 1274,
      "##pdmU": 1275,
      "##art": 1276,
      "Downloads": 1277,
      "123": 1278,
      "##xVersion": 1279,
      "AppxVersion": 1280,
      "##d5": 1281,
      "##ZD": 1282,
      "##0718": 1283,
      "##bG9": 1284,
      "##mxpdmU": 1285,
      "##2xlYWd1ZV9vZl9sZWdlbmRzLmxpdmU": 1286,
      "##bGl2": 1287,
      "##235075": 1288,
      "##64583": 1289,
      "30496": 1290,
      "39235075": 1291,
      "770718": 1292,
      "3049664583": 1293,
      "3923507516": 1294,
      "770718868": 1295,
      "19minute": 1296,
      "##40": 1297,
      "##onent": 1298,
      "component": 1299,
      "components": 1300,
      "##aming": 1301,
      "##_st": 1302,
      "Python": 1303,
      "5minute": 1304,
      "UX": 1305,
      "##Qz": 1306,
      "extensions": 1307,
      "##fo": 1308,
      "40minute": 1309,
      "metricbeat": 1310,
      "ProgramData": 1311,
      "##unch": 1312,
      "58minute": 1313,
      "##Ii": 1314,
      "##NW": 1315,
      "##cent": 1316,
      "##nc": 1317,
      "##aunch": 1318,
      "##iM": 1319,
      "##Bw": 1320,
      "##1b": 1321,
      "##oken": 1322,
      "VS": 1323,
      "##wZ": 1324,
      "Roaming": 1325,
      "##fault": 1326,
      "##ati": 1327,
      "default": 1328,
      "##vU": 1329,
      "##tart": 1330,
      "msedgew": 1331,
      "16minute": 1332,
      "##YW1": 1333,
      "msedgewebview2": 1334,
      "##3N": 1335,
      "Edge": 1336,
      "##ck": 1337,
      "##ve": 1338,
      "##AT": 1339,
      "90": 1340,
      "168": 1341,
      "04T23": 1342,
      "28": 1343,
      "launch": 1344,
      "##30": 1345,
      "04T13": 1346,
      "04T16": 1347,
      "##_on": 1348,
      "12minute": 1349,
      "gc": 1350,
      "level": 1351,
      "##ange": 1352,
      "=$": 1353,
      "host": 1354,
      "il": 1355,
      "np": 1356,
      "##GOG": 1357,
      "##_n": 1358,
      "##_ch": 1359,
      "##_per": 1360,
      "##_GOG": 1361,
      "##_output": 1362,
      "##derr": 1363,
      "##BEAT": 1364,
      ":///": 1365,
      "restart": 1366,
      "info": 1367,
      "to_st": 1368,
      "##_on_output": 1369,
      "gc_per": 1370,
      "=${": 1371,
      "ilm": 1372,
      "npipe": 1373,
      "##_change": 1374,
      "##_GOGC": 1375,
      "##BEAT_GOGC": 1376,
      "restart_on_output": 1377,
      "to_stderr": 1378,
      "gc_percent": 1379,
      "restart_on_output_change": 1380,
      "##YWx": 1381,
      "MS": 1382,
      "MSI": 1383,
      "auth": 1384,
      "##bot": 1385,
      "##orker": 1386,
      "Robot": 1387,
      "compati": 1388,
      "MSIE": 1389,
      "compatible": 1390,
      "33minute": 1391,
      "##f7": 1392,
      "51510": 1393,
      "Data": 1394,
      "13minute": 1395,
      "##ix": 1396,
      "##fb": 1397,
      "##Wx": 1398,
      "##95": 1399,
      "=-": 1400,
      "##_Client": 1401,
      "project": 1402,
      "##_Riot_Client": 1403,
      "none": 1404,
      "##04": 1405,
      "code": 1406,
      "##pa": 1407,
      "##WVf": 1408,
      "##kcy": 1409,
      "##nZW5": 1410,
      "##fbGV": 1411,
      "##Fnd": 1412,
      "##RGF0YS": 1413,
      "##ZfbGV": 1414,
      "##b2ZfbGV": 1415,
      "##zL0": 1416,
      "9013": 1417,
      "##WVfb2ZfbGV": 1418,
      "##nZW5kcy": 1419,
      "##FndWVfb2ZfbGV": 1420,
      "##FndWVfb2ZfbGVnZW5kcy": 1421,
      "##4964": 1422,
      "min": 1423,
      "/?": 1424,
      "api": 1425,
      "##key": 1426,
      "##44": 1427,
      "##idu": 1428,
      "sentry_key": 1429,
      "minidu": 1430,
      "minidump": 1431,
      "Sh": 1432,
      "io": 1433,
      "epo": 1434,
      "unix": 1435,
      "1684964": 1436,
      "epoch": 1437,
      "168496479": 1438,
      "##YXR": 1439,
      "##460": 1440,
      "443": 1441,
      "##334": 1442,
      "##194": 1443,
      "08": 1444,
      "native": 1445,
      "##IL": 1446,
      "##67": 1447,
      "##sv": 1448,
      "##c2": 1449,
      "00": 1450,
      "an": 1451,
      "##Dri": 1452,
      "##bnQ": 1453,
      "##staller": 1454,
      "csv": 1455,
      "##dhb": 1456,
      "##tY": 1457,
      "##tZX": 1458,
      "##LX": 1459,
      "##V0": 1460,
      "##bGll": 1461,
      "##WVzL0": 1462,
      "##2FtZX": 1463,
      "##AAAAAAAAAAAAAAA": 1464,
      "##9SaW90IEdhb": 1465,
      "##bGllbnQ": 1466,
      "##9SaW90IEdhbWVzL0": 1467,
      "steam": 1468,
      "##2087": 1469,
      "##apps": 1470,
      "steamapps": 1471,
      "##8f7": 1472,
      "##e49": 1473,
      "##OT": 1474,
      "##ff36": 1475,
      "##de8f7": 1476,
      "##075ff36": 1477,
      "sentry_client": 1478,
      "##6347": 1479,
      "##d82087": 1480,
      "##284e49": 1481,
      "1236347": 1482,
      "##d5d": 1483,
      "##334075ff36": 1484,
      "08d82087": 1485,
      "##de8f7334075ff36": 1486,
      "##284e49de8f7334075ff36": 1487,
      "08d82087284e49de8f7334075ff36": 1488,
      "08d82087284e49de8f7334075ff36d5d": 1489,
      "On": 1490,
      "##eDri": 1491,
      "##183": 1492,
      "OneDri": 1493,
      "##AAAAAAAAAD": 1494,
      "##Worker": 1495,
      "rem": 1496,
      "##Vy": 1497,
      "16849647913": 1498,
      "Ti": 1499,
      "txt": 1500,
      "##fS": 1501,
      "##39": 1502,
      "##eren": 1503,
      "preferen": 1504,
      "TiWorker": 1505,
      "preferences": 1506,
      "cart": 1507,
      "token": 1508,
      "##Run": 1509,
      "##AAAAE": 1510,
      "sp": 1511,
      "##cm9": 1512,
      "checking": 1513,
      "spell": 1514,
      "##HV": 1515,
      "##AAAAAAAAAAAAAAAAAAB": 1516,
      "##b2R": 1517,
      "##gAAAAAAAAAC": 1518,
      "##AAAAAAAAAAAAAAAAAABg": 1519,
      "mit": 1520,
      "v8": 1521,
      "##BAAAAAAAAAA": 1522,
      "##QAAAAAAAAAAAAAAA": 1523,
      "##9B": 1524,
      "##trusted": 1525,
      "##igation": 1526,
      "untrusted": 1527,
      "mitigation": 1528,
      "mitigations": 1529,
      "##98": 1530,
      "##Qcm9": 1531,
      "##JvZ": 1532,
      "##Byb2R": 1533,
      "##dCB": 1534,
      "##Byb2R1Y": 1535,
      "##api": 1536,
      "##kYXRhL": 1537,
      "##ov": 1538,
      "##da": 1539,
      "##df": 1540,
      "##tRGF0YS": 1541,
      "##sS": 1542,
      "##hd": 1543,
      "##vb": 1544,
      "##vdCB": 1545,
      "##jbGllbnQ": 1546,
      "##ZWd": 1547,
      "##mFtRGF0YS": 1548,
      "##2Fs": 1549,
      "##1ldGF": 1550,
      "##mlvdCB": 1551,
      "riotclient": 1552,
      "##IjoiQz": 1553,
      "##Jpb3Q": 1554,
      "##vY2Fs": 1555,
      "##29uZml": 1556,
      "##iOiJDOi9Qcm9": 1557,
      "riotgamesapi": 1558,
      "##ncmFtRGF0YS": 1559,
      "##vUmlvdCB": 1560,
      "##9SaW90IEdhbWVzL01ldGF": 1561,
      "##IjoiQzov": 1562,
      "##29uZmln": 1563,
      "##iOiJDOi9Qcm9ncmFtRGF0YS": 1564,
      "##9SaW90IEdhbWVzL01ldGFkYXRhL": 1565,
      "##iOiJDOi9Qcm9ncmFtRGF0YS9SaW90IEdhbWVzL01ldGFkYXRhL": 1566,
      "##Q0": 1567,
      "##YAAAA": 1568,
      "##IAAAAAAAAAA": 1569,
      "##AAAAAAAAAABAAAA": 1570,
      "##19443": 1571,
      "1684964791319443": 1572,
      "##AAAAEAAAAAAAAAABAAAA": 1573,
      "##mmand": 1574,
      "##wi": 1575,
      "##Pro": 1576,
      "##AAAAAAAAAAAAAA": 1577,
      "##Mv": 1578,
      "##UAAAA": 1579,
      "##ZF": 1580,
      "##BAAAAAAAAAAAQAAAA": 1581,
      "##wn": 1582,
      "respa": 1583,
      "##coder": 1584,
      "##ILE": 1585,
      "respawn": 1586,
      "##r3": 1587,
      "##yJ": 1588,
      "##cy9": 1589,
      "##dlog": 1590,
      "OneDrive": 1591,
      "##AAAAAAAAAAAAAAB": 1592,
      "##r3dlog": 1593,
      "##tation": 1594,
      "##notation": 1595,
      "annotation": 1596,
      "As": 1597,
      "Sys": 1598,
      "SAAAAAAAAAD": 1599,
      "system": 1600,
      "##gw": 1601,
      "##oAAAAAAAAAAAAAAAA": 1602,
      "##BAAAAAAAAAAAAAAAA": 1603,
      "##BQAAA": 1604,
      "##HgAAAAAAAAA": 1605,
      "##KAAAA": 1606,
      "##MAAAAAAAAAA": 1607,
      "##GAAAAEAAAAAAAAAABAAAA": 1608,
      "##ter": 1609,
      "##gAAAAAAAAAMAAAAAAAAAA": 1610,
      "##AQAAAAgAAAAAAAAAC": 1611,
      "##4AAAAAAAAABAAAAAAAAAAAAAAAA": 1612,
      "##4AAAAAAAAAHgAAAAAAAAA": 1613,
      "##ACgw": 1614,
      "Share": 1615,
      "##QAAAAAAAAAAAAAAAGAAAAEAAAAAAAAAABAAAA": 1616,
      "##YAAAAIAAAAAAAAAA": 1617,
      "##UAAAAQAAAAAAAAAAAAAAAGAAAAEAAAAAAAAAABAAAA": 1618,
      "##BAAAAAAAAAAAQAAAAYAAAAIAAAAAAAAAA": 1619,
      "##AAAAAAAAAAAAAAB4AAAAAAAAAHgAAAAAAAAA": 1620,
      "##oAAAAAAAAAAAAAAAAAAAAAAAAAAAAAAB4AAAAAAAAAHgAAAAAAAAA": 1621,
      "##BQAAABAAAAAAAAAAAQAAAAYAAAAIAAAAAAAAAA": 1622,
      "##KAAAAAQAAAAgAAAAAAAAAC": 1623,
      "##gAAAAAAAAAMAAAAAAAAAA4AAAAAAAAABAAAAAAAAAAAAAAAA": 1624,
      "##ACgwAAAAAAAAAAAAAAAAAABg": 1625,
      "##UAAAAQAAAAAAAAAAAAAAAGAAAAEAAAAAAAAAABAAAABQAAABAAAAAAAAAAAQAAAAYAAAAIAAAAAAAAAA": 1626,
      "##oAAAAAAAAAAAAAAAAAAAAAAAAAAAAAAB4AAAAAAAAAHgAAAAAAAAAKAAAAAQAAAAgAAAAAAAAAC": 1627,
      "##gAAAAAAAAAMAAAAAAAAAA4AAAAAAAAABAAAAAAAAAAAAAAAAUAAAAQAAAAAAAAAAAAAAAGAAAAEAAAAAAAAAABAAAABQAAABAAAAAAAAAAAQAAAAYAAAAIAAAAAAAAAA": 1628,
      "##oAAAAAAAAAAAAAAAAAAAAAAAAAAAAAAB4AAAAAAAAAHgAAAAAAAAAKAAAAAQAAAAgAAAAAAAAACgAAAAAAAAAMAAAAAAAAAA4AAAAAAAAABAAAAAAAAAAAAAAAAUAAAAQAAAAAAAAAAAAAAAGAAAAEAAAAAAAAAABAAAABQAAABAAAAAAAAAAAQAAAAYAAAAIAAAAAAAAAA": 1629,
      "##oAAAAAAAAAAAAAAAAAAAAAAAAAAAAAAB4AAAAAAAAAHgAAAAAAAAAKAAAAAQAAAAgAAAAAAAAACgAAAAAAAAAMAAAAAAAAAA4AAAAAAAAABAAAAAAAAAAAAAAAAUAAAAQAAAAAAAAAAAAAAAGAAAAEAAAAAAAAAABAAAABQAAABAAAAAAAAAAAQAAAAYAAAAIAAAAAAAAAAgAAAAAAAAA": 1630,
      "##_p": 1631,
      "version": 1632,
      "##log": 1633,
      "##jA": 1634,
      "##ts": 1635,
      "##pl": 1636,
      "##ZSI": 1637,
      "##03": 1638,
      "##75": 1639,
      "##ex": 1640,
      "##hdG": 1641,
      "##X29": 1642,
      "Asus": 1643,
      "##HYW1l": 1644,
      "##mX2x": 1645,
      "##vbGV": 1646,
      "##JQ0": 1647,
      "##taW": 1648,
      "##dGE": 1649,
      "##RhdGE": 1650,
      "##ZS1": 1651,
      "##pb24": 1652,
      "##pb25": 1653,
      "##Ijp7In": 1654,
      "##iOnsiYXBw": 1655,
      "##hZ3VlX29": 1656,
      "##lZ2VuZHMu": 1657,
      "##vUmlvdCBHYW1l": 1658,
      "##ZSIsIn": 1659,
      "##mX2xlZ2VuZHMu": 1660,
      "##vbGVhZ3VlX29": 1661,
      "##iOnsiYXBwLX": 1662,
      "##vbGVhZ3VlX29mX2xlZ2VuZHMu": 1663,
      "##001": 1664,
      "##nN": 1665,
      "winlog": 1666,
      "Shared": 1667,
      "##54": 1668,
      "1minute": 1669,
      "24": 1670,
      "##refox": 1671,
      "##helper": 1672,
      "##70": 1673,
      "##pW": 1674,
      "##1dG": 1675,
      "##_10": 1676,
      "##RI": 1677,
      "os": 1678,
      "##_r3dlog": 1679,
      "##_helper": 1680,
      "##tec": 1681,
      "AsusUpdate": 1682,
      "##AR": 1683,
      "##NsaW": 1684,
      "15minute": 1685,
      "##NsaWVu": 1686,
      "##etec": 1687,
      "Update": 1688,
      "Network": 1689,
      "##0d": 1690,
      "NetworkService": 1691,
      "##Np": 1692,
      "##VX": 1693,
      "##etsta": 1694,
      "##etstats": 1695,
      "##CU": 1696,
      "##_A": 1697,
      "##5s": 1698,
      "##pbG": 1699,
      "##iOiI": 1700,
      "##Jpb3R": 1701,
      "##wicnN": 1702,
      "##0sInJpb3R": 1703,
      "##Nlc3N": 1704,
      "##bG9j": 1705,
      "##2xlYWd1ZV9vZl9sZWdlbmRzLmxpdmUvbGVhZ3VlX29mX2xlZ2VuZHMu": 1706,
      "##bGl2ZS": 1707,
      "##iOiJDOi9Qcm9ncmFtRGF0YS9SaW90IEdhbWVzL01ldGFkYXRhL2xlYWd1ZV9vZl9sZWdlbmRzLmxpdmUvbGVhZ3VlX29mX2xlZ2VuZHMu": 1708,
      "##1dGg": 1709,
      "##NsaWVudC": 1710,
      "##wicnNv": 1711,
      "##iOiJDOi9Qcm9ncmFtRGF0YS9SaW90IEdhbWVzL01ldGFkYXRhL2xlYWd1ZV9vZl9sZWdlbmRzLmxpdmUvbGVhZ3VlX29mX2xlZ2VuZHMubGl2ZS": 1712,
      "Trusted": 1713,
      "##Installer": 1714,
      "TrustedInstaller": 1715,
      "FILE": 1716,
      "FILEBEAT_GOGC": 1717,
      "In": 1718,
      "##_League": 1719,
      "net": 1720,
      "network": 1721,
      "##ler": 1722,
      "handler": 1723,
      "%(": 1724,
      ")%": 1725,
      "sel": 1726,
      "self": 1727,
      "##a2": 1728,
      "##AL": 1729,
      "##LW": 1730,
      "remot": 1731,
      "dll": 1732,
      "##64_": 1733,
      "##river": 1734,
      "AppX": 1735,
      "schem": 1736,
      "##_netstats": 1737,
      "schemes": 1738,
      "##ption": 1739,
      "ASU": 1740,
      "##unt": 1741,
      "ASUS": 1742,
      "##our": 1743,
      "##_D": 1744,
      "8hour": 1745,
      "##VV": 1746,
      "##mV": 1747,
      "dmp": 1748,
      "##ception": 1749,
      "##exception": 1750,
      "04T15": 1751,
      "tn": 1752,
      "use": 1753,
      "change": 1754,
      "##M0": 1755,
      "com": 1756,
      "pre": 1757,
      "##cord": 1758,
      "discord": 1759,
      "04T21": 1760,
      "##FV": 1761,
      "##ap": 1762,
      "##wc": 1763,
      "##ream": 1764,
      "##GV": 1765,
      "##b6": 1766,
      "webview": 1767,
      "##UT": 1768,
      "##37": 1769,
      "##b9": 1770,
      "3minute": 1771,
      "Audio": 1772,
      "##d6": 1773,
      "AudioService": 1774,
      "No": 1775,
      "##aW9": 1776,
      "##0l": 1777,
      "Cli": 1778,
      "##48": 1779,
      "##TU": 1780,
      "##RlZ": 1781,
      "expl": 1782,
      "##orer": 1783,
      "explorer": 1784,
      "##Wl": 1785,
      "RiotClientServic": 1786,
      "RiotClientServices": 1787,
      "up": 1788,
      "##_exception": 1789,
      "##m5": 1790,
      "##nBr": 1791,
      "9hour": 1792,
      "##Fil": 1793,
      "SearchFil": 1794,
      "##terHost": 1795,
      "SearchFilterHost": 1796,
      "50": 1797,
      "dllhost": 1798,
      "##c3": 1799,
      "##Mi": 1800,
      "##Ac": 1801,
      "##8_": 1802,
      "##318": 1803,
      "##NC": 1804,
      "driver": 1805,
      "##MT": 1806,
      "common": 1807,
      "##5a": 1808,
      "##sx": 1809,
      "install": 1810,
      "Web": 1811,
      "##mal": 1812,
      "##y_D": 1813,
      "##nomal": 1814,
      "Windows_A": 1815,
      "##count": 1816,
      "##etection": 1817,
      "##Account": 1818,
      "##y_Detection": 1819,
      "##nomaly_Detection": 1820,
      "Windows_Anomaly_Detection": 1821,
      "sys": 1822,
      "##1c": 1823,
      "##vider": 1824,
      "##Provider": 1825,
      "##ld": 1826,
      "##0M": 1827,
      "##Rk": 1828,
      "##zB": 1829,
      "##svcs": 1830,
      "netsvcs": 1831,
      "##aW9u": 1832,
      "##QW": 1833,
      "servicing": 1834,
      "UsGthrFltPipeMssGthrPipe_S": 1835,
      "##id": 1836,
      "##HS": 1837,
      "##5S": 1838,
      "##RW": 1839,
      "##VR": 1840,
      "WebAccount": 1841,
      "WebAccountProvider": 1842,
      "##con": 1843,
      "87": 1844,
      "ref": 1845,
      "##CI6": 1846,
      "##IsIn": 1847,
      "##sIm": 1848,
      "##VU": 1849,
      "161": 1850,
      "##Iiwi": 1851,
      "##db": 1852,
      "##stream": 1853,
      "##rocess": 1854,
      "upstream": 1855,
      "##_process": 1856,
      "pre_process": 1857,
      "pre_processing": 1858,
      "342": 1859,
      "gl": 1860,
      "GameB": 1861,
      "disabled": 1862,
      "##8846": 1863,
      "10minute": 1864,
      "4318": 1865,
      "vend": 1866,
      "##298846": 1867,
      "revi": 1868,
      "3179": 1869,
      "8710": 1870,
      "342298846": 1871,
      "vendor": 1872,
      "revision": 1873,
      "##Ep": 1874,
      "29": 1875,
      "##3J": 1876,
      "2hour": 1877,
      "##ence": 1878,
      "firefox": 1879,
      "101": 1880,
      "##M3": 1881,
      "##_4": 1882,
      "##77": 1883,
      "##tN": 1884,
      "0001": 1885,
      "7hour": 1886,
      "0514": 1887,
      "##M1": 1888,
      "##5l": 1889,
      "##aG9": 1890,
      "##tdG": 1891,
      "##gen": 1892,
      "##336": 1893,
      "##h0": 1894,
      "##X1": 1895,
      "ngen": 1896,
      "##mware": 1897,
      "##To": 1898,
      "##mon": 1899,
      "UsGthrCtrlFltPipeMssGthrPipe_S": 1900,
      "##iZS": 1901,
      "##zZX": 1902,
      "##9sZWFndWVfb2ZfbGVnZW5kcy": 1903,
      "##ckTo": 1904,
      "##ckToRun": 1905,
      "4minute": 1906,
      "##ke": 1907,
      "##364": 1908,
      "stand": 1909,
      "vmx": 1910,
      "##nJ": 1911,
      "##dF": 1912,
      "##e8": 1913,
      "##del": 1914,
      "##Edge": 1915,
      "##72": 1916,
      "##ext": 1917,
      "##AAAAAAA": 1918,
      "MicrosoftEdge": 1919,
      "Python38": 1920,
      "42_": 1921,
      "command": 1922,
      "##ormat": 1923,
      "vmware": 1924,
      "##57": 1925,
      "##504": 1926,
      "##bl": 1927,
      "##GF0": 1928,
      "##b9df": 1929,
      "##HR": 1930,
      "##5y": 1931,
      "ClickToRun": 1932,
      "##lJ": 1933,
      "##ze": 1934,
      "##876": 1935,
      "39_": 1936,
      "38_": 1937,
      "##DX": 1938,
      "##BY": 1939,
      "4c": 1940,
      "##OC": 1941,
      "##alone": 1942,
      "norm": 1943,
      "##US": 1944,
      "##976": 1945,
      "4hour": 1946,
      "##ook": 1947,
      "##Hook": 1948,
      "DiscordHook": 1949,
      "41": 1950,
      "qu": 1951,
      "##res": 1952,
      "##1r": 1953,
      "##_de": 1954,
      "10022": 1955,
      "##dF9": 1956,
      "02": 1957,
      "##a0": 1958,
      "##608": 1959,
      "##F6": 1960,
      "##6432": 1961,
      "22_": 1962,
      "##232": 1963,
      "##sI": 1964,
      "##_80": 1965,
      "15_2": 1966,
      "##20_RiotClientUx": 1967,
      "##b2N": 1968,
      "##4920_RiotClientUx": 1969,
      "##13336": 1970,
      "##805": 1971,
      "##22504": 1972,
      "49_80": 1973,
      "##35976": 1974,
      "##_24920_RiotClientUx": 1975,
      "##_10608": 1976,
      "50_24920_RiotClientUx": 1977,
      "42_13336": 1978,
      "39_35976": 1979,
      "38_876": 1980,
      "##OCAL": 1981,
      "41_10608": 1982,
      "22_22504": 1983,
      "15_26432": 1984,
      "49_8040": 1985,
      "42_13336_RiotClientUx": 1986,
      "41_10608_RiotClientUx": 1987,
      "22_22504_RiotClientUx": 1988,
      "##Q1": 1989,
      "##7c": 1990,
      "##fX": 1991,
      "##L1": 1992,
      "##WF": 1993,
      "##Z2FtZX": 1994,
      "##ZWF": 1995,
      "##2xp": 1996,
      "##layer": 1997,
      "##aW90Z2FtZX": 1998,
      "##iLCJy": 1999,
      "discord_": 2000,
      "##IsInB": 2001,
      "##bl9": 2002,
      "##HRf": 2003,
      "##05": 2004,
      "##e_": 2005,
      "##XM": 2006,
      "GoogleUpdate": 2007,
      "quer": 2008,
      "update": 2009,
      "##wd": 2010,
      "##LT": 2011,
      "35": 2012,
      "EX": 2013,
      "mca": 2014,
      "Sysmon": 2015,
      "EXE": 2016,
      "##Y29": 2017,
      "##68": 2018,
      "VM": 2019,
      "##gACgwAAAAAAAAAAAAAAAAAABg": 2020,
      "##rit": 2021,
      "##ion": 2022,
      "##_US": 2023,
      "##Web": 2024,
      "##Writ": 2025,
      "en_US": 2026,
      "##aW5": 2027,
      "SAAAAAAAAADgACgwAAAAAAAAAAAAAAAAAABg": 2028,
      "GameBar": 2029,
      "##enceWrit": 2030,
      "##AAAAAAAoAAAAAAAAAAAAAAAAAAAAAAAAAAAAAAB4AAAAAAAAAHgAAAAAAAAAKAAAAAQAAAAgAAAAAAAAACgAAAAAAAAAMAAAAAAAAAA4AAAAAAAAABAAAAAAAAAAAAAAAAUAAAAQAAAAAAAAAAAAAAAGAAAAEAAAAAAAAAABAAAABQAAABAAAAAAAAAAAQAAAAYAAAAIAAAAAAAAAAgAAAAAAAAA": 2031,
      "DiscordHookHelper": 2032,
      "VMware": 2033,
      "SAAAAAAAAADgACgwAAAAAAAAAAAAAAAAAABgAAAAAAAoAAAAAAAAAAAAAAAAAAAAAAAAAAAAAAB4AAAAAAAAAHgAAAAAAAAAKAAAAAQAAAAgAAAAAAAAACgAAAAAAAAAMAAAAAAAAAA4AAAAAAAAABAAAAAAAAAAAAAAAAUAAAAQAAAAAAAAAAAAAAAGAAAAEAAAAAAAAAABAAAABQAAABAAAAAAAAAAAQAAAAYAAAAIAAAAAAAAAAgAAAAAAAAA": 2034,
      "##enceWriter": 2035,
      "MicrosoftEdgeUpdate": 2036,
      "##Ex": 2037,
      "##N0": 2038,
      "##R0": 2039,
      "for": 2040,
      "##5q": 2041,
      "Servic": 2042,
      "loca": 2043,
      "##a9": 2044,
      "##916": 2045,
      "##y1": 2046,
      "513": 2047,
      "ws": 2048,
      "##2p": 2049,
      "##zdGF": 2050,
      "##_4460": 2051,
      "locale": 2052,
      "st": 2053,
      "##Jz": 2054,
      "##itor": 2055,
      "##derService": 2056,
      "##cmV": 2057,
      "34": 2058,
      "task": 2059,
      "##2l": 2060,
      "##532": 2061,
      "##Zl": 2062,
      "display": 2063,
      "##wZGF0": 2064,
      "##215": 2065,
      "##oderService": 2066,
      "##Dec": 2067,
      "data_de": 2068,
      "winsx": 2069,
      "DataDec": 2070,
      "data_decoder": 2071,
      "winsxs": 2072,
      "DataDecoderService": 2073,
      "42": 2074,
      "##4N": 2075,
      "##ER": 2076,
      "##iew": 2077,
      "##View": 2078,
      "##3Rf": 2079,
      "##_LeagueClient": 2080,
      "##aW5n": 2081,
      "##dn": 2082,
      "##ST": 2083,
      "##WebView": 2084,
      "HK": 2085,
      "##0ef": 2086,
      "##Bz": 2087,
      "##ting": 2088,
      "##UHJvZ": 2089,
      "##aWQ": 2090,
      "##566": 2091,
      "##HVj": 2092,
      "37": 2093,
      "##Ut": 2094,
      "##529": 2095,
      "##hostw": 2096,
      "158": 2097,
      "##Y29t": 2098,
      "taskhostw": 2099,
      "##tings": 2100,
      "Player": 2101,
      "eyJ": 2102,
      "lite": 2103,
      "rg": 2104,
      "rads": 2105,
      "sm": 2106,
      "##c29u": 2107,
      "##kIjoi": 2108,
      "##gR": 2109,
      "##oZWF": 2110,
      "##ucH": 2111,
      "##nMv": 2112,
      "##naW9u": 2113,
      "##fZ": 2114,
      "##0x": 2115,
      "##0sIm": 2116,
      "##BZ": 2117,
      "##URhdGE": 2118,
      "##Yj": 2119,
      "##IsI": 2120,
      "##8vY": 2121,
      "##bCI6": 2122,
      "##hlc": 2123,
      "##pc2": 2124,
      "##iI6": 2125,
      "##NZX": 2126,
      "##OQ": 2127,
      "##ydG": 2128,
      "##yYW1": 2129,
      "##yYXR": 2130,
      "##y5y": 2131,
      "##LnJ": 2132,
      "##WG": 2133,
      "##SGF": 2134,
      "##VTI": 2135,
      "##VwZGF0": 2136,
      "##ZGF0YS": 2137,
      "##1422": 2138,
      "##InJpb3Q": 2139,
      "##In0sIm": 2140,
      "##209": 2141,
      "##YXQ": 2142,
      "##cy55": 2143,
      "##MuY29t": 2144,
      "##Oi8vY": 2145,
      "##RhZGF0YS": 2146,
      "##0Y29uZmln": 2147,
      "##mxpc2": 2148,
      "##sIn0sIn": 2149,
      "##BEYXRhL": 2150,
      "##mF1b": 2151,
      "##VuX1": 2152,
      "settings": 2153,
      "##iOiJsZW": 2154,
      "##50ZWd": 2155,
      "##GF0YSI6eyJ": 2156,
      "##hbURhdGE": 2157,
      "##Imh0": 2158,
      "##ZW50Y29uZmln": 2159,
      "##SI6Im": 2160,
      "##dHBz": 2161,
      "##SUN": 2162,
      "##JlL": 2163,
      "##JlYXQ": 2164,
      "##173": 2165,
      "##1Ymxpc2": 2166,
      "##3QtaW": 2167,
      "region": 2168,
      "##X2xvY2Fs": 2169,
      "##NlcnMv": 2170,
      "##cHBEYXRhL": 2171,
      "##wZy5y": 2172,
      "##YW1sIn0sIn": 2173,
      "##FndWVfb2ZfbGVnZW5kcyIsInB": 2174,
      "##tY29uZmln": 2175,
      "##VybCI6": 2176,
      "##9BcHBEYXRhL": 2177,
      "##JvZHVj": 2178,
      "##Byb2R1Y3Rf": 2179,
      "##Byb2R1Y3QtaW": 2180,
      "##vbi": 2181,
      "##jbGllbnQtY29uZmln": 2182,
      "##ZWdpb25": 2183,
      "##Jpb3QgR": 2184,
      "##vY2FsL1": 2185,
      "##IjoiQzovVX": 2186,
      "##IjoiQzovUHJvZ": 2187,
      "##cy9NZX": 2188,
      "##JQ0F": 2189,
      "##ZS1zdGF": 2190,
      "##pb24iOnsiYXBwLX": 2191,
      "##Ijp7InVybCI6": 2192,
      "##vUmlvdCBHYW1lcy9NZX": 2193,
      "##ZSIsInByb2R1Y3QtaW": 2194,
      "##0dXM": 2195,
      "remoting": 2196,
      "##RlZmF1b": 2197,
      "##3JhbURhdGE": 2198,
      "##iZS9BcHBEYXRhL": 2199,
      "##zZXR0": 2200,
      "standalone": 2201,
      "##dF9zZXR0": 2202,
      "##2xpZW50Y29uZmln": 2203,
      "##aW90Z2FtZXMuY29t": 2204,
      "##iLCJyZWdpb25": 2205,
      "##bl9VU": 2206,
      "##HRfcmV": 2207,
      "DiscordHookHelper64": 2208,
      "##5qc29u": 2209,
      "##aW5ncy55": 2210,
      "##aWQiOiJsZW": 2211,
      "eyJjbGllbnQtY29uZmln": 2212,
      "rga": 2213,
      "##oZWFydG": 2214,
      "##ucHJvZHVj": 2215,
      "##naW9uIjoi": 2216,
      "##fZGF0YSI6eyJ": 2217,
      "##0xvY2FsL1": 2218,
      "##BZ0l": 2219,
      "##hlciI6": 2220,
      "##yYW1iZS9BcHBEYXRhL": 2221,
      "##yYXRpb24iOnsiYXBwLX": 2222,
      "##LnJwZy5y": 2223,
      "##SGFyYW1iZS9BcHBEYXRhL": 2224,
      "##VTIi": 2225,
      "##VwZGF0ZS1zdGF": 2226,
      "##InJpb3QiLCJyZWdpb25": 2227,
      "##In0sImRlZmF1b": 2228,
      "##Oi8vY2xpZW50Y29uZmln": 2229,
      "##RhZGF0YS9sZWFndWVfb2ZfbGVnZW5kcy": 2230,
      "##VuX1VTIi": 2231,
      "##50ZWdyYXRpb24iOnsiYXBwLX": 2232,
      "##Imh0dHBz": 2233,
      "##1Ymxpc2hlciI6": 2234,
      "##NlcnMvSGFyYW1iZS9BcHBEYXRhL": 2235,
      "##YW1sIn0sInByb2R1Y3Rf": 2236,
      "##FndWVfb2ZfbGVnZW5kcyIsInB1Ymxpc2hlciI6": 2237,
      "##Jpb3QgR2FtZX": 2238,
      "##IjoiQzovVXNlcnMvSGFyYW1iZS9BcHBEYXRhL": 2239,
      "##IjoiQzovUHJvZ3JhbURhdGE": 2240,
      "##Ijp7InVybCI6Imh0dHBz": 2241,
      "##vUmlvdCBHYW1lcy9NZXRhZGF0YS9sZWFndWVfb2ZfbGVnZW5kcy": 2242,
      "##ZSIsInByb2R1Y3QtaW50ZWdyYXRpb24iOnsiYXBwLX": 2243,
      "##dF9zZXR0aW5ncy55": 2244,
      "##aW90Z2FtZXMuY29tIn0sImRlZmF1b": 2245,
      "##HRfcmVnaW9uIjoi": 2246,
      "##5qc29uIiwi": 2247,
      "##aWQiOiJsZWFndWVfb2ZfbGVnZW5kcyIsInB1Ymxpc2hlciI6": 2248,
      "eyJjbGllbnQtY29uZmlnIjp7InVybCI6Imh0dHBz": 2249,
      "##oZWFydGJlYXQ": 2250,
      "##ucHJvZHVjdF9zZXR0aW5ncy55": 2251,
      "##0xvY2FsL1Jpb3QgR2FtZX": 2252,
      "##LnJwZy5yaW90Z2FtZXMuY29tIn0sImRlZmF1b": 2253,
      "##VwZGF0ZS1zdGF0dXM": 2254,
      "##InJpb3QiLCJyZWdpb25fZGF0YSI6eyJ": 2255,
      "##Oi8vY2xpZW50Y29uZmlnLnJwZy5yaW90Z2FtZXMuY29tIn0sImRlZmF1b": 2256,
      "##YW1sIn0sInByb2R1Y3RfaWQiOiJsZWFndWVfb2ZfbGVnZW5kcyIsInB1Ymxpc2hlciI6": 2257,
      "##IjoiQzovVXNlcnMvSGFyYW1iZS9BcHBEYXRhL0xvY2FsL1Jpb3QgR2FtZX": 2258,
      "##IjoiQzovUHJvZ3JhbURhdGEvUmlvdCBHYW1lcy9NZXRhZGF0YS9sZWFndWVfb2ZfbGVnZW5kcy": 2259,
      "##ZSIsInByb2R1Y3QtaW50ZWdyYXRpb24iOnsiYXBwLXVwZGF0ZS1zdGF0dXM": 2260,
      "eyJjbGllbnQtY29uZmlnIjp7InVybCI6Imh0dHBzOi8vY2xpZW50Y29uZmlnLnJwZy5yaW90Z2FtZXMuY29tIn0sImRlZmF1b": 2261,
      "##ucHJvZHVjdF9zZXR0aW5ncy55YW1sIn0sInByb2R1Y3RfaWQiOiJsZWFndWVfb2ZfbGVnZW5kcyIsInB1Ymxpc2hlciI6": 2262,
      "eyJjbGllbnQtY29uZmlnIjp7InVybCI6Imh0dHBzOi8vY2xpZW50Y29uZmlnLnJwZy5yaW90Z2FtZXMuY29tIn0sImRlZmF1bHRfcmVnaW9uIjoi": 2263,
      "##ucHJvZHVjdF9zZXR0aW5ncy55YW1sIn0sInByb2R1Y3RfaWQiOiJsZWFndWVfb2ZfbGVnZW5kcyIsInB1Ymxpc2hlciI6InJpb3QiLCJyZWdpb25fZGF0YSI6eyJ": 2264,
      "##ET": 2265,
      "##xNC": 2266,
      "1608": 2267,
      "##l5": 2268,
      "##QnBr": 2269,
      "##El5": 2270,
      "##RK": 2271,
      "##Wt": 2272,
      "##JHV": 2273,
      "##ZTU": 2274,
      "##alF6": 2275,
      "##ZX3R": 2276,
      "##YXJZX3R": 2277,
      "##NWE": 2278,
      "##9BZF": 2279,
      "##QnBrYXJZX3R": 2280,
      "##El5alF6": 2281,
      "##JHVEl5alF6": 2282,
      "##ZTU9BZF": 2283,
      "##QnBrYXJZX3R3": 2284,
      "##JHVEl5alF6QnBrYXJZX3R3": 2285,
      "##ZTU9BZFJHVEl5alF6QnBrYXJZX3R3": 2286,
      "##ctor": 2287,
      "windows": 2288,
      "##25": 2289,
      "##e2": 2290,
      "##rector": 2291,
      "director": 2292,
      "directory": 2293,
      "##pk": 2294,
      "##Nz": 2295,
      "##X3": 2296,
      "##MU": 2297,
      "##is": 2298,
      "ms": 2299,
      "node": 2300,
      "##196": 2301,
      "##bU": 2302,
      "##mh": 2303,
      "##Nl": 2304,
      "##mVh": 2305,
      "##TS": 2306,
      "##_3": 2307,
      "##WU": 2308,
      "1548": 2309,
      "##934": 2310,
      "##96": 2311,
      "##_en": 2312,
      "##onitor": 2313,
      "gpu_en": 2314,
      "##coder_helper": 2315,
      "gpu_encoder_helper": 2316,
      "monitor": 2317,
      "##2h": 2318,
      "##Uz": 2319,
      "##5D": 2320,
      "##sbG": 2321,
      "ngentask": 2322,
      "##2t": 2323,
      "##276": 2324,
      "##9In": 2325,
      "##mJ": 2326,
      "##jN": 2327,
      "##328": 2328,
      "##ZXJz": 2329,
      "##9E": 2330,
      "##1O": 2331,
      "##esenceWriter": 2332,
      "##PresenceWriter": 2333,
      "##YWxz": 2334,
      "GameBarPresenceWriter": 2335,
      "40": 2336,
      "##Wy": 2337,
      "##ZWZ": 2338,
      "rp": 2339,
      "##223": 2340,
      "##Mt": 2341,
      "##U1": 2342,
      "##Yz": 2343,
      "##8D": 2344,
      "##hQ": 2345,
      "##X2l": 2346,
      "##Wp": 2347,
      "##GRhdG": 2348,
      "##dHR": 2349,
      "##Wx0": 2350,
      "##1cGRhdG": 2351,
      "##0F": 2352,
      "##My": 2353,
      "##jYW": 2354,
      "##c3Rh": 2355,
      "##aSI6eyJ": 2356,
      "##c2F": 2357,
      "##kiOiJ": 2358,
      "##kZWZ": 2359,
      "##rZW": 2360,
      "##rZml": 2361,
      "##oIjoiQzovVXNlcnMvSGFyYW1iZS9BcHBEYXRhL0xvY2FsL1Jpb3QgR2FtZX": 2362,
      "##nYW1l": 2363,
      "##nbG9": 2364,
      "##dLCJ": 2365,
      "##dJQ0F": 2366,
      "##wW": 2367,
      "##wYXR": 2368,
      "##wvUmlvdCBHYW1l": 2369,
      "##wZXJz": 2370,
      "##waSI6eyJ": 2371,
      "##lcy": 2372,
      "##lYXJ": 2373,
      "##lvbi": 2374,
      "##fbG9j": 2375,
      "##0lt": 2376,
      "##Bvc": 2377,
      "##4iOiJ": 2378,
      "##4iLCJ": 2379,
      "##QiOiI": 2380,
      "##Ulh": 2381,
      "##UiOiJDOi9Qcm9ncmFtRGF0YS9SaW90IEdhbWVzL01ldGFkYXRhL2xlYWd1ZV9vZl9sZWdlbmRzLmxpdmUvbGVhZ3VlX29mX2xlZ2VuZHMubGl2ZS": 2382,
      "##EiLCJ": 2383,
      "##ERhdGE": 2384,
      "##Imx": 2385,
      "##IG9": 2386,
      "##IYXJ": 2387,
      "##9fX": 2388,
      "##9rZW": 2389,
      "##3Tk": 2390,
      "##tke": 2391,
      "##51cGRhdG": 2392,
      "##bjA": 2393,
      "##1pW": 2394,
      "##1Nlc3N": 2395,
      "##1sbG": 2396,
      "##sZSIsIn": 2397,
      "##phdG": 2398,
      "##xlZ2VuZH": 2399,
      "##mo": 2400,
      "##mIE": 2401,
      "##m1sbG": 2402,
      "##ibGV": 2403,
      "##iYWxz": 2404,
      "##X2F": 2405,
      "##FibGV": 2406,
      "##vT": 2407,
      "##TGV": 2408,
      "##TVR": 2409,
      "##yaX": 2410,
      "##zR": 2411,
      "##zb2": 2412,
      "##zIjoiQzovUHJvZ3JhbURhdGEvUmlvdCBHYW1lcy9NZXRhZGF0YS9sZWFndWVfb2ZfbGVnZW5kcy": 2413,
      "##L2xlYWd1ZV9vZl9sZWdlbmRzLmxpdmU": 2414,
      "##LSUN": 2415,
      "##Lmh": 2416,
      "##WR": 2417,
      "##WWG": 2418,
      "##WJlL": 2419,
      "##jZS1": 2420,
      "##VzL": 2421,
      "##Vc2": 2422,
      "##JaW": 2423,
      "##ZJQ0": 2424,
      "##ZpbG": 2425,
      "##ZSI6Im": 2426,
      "##DSmp": 2427,
      "##In0sInJpb3R": 2428,
      "##mpzb2": 2429,
      "##cy9SaW90IE": 2430,
      "##mdzIjoiQzovUHJvZ3JhbURhdGEvUmlvdCBHYW1lcy9NZXRhZGF0YS9sZWFndWVfb2ZfbGVnZW5kcy": 2431,
      "##ZXkiOiJ": 2432,
      "##0YmVh": 2433,
      "##zLz": 2434,
      "clientcon": 2435,
      "##mFpbG": 2436,
      "##mF1dGg": 2437,
      "##vZ0lt": 2438,
      "##CJ9fX": 2439,
      "##GF0Y2h": 2440,
      "##pbmdzIjoiQzovUHJvZ3JhbURhdGEvUmlvdCBHYW1lcy9NZXRhZGF0YS9sZWFndWVfb2ZfbGVnZW5kcy": 2441,
      "##dC5qc29uIiwi": 2442,
      "##hbWJlL": 2443,
      "##I6Wy": 2444,
      "##I6Imx": 2445,
      "##ImNsaWVudC": 2446,
      "##ZW5jZS1": 2447,
      "##YXRhL1Nlc3N": 2448,
      "##TI5a": 2449,
      "##dHVzL": 2450,
      "##G9jYW": 2451,
      "##TkEiLCJ": 2452,
      "##SU5D": 2453,
      "##Jlbl9VU": 2454,
      "##nQiOiI": 2455,
      "##wicGF0Y2h": 2456,
      "##iOiJDOi9Vc2": 2457,
      "##Ijp7ImNsaWVudC": 2458,
      "##iOnsiYXV0": 2459,
      "##aXN0": 2460,
      "##aXZl": 2461,
      "##SI6eyJhd": 2462,
      "##hZ3VlIG9": 2463,
      "##saW5l": 2464,
      "##bGl2ZSIsInByb2R1Y3QtaW50ZWdyYXRpb24iOnsiYXBwLXVwZGF0ZS1zdGF0dXM": 2465,
      "##iMlJ": 2466,
      "##YWxlcy": 2467,
      "##OTJaW": 2468,
      "##Vycy9": 2469,
      "##fSwicnNv": 2470,
      "##fSwicGF0Y2h": 2471,
      "##sSWp": 2472,
      "##hdWx0": 2473,
      "##vbCJ9fX": 2474,
      "##jbGllbnQiOnsiYXBwLX": 2475,
      "##MvTGV": 2476,
      "##yJdLCJ": 2477,
      "##jA5S": 2478,
      "##taWQiOiI": 2479,
      "##pb24taWQiOiI": 2480,
      "##pb25zLz": 2481,
      "##Ijp7InNlc3N": 2482,
      "##pWTI5a": 2483,
      "##NpQW": 2484,
      "##NpST": 2485,
      "##5sb2N": 2486,
      "##5saXZl": 2487,
      "##0sInJpb3RjbGllbnQiOnsiYXBwLX": 2488,
      "##bG9ja2": 2489,
      "##1dGgiOnsiYXV0": 2490,
      "##NsaWVudC9E": 2491,
      "##wicnNvIjp7ImNsaWVudC": 2492,
      "##iOiJDOi9Qcm9ncmFtRGF0YS9SaW90IEdhbWVzL01ldGFkYXRhL2xlYWd1ZV9vZl9sZWdlbmRzLmxpdmUvbGVhZ3VlX29mX2xlZ2VuZHMubGl2ZS51cGRhdG": 2493,
      "##wcERhdGE": 2494,
      "##UTR": 2495,
      "##Wl3Tk": 2496,
      "##MifSwicnNv": 2497,
      "##ldzB": 2498,
      "##EpwW": 2499,
      "##aG9yaX": 2500,
      "##tdG9rZW": 2501,
      "##1rZXkiOiJ": 2502,
      "##Utc3Rh": 2503,
      "##kIjoibGl2ZSIsInByb2R1Y3QtaW50ZWdyYXRpb24iOnsiYXBwLXVwZGF0ZS1zdGF0dXM": 2504,
      "##IsImF1dGg": 2505,
      "##OQSI6eyJhd": 2506,
      "##X2xvY2FsZSI6Im": 2507,
      "##BZ0lDSmp": 2508,
      "##VuX1VTIiwicnNvIjp7ImNsaWVudC": 2509,
      "##oZWFydGJlYXQiOiJDOi9Vc2": 2510,
      "eyJjbGllbnQtY29uZmlnIjp7InVybCI6Imh0dHBzOi8vY2xpZW50Y29uZmlnLnJwZy5yaW90Z2FtZXMuY29tIn0sImRlZmF1bHRfcmVnaW9uIjoiTkEiLCJ": 2511,
      "##ucHJvZHVjdF9zZXR0aW5ncy55YW1sIn0sInByb2R1Y3RfaWQiOiJsZWFndWVfb2ZfbGVnZW5kcyIsInB1Ymxpc2hlciI6InJpb3QiLCJyZWdpb25fZGF0YSI6eyJOQSI6eyJhd": 2512,
      "##NldHR": 2513,
      "##9In19": 2514,
      "rpg": 2515,
      "##X2lkIjoibGl2ZSIsInByb2R1Y3QtaW50ZWdyYXRpb24iOnsiYXBwLXVwZGF0ZS1zdGF0dXM": 2516,
      "##0FwcERhdGE": 2517,
      "##c2FwaSI6eyJ": 2518,
      "##kZWZhdWx0": 2519,
      "##rZmlsZSIsIn": 2520,
      "##oIjoiQzovVXNlcnMvSGFyYW1iZS9BcHBEYXRhL0xvY2FsL1Jpb3QgR2FtZXMvTGV": 2521,
      "##nYW1lc2FwaSI6eyJ": 2522,
      "##nbG9iYWxz": 2523,
      "##dJQ0FpWTI5a": 2524,
      "##wYXRoIjoiQzovVXNlcnMvSGFyYW1iZS9BcHBEYXRhL0xvY2FsL1Jpb3QgR2FtZXMvTGV": 2525,
      "##wvUmlvdCBHYW1lcy9SaW90IE": 2526,
      "##wZXJzaXN0": 2527,
      "##lYXJ0YmVh": 2528,
      "##lvbi1rZXkiOiJ": 2529,
      "##fbG9jYWxlcy": 2530,
      "##BvcnQiOiI": 2531,
      "##4iLCJoZWFydGJlYXQiOiJDOi9Vc2": 2532,
      "##UlhWWG": 2533,
      "##UiOiJDOi9Qcm9ncmFtRGF0YS9SaW90IEdhbWVzL01ldGFkYXRhL2xlYWd1ZV9vZl9sZWdlbmRzLmxpdmUvbGVhZ3VlX29mX2xlZ2VuZHMubGl2ZS5sb2N": 2534,
      "##IYXJhbWJlL": 2535,
      "##tkejA5S": 2536,
      "##bjA9In19": 2537,
      "##1pWOTJaW": 2538,
      "##phdGlvbi1rZXkiOiJ": 2539,
      "##xlZ2VuZHMifSwicnNv": 2540,
      "##mIExlZ2VuZHMifSwicnNv": 2541,
      "##m1sbGNpST": 2542,
      "##X2F1dGgiOnsiYXV0": 2543,
      "##FibGVfbG9jYWxlcy": 2544,
      "##vTG9jYW": 2545,
      "##L2xlYWd1ZV9vZl9sZWdlbmRzLmxpdmUucHJvZHVjdF9zZXR0aW5ncy55YW1sIn0sInByb2R1Y3RfaWQiOiJsZWFndWVfb2ZfbGVnZW5kcyIsInB1Ymxpc2hlciI6InJpb3QiLCJyZWdpb25fZGF0YSI6eyJOQSI6eyJhd": 2546,
      "##LSUNBZ0lDSmp": 2547,
      "##LmhlYXJ0YmVh": 2548,
      "##ZJQ0p": 2549,
      "##ZpbGUiOiJDOi9Qcm9ncmFtRGF0YS9SaW90IEdhbWVzL01ldGFkYXRhL2xlYWd1ZV9vZl9sZWdlbmRzLmxpdmUvbGVhZ3VlX29mX2xlZ2VuZHMubGl2ZS5sb2N": 2550,
      "##In0sInJpb3RnYW1lc2FwaSI6eyJ": 2551,
      "##mpzb24iLCJoZWFydGJlYXQiOiJDOi9Vc2": 2552,
      "clientconfig": 2553,
      "##mFpbGFibGVfbG9jYWxlcy": 2554,
      "##vZ0ltUlhWWG": 2555,
      "##pbmdzIjoiQzovUHJvZ3JhbURhdGEvUmlvdCBHYW1lcy9NZXRhZGF0YS9sZWFndWVfb2ZfbGVnZW5kcy5saXZl": 2556,
      "##dC5qc29uIiwibG9ja2": 2557,
      "##I6WyJlbl9VU": 2558,
      "##I6ImxvbCJ9fX": 2559,
      "##ZW5jZS1wYXRoIjoiQzovVXNlcnMvSGFyYW1iZS9BcHBEYXRhL0xvY2FsL1Jpb3QgR2FtZXMvTGV": 2560,
      "##YXRhL1Nlc3Npb25zLz": 2561,
      "##dHVzLmpzb24iLCJoZWFydGJlYXQiOiJDOi9Vc2": 2562,
      "##SU5DbjA9In19": 2563,
      "##hZ3VlIG9mIExlZ2VuZHMifSwicnNv": 2564,
      "##saW5lX2lkIjoibGl2ZSIsInByb2R1Y3QtaW50ZWdyYXRpb24iOnsiYXBwLXVwZGF0ZS1zdGF0dXM": 2565,
      "##iMlJsSWp": 2566,
      "##Vycy9IYXJhbWJlL": 2567,
      "##fSwicGF0Y2hsaW5lX2lkIjoibGl2ZSIsInByb2R1Y3QtaW50ZWdyYXRpb24iOnsiYXBwLXVwZGF0ZS1zdGF0dXM": 2568,
      "##yJdLCJkZWZhdWx0": 2569,
      "##Ijp7InNlc3Npb24taWQiOiI": 2570,
      "##NpQWdJQ0FpWTI5a": 2571,
      "##0sInJpb3RjbGllbnQiOnsiYXBwLXBvcnQiOiI": 2572,
      "##NsaWVudC9EYXRhL1Nlc3Npb25zLz": 2573,
      "##iOiJDOi9Qcm9ncmFtRGF0YS9SaW90IEdhbWVzL01ldGFkYXRhL2xlYWd1ZV9vZl9sZWdlbmRzLmxpdmUvbGVhZ3VlX29mX2xlZ2VuZHMubGl2ZS51cGRhdGUtc3Rh": 2574,
      "##Wl3TkNpQWdJQ0FpWTI5a": 2575,
      "##ldzBLSUNBZ0lDSmp": 2576,
      "##EpwWm1sbGNpST": 2577,
      "##aG9yaXphdGlvbi1rZXkiOiJ": 2578,
      "##tdG9rZW4iOiJ": 2579,
      "##IsImF1dGgtdG9rZW4iOiJ": 2580,
      "##X2xvY2FsZSI6ImVuX1VTIiwicnNvIjp7ImNsaWVudC": 2581,
      "eyJjbGllbnQtY29uZmlnIjp7InVybCI6Imh0dHBzOi8vY2xpZW50Y29uZmlnLnJwZy5yaW90Z2FtZXMuY29tIn0sImRlZmF1bHRfcmVnaW9uIjoiTkEiLCJnbG9iYWxz": 2582,
      "##NldHRpbmdzIjoiQzovUHJvZ3JhbURhdGEvUmlvdCBHYW1lcy9NZXRhZGF0YS9sZWFndWVfb2ZfbGVnZW5kcy5saXZl": 2583,
      "##0FwcERhdGEvTG9jYW": 2584,
      "##rZmlsZSIsInNldHRpbmdzIjoiQzovUHJvZ3JhbURhdGEvUmlvdCBHYW1lcy9NZXRhZGF0YS9sZWFndWVfb2ZfbGVnZW5kcy5saXZl": 2585,
      "##wvUmlvdCBHYW1lcy9SaW90IENsaWVudC9EYXRhL1Nlc3Npb25zLz": 2586,
      "##wZXJzaXN0ZW5jZS1wYXRoIjoiQzovVXNlcnMvSGFyYW1iZS9BcHBEYXRhL0xvY2FsL1Jpb3QgR2FtZXMvTGV": 2587,
      "##tkejA5SWl3TkNpQWdJQ0FpWTI5a": 2588,
      "##1pWOTJaWEpwWm1sbGNpST": 2589,
      "##X2F1dGgiOnsiYXV0aG9yaXphdGlvbi1rZXkiOiJ": 2590,
      "##L2xlYWd1ZV9vZl9sZWdlbmRzLmxpdmUucHJvZHVjdF9zZXR0aW5ncy55YW1sIn0sInByb2R1Y3RfaWQiOiJsZWFndWVfb2ZfbGVnZW5kcyIsInB1Ymxpc2hlciI6InJpb3QiLCJyZWdpb25fZGF0YSI6eyJOQSI6eyJhdmFpbGFibGVfbG9jYWxlcy": 2591,
      "##LmhlYXJ0YmVhdC5qc29uIiwibG9ja2": 2592,
      "##ZpbGUiOiJDOi9Qcm9ncmFtRGF0YS9SaW90IEdhbWVzL01ldGFkYXRhL2xlYWd1ZV9vZl9sZWdlbmRzLmxpdmUvbGVhZ3VlX29mX2xlZ2VuZHMubGl2ZS5sb2NrZmlsZSIsInNldHRpbmdzIjoiQzovUHJvZ3JhbURhdGEvUmlvdCBHYW1lcy9NZXRhZGF0YS9sZWFndWVfb2ZfbGVnZW5kcy5saXZl": 2593,
      "##In0sInJpb3RnYW1lc2FwaSI6eyJwZXJzaXN0ZW5jZS1wYXRoIjoiQzovVXNlcnMvSGFyYW1iZS9BcHBEYXRhL0xvY2FsL1Jpb3QgR2FtZXMvTGV": 2594,
      "##vZ0ltUlhWWGhQ": 2595,
      "##I6WyJlbl9VUyJdLCJkZWZhdWx0": 2596,
      "##I6ImxvbCJ9fX0sInJpb3RjbGllbnQiOnsiYXBwLXBvcnQiOiI": 2597,
      "##dHVzLmpzb24iLCJoZWFydGJlYXQiOiJDOi9Vc2Vycy9IYXJhbWJlL": 2598,
      "##hZ3VlIG9mIExlZ2VuZHMifSwicnNvX2F1dGgiOnsiYXV0aG9yaXphdGlvbi1rZXkiOiJ": 2599,
      "##iMlJsSWpvZ0ltUlhWWGhQ": 2600,
      "##fSwicGF0Y2hsaW5lX2lkIjoibGl2ZSIsInByb2R1Y3QtaW50ZWdyYXRpb24iOnsiYXBwLXVwZGF0ZS1zdGF0dXMiOiJDOi9Qcm9ncmFtRGF0YS9SaW90IEdhbWVzL01ldGFkYXRhL2xlYWd1ZV9vZl9sZWdlbmRzLmxpdmUvbGVhZ3VlX29mX2xlZ2VuZHMubGl2ZS51cGRhdGUtc3Rh": 2601,
      "##ldzBLSUNBZ0lDSmpiMlJsSWpvZ0ltUlhWWGhQ": 2602,
      "##X2xvY2FsZSI6ImVuX1VTIiwicnNvIjp7ImNsaWVudCI6ImxvbCJ9fX0sInJpb3RjbGllbnQiOnsiYXBwLXBvcnQiOiI": 2603,
      "eyJjbGllbnQtY29uZmlnIjp7InVybCI6Imh0dHBzOi8vY2xpZW50Y29uZmlnLnJwZy5yaW90Z2FtZXMuY29tIn0sImRlZmF1bHRfcmVnaW9uIjoiTkEiLCJnbG9iYWxzIjp7InNlc3Npb24taWQiOiI": 2604,
      "##0FwcERhdGEvTG9jYWwvUmlvdCBHYW1lcy9SaW90IENsaWVudC9EYXRhL1Nlc3Npb25zLz": 2605,
      "##tkejA5SWl3TkNpQWdJQ0FpWTI5a1pWOTJaWEpwWm1sbGNpST": 2606,
      "##L2xlYWd1ZV9vZl9sZWdlbmRzLmxpdmUucHJvZHVjdF9zZXR0aW5ncy55YW1sIn0sInByb2R1Y3RfaWQiOiJsZWFndWVfb2ZfbGVnZW5kcyIsInB1Ymxpc2hlciI6InJpb3QiLCJyZWdpb25fZGF0YSI6eyJOQSI6eyJhdmFpbGFibGVfbG9jYWxlcyI6WyJlbl9VUyJdLCJkZWZhdWx0": 2607,
      "##LmhlYXJ0YmVhdC5qc29uIiwibG9ja2ZpbGUiOiJDOi9Qcm9ncmFtRGF0YS9SaW90IEdhbWVzL01ldGFkYXRhL2xlYWd1ZV9vZl9sZWdlbmRzLmxpdmUvbGVhZ3VlX29mX2xlZ2VuZHMubGl2ZS5sb2NrZmlsZSIsInNldHRpbmdzIjoiQzovUHJvZ3JhbURhdGEvUmlvdCBHYW1lcy9NZXRhZGF0YS9sZWFndWVfb2ZfbGVnZW5kcy5saXZl": 2608,
      "##In0sInJpb3RnYW1lc2FwaSI6eyJwZXJzaXN0ZW5jZS1wYXRoIjoiQzovVXNlcnMvSGFyYW1iZS9BcHBEYXRhL0xvY2FsL1Jpb3QgR2FtZXMvTGVhZ3VlIG9mIExlZ2VuZHMifSwicnNvX2F1dGgiOnsiYXV0aG9yaXphdGlvbi1rZXkiOiJ": 2609,
      "##dHVzLmpzb24iLCJoZWFydGJlYXQiOiJDOi9Vc2Vycy9IYXJhbWJlL0FwcERhdGEvTG9jYWwvUmlvdCBHYW1lcy9SaW90IENsaWVudC9EYXRhL1Nlc3Npb25zLz": 2610,
      "##fSwicGF0Y2hsaW5lX2lkIjoibGl2ZSIsInByb2R1Y3QtaW50ZWdyYXRpb24iOnsiYXBwLXVwZGF0ZS1zdGF0dXMiOiJDOi9Qcm9ncmFtRGF0YS9SaW90IEdhbWVzL01ldGFkYXRhL2xlYWd1ZV9vZl9sZWdlbmRzLmxpdmUvbGVhZ3VlX29mX2xlZ2VuZHMubGl2ZS51cGRhdGUtc3RhdHVzLmpzb24iLCJoZWFydGJlYXQiOiJDOi9Vc2Vycy9IYXJhbWJlL0FwcERhdGEvTG9jYWwvUmlvdCBHYW1lcy9SaW90IENsaWVudC9EYXRhL1Nlc3Npb25zLz": 2611,
      "##tkejA5SWl3TkNpQWdJQ0FpWTI5a1pWOTJaWEpwWm1sbGNpSTZJQ0p": 2612,
      "##L2xlYWd1ZV9vZl9sZWdlbmRzLmxpdmUucHJvZHVjdF9zZXR0aW5ncy55YW1sIn0sInByb2R1Y3RfaWQiOiJsZWFndWVfb2ZfbGVnZW5kcyIsInB1Ymxpc2hlciI6InJpb3QiLCJyZWdpb25fZGF0YSI6eyJOQSI6eyJhdmFpbGFibGVfbG9jYWxlcyI6WyJlbl9VUyJdLCJkZWZhdWx0X2xvY2FsZSI6ImVuX1VTIiwicnNvIjp7ImNsaWVudCI6ImxvbCJ9fX0sInJpb3RjbGllbnQiOnsiYXBwLXBvcnQiOiI": 2613,
      "##LmhlYXJ0YmVhdC5qc29uIiwibG9ja2ZpbGUiOiJDOi9Qcm9ncmFtRGF0YS9SaW90IEdhbWVzL01ldGFkYXRhL2xlYWd1ZV9vZl9sZWdlbmRzLmxpdmUvbGVhZ3VlX29mX2xlZ2VuZHMubGl2ZS5sb2NrZmlsZSIsInNldHRpbmdzIjoiQzovUHJvZ3JhbURhdGEvUmlvdCBHYW1lcy9NZXRhZGF0YS9sZWFndWVfb2ZfbGVnZW5kcy5saXZlL2xlYWd1ZV9vZl9sZWdlbmRzLmxpdmUucHJvZHVjdF9zZXR0aW5ncy55YW1sIn0sInByb2R1Y3RfaWQiOiJsZWFndWVfb2ZfbGVnZW5kcyIsInB1Ymxpc2hlciI6InJpb3QiLCJyZWdpb25fZGF0YSI6eyJOQSI6eyJhdmFpbGFibGVfbG9jYWxlcyI6WyJlbl9VUyJdLCJkZWZhdWx0X2xvY2FsZSI6ImVuX1VTIiwicnNvIjp7ImNsaWVudCI6ImxvbCJ9fX0sInJpb3RjbGllbnQiOnsiYXBwLXBvcnQiOiI": 2614,
      "##In0sInJpb3RnYW1lc2FwaSI6eyJwZXJzaXN0ZW5jZS1wYXRoIjoiQzovVXNlcnMvSGFyYW1iZS9BcHBEYXRhL0xvY2FsL1Jpb3QgR2FtZXMvTGVhZ3VlIG9mIExlZ2VuZHMifSwicnNvX2F1dGgiOnsiYXV0aG9yaXphdGlvbi1rZXkiOiJldzBLSUNBZ0lDSmpiMlJsSWpvZ0ltUlhWWGhQ": 2615,
      "33": 2616,
      "117": 2617,
      "1774": 2618,
      "query": 2619,
      "##appx": 2620,
      "wsappx": 2621,
      "09": 2622,
      "##af": 2623,
      "##ba": 2624,
      "##xec": 2625,
      "##_t": 2626,
      "##Vw": 2627,
      "1580": 2628,
      "resour": 2629,
      "resources": 2630,
      "##oot": 2631,
      "##oACgwAAAAAAAAAAAAAAAAAABg": 2632,
      "##_w": 2633,
      "##AAAQAAA": 2634,
      "SAAAAAAAAADoACgwAAAAAAAAAAAAAAAAAABg": 2635,
      "##AAAQAAAoAAAAAAAAAAAAAAAAAAAAAAAAAAAAAAB4AAAAAAAAAHgAAAAAAAAAKAAAAAQAAAAgAAAAAAAAACgAAAAAAAAAMAAAAAAAAAA4AAAAAAAAABAAAAAAAAAAAAAAAAUAAAAQAAAAAAAAAAAAAAAGAAAAEAAAAAAAAAABAAAABQAAABAAAAAAAAAAAQAAAAYAAAAIAAAAAAAAAAgAAAAAAAAA": 2636,
      "SAAAAAAAAADoACgwAAAAAAAAAAAAAAAAAABgAAAQAAAoAAAAAAAAAAAAAAAAAAAAAAAAAAAAAAB4AAAAAAAAAHgAAAAAAAAAKAAAAAQAAAAgAAAAAAAAACgAAAAAAAAAMAAAAAAAAAA4AAAAAAAAABAAAAAAAAAAAAAAAAUAAAAQAAAAAAAAAAAAAAAGAAAAEAAAAAAAAAABAAAABQAAABAAAAAAAAAAAQAAAAYAAAAIAAAAAAAAAAgAAAAAAAAA": 2637,
      "##06": 2638,
      "##E1": 2639,
      "##T00": 2640,
      "04T22": 2641,
      "05T00": 2642,
      "53": 2643,
      "##ali": 2644,
      "##f6": 2645,
      "##507": 2646,
      "##Ja": 2647,
      "##J6": 2648,
      "56": 2649,
      "819": 2650,
      "Mp": 2651,
      "##do": 2652,
      "##DB": 2653,
      "##OD": 2654,
      "##OE": 2655,
      "EdgeWebView": 2656,
      "59": 2657,
      "##MD": 2658,
      "##RD": 2659,
      "113": 2660,
      "##tric": 2661,
      "03": 2662,
      "##cc": 2663,
      "##MV": 2664,
      "##_183": 2665,
      "normali": 2666,
      "##_18300": 2667,
      "normalize": 2668,
      "Un": 2669,
      "27": 2670,
      "Exec": 2671,
      "cap": 2672,
      "get": 2673,
      "##QtN": 2674,
      "##Td": 2675,
      "##ture_helper": 2676,
      "##tricted": 2677,
      "capture_helper": 2678,
      "##SE": 2679,
      "sho": 2680,
      "##udn": 2681,
      "##dU": 2682,
      "##KOE": 2683,
      "##ID": 2684,
      "##hKOE": 2685,
      "##WWx": 2686,
      "##VJ": 2687,
      "Command": 2688,
      "##499": 2689,
      "##mxBY": 2690,
      "##ZVM0": 2691,
      "##ZHX3": 2692,
      "##VwRD": 2693,
      "##QtNmxBY": 2694,
      "##TdB": 2695,
      "##udnZHX3": 2696,
      "##hKOEQtNmxBY": 2697,
      "##ZVM0VwRD": 2698,
      "##udnZHX3ZVM0VwRD": 2699,
      "##hKOEQtNmxBYTdB": 2700,
      "##udnZHX3ZVM0VwRDhKOEQtNmxBYTdB": 2701,
      "01": 2702,
      "##Log": 2703,
      "##Policy": 2704,
      "Text": 2705,
      "##ak": 2706,
      "##ution": 2707,
      "##ual": 2708,
      "##e4": 2709,
      "##px": 2710,
      "##Format": 2711,
      "model": 2712,
      "##putFormat": 2713,
      "InputFormat": 2714,
      "NoEx": 2715,
      "NoLog": 2716,
      "##restricted": 2717,
      "Unrestricted": 2718,
      "Execution": 2719,
      "NoExit": 2720,
      "NoLogo": 2721,
      "ExecutionPolicy": 2722,
      "Win": 2723,
      "##tudio": 2724,
      "##ii": 2725,
      "pt": 2726,
      "##MO": 2727,
      "##EY": 2728,
      "12": 2729,
      "##a8": 2730,
      "##ary": 2731,
      "##Y2": 2732,
      "##bb": 2733,
      "##imary": 2734,
      "44": 2735,
      "##69": 2736,
      "Background": 2737,
      "Temp": 2738,
      "##71": 2739,
      "##x64_": 2740,
      "##);": 2741,
      "##_war": 2742,
      "##2R": 2743,
      "##Mj": 2744,
      "Vis": 2745,
      "amd": 2746,
      "##uil": 2747,
      "##da3": 2748,
      "Visual": 2749,
      "pr": 2750,
      "##ger": 2751,
      "##_LeagueClientUx": 2752,
      "primary": 2753,
      "290": 2754,
      "66": 2755,
      "230": 2756,
      "##c7c": 2757,
      "##ote": 2758,
      "##f38": 2759,
      "##7dd": 2760,
      "##e35": 2761,
      "##5_n": 2762,
      "##microsoft": 2763,
      "##_7dd": 2764,
      "##WOR": 2765,
      "WINWOR": 2766,
      "##all": 2767,
      "##ad364": 2768,
      "1904": 2769,
      "##stack": 2770,
      "##c4c7c": 2771,
      "100229": 2772,
      "##56ad364": 2773,
      "##one_7dd": 2774,
      "##1bf38": 2775,
      "##39c4c7c": 2776,
      "##64_microsoft": 2777,
      "servicingstack": 2778,
      "refs": 2779,
      "##b9dfa0": 2780,
      "##_31bf38": 2781,
      "amd64_microsoft": 2782,
      "2905_n": 2783,
      "##e35_10": 2784,
      "WINWORD": 2785,
      "19041": 2786,
      "##56ad364e35_10": 2787,
      "##one_7dd39c4c7c": 2788,
      "servicingstack_31bf38": 2789,
      "2905_none_7dd39c4c7c": 2790,
      "servicingstack_31bf3856ad364e35_10": 2791,
      "2905_none_7dd39c4c7cb9dfa0": 2792,
      "ptype": 2793,
      "##rc": 2794,
      "##name": 2795,
      "##f3": 2796,
      "##UV": 2797,
      "##66": 2798,
      "##73": 2799,
      "##ed": 2800,
      "##ND": 2801,
      "Pro": 2802,
      "##Qi": 2803,
      "##5b": 2804,
      "0x7": 2805,
      "4d": 2806,
      "658": 2807,
      "78": 2808,
      "##92": 2809,
      "##bi": 2810,
      "!=": 2811,
      "2f": 2812,
      "476": 2813,
      "mem": 2814,
      "saf": 2815,
      "##cce": 2816,
      "##HIN": 2817,
      "##MAC": 2818,
      "##9b": 2819,
      "##_MAC": 2820,
      "##injec": 2821,
      "##tal": 2822,
      "##46a": 2823,
      "##_LOCAL": 2824,
      "##e_x64_": 2825,
      "HKEY": 2826,
      "safe_x64_": 2827,
      "##HINE": 2828,
      "##_MACHINE": 2829,
      "##injector": 2830,
      "##_LOCAL_MACHINE": 2831,
      "HKEY_LOCAL_MACHINE": 2832,
      "safe_x64_injector": 2833,
      "##D8": 2834,
      "##Cmd": 2835,
      "##MI": 2836,
      "##241": 2837,
      "MpCmd": 2838,
      "MpCmdRun": 2839,
      "as": 2840,
      "##Downlo": 2841,
      "##Download": 2842,
      "47": 2843,
      "##TF": 2844,
      "##Svc": 2845,
      "Ado": 2846,
      "##420": 2847,
      "Adobe": 2848,
      "93": 2849,
      "blitz": 2850,
      "##Uy": 2851,
      "##Wa": 2852,
      "##160": 2853,
      "wli": 2854,
      "##dsvc": 2855,
      "##CE": 2856,
      "##Mm": 2857,
      "##eF": 2858,
      "##120": 2859,
      "##NR": 2860,
      "##tYmU": 2861,
      "wlidsvc": 2862,
      "py": 2863,
      "##4b": 2864,
      "##reen": 2865,
      "##screen": 2866,
      "UsGthrFltPipeMssGthrPipe3": 2867,
      "##artscreen": 2868,
      "smartscreen": 2869,
      "MET": 2870,
      "find": 2871,
      "##CBEAT_GOGC": 2872,
      "##Mz": 2873,
      "##hO": 2874,
      "##str": 2875,
      "136": 2876,
      "##879": 2877,
      "##RICBEAT_GOGC": 2878,
      "BackgroundDownload": 2879,
      "METRICBEAT_GOGC": 2880,
      "findstr": 2881,
      "0805": 2882,
      "##079": 2883,
      "129": 2884,
      "if": 2885,
      "##_ii": 2886,
      "##ename": 2887,
      "##872": 2888,
      "1888": 2889,
      "##957": 2890,
      "107": 2891,
      "mks": 2892,
      "spp": 2893,
      "##cd": 2894,
      "##NU": 2895,
      "##Sandbox": 2896,
      "##29b": 2897,
      "mksSandbox": 2898,
      "sppsvc": 2899,
      "##oic": 2900,
      "##0P": 2901,
      "##674": 2902,
      "##129": 2903,
      "##pY": 2904,
      "##NG": 2905,
      "##voic": 2906,
      "10023": 2907,
      "discord_voic": 2908,
      "discord_voice": 2909,
      "##lY": 2910,
      "##UG": 2911,
      "##hC": 2912,
      "##804": 2913,
      "##7993": 2914,
      "##iMT": 2915,
      "39_35976_Riot": 2916,
      "39_35976_Riot_Client": 2917,
      "38_876_Riot": 2918,
      "38_876_Riot_Client": 2919,
      "15_26432_Riot": 2920,
      "15_26432_Riot_Client": 2921,
      "49_8040_Riot": 2922,
      "49_8040_Riot_Client": 2923,
      "##82": 2924,
      "##h2": 2925,
      "##Zh": 2926,
      "##188": 2927,
      "OfficeC": 2928,
      "##cF": 2929,
      "##dR": 2930,
      "##986": 2931,
      "##iN": 2932,
      "##RQ": 2933,
      "##yNW": 2934,
      "##Wk": 2935,
      "##WQ": 2936,
      "##VZ": 2937,
      "##JS": 2938,
      "Firefox": 2939,
      "##M3B": 2940,
      "WinR": 2941,
      "##MmI": 2942,
      "SDX": 2943,
      "##598": 2944,
      "##FK": 2945,
      "##hook": 2946,
      "##102": 2947,
      "##anager": 2948,
      "##53f": 2949,
      "AppXSvc": 2950,
      "discord_hook": 2951,
      "SDXHelper": 2952,
      "HAR": 2953,
      "##286": 2954,
      "##DW": 2955,
      "##wY": 2956,
      "##6d8": 2957,
      "##OW": 2958,
      "##z1": 2959,
      "##WOW": 2960,
      "##ory": 2961,
      "UsGthrCtrlFltPipeMssGthrPipe3": 2962,
      "SysWOW": 2963,
      "##ARE": 2964,
      "##378": 2965,
      "memory": 2966,
      "##598c": 2967,
      "HARDW": 2968,
      "SysWOW64": 2969,
      "HARDWARE": 2970,
      "Zd6": 2971,
      "##2es": 2972,
      "##g9": 2973,
      "##C1": 2974,
      "##Bx": 2975,
      "##IA": 2976,
      "##1f": 2977,
      "##v0P": 2978,
      "##je2": 2979,
      "##2914": 2980,
      "##871": 2981,
      "##hOg9": 2982,
      "##RQBx": 2983,
      "Zd6RQBx": 2984,
      "##2eshOg9": 2985,
      "##v0PIA": 2986,
      "##je2v0PIA": 2987,
      "Zd6RQBx2eshOg9": 2988,
      "Zd6RQBx2eshOg9je2v0PIA": 2989,
      "518": 2990,
      "nv": 2991,
      "##Hub": 2992,
      "##6c": 2993,
      "##231": 2994,
      "##Process": 2995,
      "##ach": 2996,
      "##f0": 2997,
      "##CS": 2998,
      "##UO": 2999,
      "##579": 3000,
      "##OCU": 3001,
      "##ffd": 3002,
      "0x3": 3003,
      "##_RCS": 3004,
      "##477": 3005,
      "crashpad_4460": 3006,
      "36_4460": 3007,
      "##1775": 3008,
      "##DXUG": 3009,
      "##DBMI": 3010,
      "##OCUDBMI": 3011,
      "##_RCSDXUG": 3012,
      "crashpad_4460_RCSDXUG": 3013,
      "36_4460_LeagueClient": 3014,
      "##OCUDBMIUO": 3015,
      "crashpad_4460_RCSDXUGOCUDBMIUO": 3016,
      "95": 3017,
      "##rig": 3018,
      "##Qx": 3019,
      "##de74": 3020,
      "##4979": 3021,
      "##version": 3022,
      "checkin": 3023,
      "470": 3024,
      "5a": 3025,
      "544": 3026,
      "618": 3027,
      "Manager": 3028,
      "##250": 3029,
      "##cV": 3030,
      "##7e": 3031,
      "##Native": 3032,
      "##yj": 3033,
      "##eabi": 3034,
      "##ef64": 3035,
      "##16674": 3036,
      "##224": 3037,
      "##4220": 3038,
      "Serviceabi": 3039,
      "##iNTk": 3040,
      "61814": 3041,
      "Serviceability": 3042,
      "075": 3043,
      "1fb": 3044,
      "2fb": 3045,
      "3805": 3046,
      "4173": 3047,
      "4ef64": 3048,
      "4224": 3049,
      "5be": 3050,
      "563": 3051,
      "5b6": 3052,
      "633": 3053,
      "74b": 3054,
      "894": 3055,
      "9c": 3056,
      "9e": 3057,
      "bc": 3058,
      "bd": 3059,
      "b29b": 3060,
      "c3": 3061,
      "c0d": 3062,
      "c231": 3063,
      "c1775": 3064,
      "d9": 3065,
      "d6": 3066,
      "effd": 3067,
      "f4220": 3068,
      "##aF": 3069,
      "##c15": 3070,
      "##lA": 3071,
      "##Q3": 3072,
      "##620": 3073,
      "##591": 3074,
      "##bdb": 3075,
      "##T2": 3076,
      "##Rv": 3077,
      "##JT": 3078,
      "1360": 3079,
      "##236": 3080,
      "##8662": 3081,
      "##64477": 3082,
      "gpsvc": 3083,
      "##adf": 3084,
      "##8012": 3085,
      "2123": 3086,
      "##74286": 3087,
      "##796d8": 3088,
      "##dd30": 3089,
      "##245b": 3090,
      "49cd": 3091,
      "##94c15": 3092,
      "##1b0ef": 3093,
      "##fb53f": 3094,
      "##fb94c15": 3095,
      "##445a": 3096,
      "##daba": 3097,
      "4cdd": 3098,
      "4c9b": 3099,
      "##Q1M": 3100,
      "42f0": 3101,
      "##0efadf": 3102,
      "8198": 3103,
      "##cc6c": 3104,
      "##2RClient": 3105,
      "661f": 3106,
      "23064477": 3107,
      "##f374286": 3108,
      "4d07": 3109,
      "658d": 3110,
      "2fdaba": 3111,
      "4763": 3112,
      "##cce0efadf": 3113,
      "OfficeC2RClient": 3114,
      "##de7412": 3115,
      "470250": 3116,
      "5a28": 3117,
      "544f374286": 3118,
      "##7e796d8": 3119,
      "##16674b9df": 3120,
      "075fb53f": 3121,
      "1fb7e796d8": 3122,
      "2fb4": 3123,
      "3805dd30": 3124,
      "4ef64fb94c15": 3125,
      "5be2": 3126,
      "5631b0ef": 3127,
      "5b6cce0efadf": 3128,
      "633d": 3129,
      "74b16674b9df": 3130,
      "894d": 3131,
      "9cd5": 3132,
      "9ede7412": 3133,
      "bcbb": 3134,
      "bdc4": 3135,
      "c3b6": 3136,
      "c0d445a": 3137,
      "c1775cc6c": 3138,
      "d9eb": 3139,
      "d6db": 3140,
      "effd245b": 3141,
      "f422046a": 3142,
      "##bdbf6": 3143,
      "661f1422": 3144,
      "2fdaba12": 3145,
      "47025047": 3146,
      "544f37428658": 3147,
      "1fb7e796d858": 3148,
      "c0d445abdbf6": 3149,
      "c1775cc6cda3": 3150,
      "effd245b598c": 3151,
      "452": 3152,
      "##2MT": 3153,
      "##cGF": 3154,
      "##lC": 3155,
      "##024": 3156,
      "##4R": 3157,
      "##416": 3158,
      "##814": 3159,
      "##590": 3160,
      "##1LT": 3161,
      "1374": 3162,
      "1628": 3163,
      "##2370": 3164,
      "##07129": 3165,
      "17232": 3166,
      "##2062": 3167,
      "##1939": 3168,
      "##YWN": 3169,
      "##1277": 3170,
      "##363": 3171,
      "##2818": 3172,
      "##1lX": 3173,
      "##5829": 3174,
      "##9474": 3175,
      "##30532": 3176,
      "3378": 3177,
      "586": 3178,
      "847": 3179,
      "YMO": 3180,
      "lic": 3181,
      "##2871": 3182,
      "##aGF": 3183,
      "##k9S": 3184,
      "##kOT": 3185,
      "##k0M": 3186,
      "##gxNC": 3187,
      "##g1LT": 3188,
      "##rNU": 3189,
      "##rWk": 3190,
      "##oy": 3191,
      "##dkOT": 3192,
      "##drNU": 3193,
      "##Di": 3194,
      "##wQ1": 3195,
      "##lRK": 3196,
      "##f5": 3197,
      "##0583": 3198,
      "##0196": 3199,
      "##AdR": 3200,
      "##Bpk": 3201,
      "##KbU": 3202,
      "##MnBr": 3203,
      "##UWx": 3204,
      "##U2p": 3205,
      "##UmJ": 3206,
      "##GTI": 3207,
      "##GWF": 3208,
      "##GTVR": 3209,
      "##GtkejA5SWl3TkNpQWdJQ0FpWTI5a1pWOTJaWEpwWm1sbGNpSTZJQ0p": 3210,
      "##EtYmU": 3211,
      "##YxNC": 3212,
      "##Y_t": 3213,
      "##I1O": 3214,
      "##9i": 3215,
      "##9ZTU9BZFJHVEl5alF6QnBrYXJZX3R3": 3216,
      "##9NR": 3217,
      "##31": 3218,
      "##358": 3219,
      "##3ZD": 3220,
      "##6107": 3221,
      "##6U2p": 3222,
      "##eG9": 3223,
      "##5mV": 3224,
      "##5WU": 3225,
      "##1ZD": 3226,
      "##1JT": 3227,
      "##hY2": 3228,
      "##pHS": 3229,
      "##pUV": 3230,
      "##xLW": 3231,
      "##mMT": 3232,
      "##XRk": 3233,
      "##FZ": 3234,
      "##F0Y": 3235,
      "##FcH": 3236,
      "##FNWE": 3237,
      "##vWl": 3238,
      "##TY": 3239,
      "##TWt": 3240,
      "##TSU5DbjA9In19": 3241,
      "##OaGF": 3242,
      "##R1lX": 3243,
      "##RXRk": 3244,
      "##zZD": 3245,
      "##zFV": 3246,
      "##Wmp": 3247,
      "##W5S": 3248,
      "##WMU": 3249,
      "##WcV": 3250,
      "##SV": 3251,
      "##S03": 3252,
      "##qTk": 3253,
      "##jRlZ": 3254,
      "##jMV": 3255,
      "##Vra": 3256,
      "##Vak": 3257,
      "##JOU": 3258,
      "##JeF": 3259,
      "##ZvWl": 3260,
      "##ZqTk": 3261,
      "##amRXRk": 3262,
      "##ign": 3263,
      "##32986": 3264,
      "##elJOU": 3265,
      "20173": 3266,
      "142370": 3267,
      "13420": 3268,
      "##laU1": 3269,
      "##laelJOU": 3270,
      "1520": 3271,
      "1556": 3272,
      "1568": 3273,
      "##8600": 3274,
      "##86160": 3275,
      "##6403": 3276,
      "##64529": 3277,
      "##14916": 3278,
      "##2915": 3279,
      "##2967": 3280,
      "##19591": 3281,
      "##8362": 3282,
      "##8358": 3283,
      "##ducGF": 3284,
      "##YWYxNC": 3285,
      "##001939": 3286,
      "##87079": 3287,
      "##cyYj": 3288,
      "##6256": 3289,
      "##62507": 3290,
      "##168362": 3291,
      "##805829": 3292,
      "##10767": 3293,
      "##1807": 3294,
      "##1888": 3295,
      "##1038": 3296,
      "##470": 3297,
      "##47566": 3298,
      "##288358": 3299,
      "##7930532": 3300,
      "##mFmMT": 3301,
      "##arY_t": 3302,
      "39416": 3303,
      "##761277": 3304,
      "##33363": 3305,
      "##50120": 3306,
      "##ZVlRK": 3307,
      "##TI1ZD": 3308,
      "##8852": 3309,
      "##583532": 3310,
      "##24288358": 3311,
      "##97284": 3312,
      "##972914": 3313,
      "##978852": 3314,
      "##dHlh": 3315,
      "##5517": 3316,
      "##556403": 3317,
      "##JlND": 3318,
      "##531807": 3319,
      "##8708188": 3320,
      "##527993": 3321,
      "##6007129": 3322,
      "##3533363": 3323,
      "##nBVak": 3324,
      "##nBZVlRK": 3325,
      "515556403": 3326,
      "##lhjRlZ": 3327,
      "1230196": 3328,
      "##ZDFK": 3329,
      "##ZDg1LT": 3330,
      "##QzBpk": 3331,
      "##NWm5": 3332,
      "##YWxwQ1": 3333,
      "##9564529": 3334,
      "##67566": 3335,
      "##V0RK": 3336,
      "##V0pUV": 3337,
      "##OTW5S": 3338,
      "##183358": 3339,
      "##982062": 3340,
      "##sS05": 3341,
      "##sSnBVak": 3342,
      "##001761277": 3343,
      "##5462507": 3344,
      "##70328": 3345,
      "##CU2p": 3346,
      "##LWI1O": 3347,
      "##VVTSU5DbjA9In19": 3348,
      "##VVVra": 3349,
      "##FVdHlh": 3350,
      "##wczFV": 3351,
      "##m5GWF": 3352,
      "##m5WMU": 3353,
      "##0My1": 3354,
      "##RkF0Y": 3355,
      "##zBjMV": 3356,
      "##HSk9S": 3357,
      "##RWcF": 3358,
      "##RWMnBr": 3359,
      "##VRMD": 3360,
      "##M3LWI1O": 3361,
      "##M1oy": 3362,
      "##364579": 3363,
      "##2326107": 3364,
      "##916236": 3365,
      "##y1iNTk": 3366,
      "##21525": 3367,
      "425462507": 3368,
      "##4NS03": 3369,
      "1584": 3370,
      "158934": 3371,
      "##14222": 3372,
      "##20914222": 3373,
      "##WtGTVR": 3374,
      "##NWEzZD": 3375,
      "##ZTU9BZFJHVEl5alF6QnBrYXJZX3R3In0sInJpb3RnYW1lc2FwaSI6eyJwZXJzaXN0ZW5jZS1wYXRoIjoiQzovVXNlcnMvSGFyYW1iZS9BcHBEYXRhL0xvY2FsL1Jpb3QgR2FtZXMvTGVhZ3VlIG9mIExlZ2VuZHMifSwicnNvX2F1dGgiOnsiYXV0aG9yaXphdGlvbi1rZXkiOiJldzBLSUNBZ0lDSmpiMlJsSWpvZ0ltUlhWWGhQ": 3376,
      "##968662": 3377,
      "##jNy1iNTk": 3378,
      "##MtYWN": 3379,
      "##YzUTR": 3380,
      "##zR6U2p": 3381,
      "##WR1JT": 3382,
      "##IsImF1dGgtdG9rZW4iOiJZTU9BZFJHVEl5alF6QnBrYXJZX3R3In0sInJpb3RnYW1lc2FwaSI6eyJwZXJzaXN0ZW5jZS1wYXRoIjoiQzovVXNlcnMvSGFyYW1iZS9BcHBEYXRhL0xvY2FsL1Jpb3QgR2FtZXMvTGVhZ3VlIG9mIExlZ2VuZHMifSwicnNvX2F1dGgiOnsiYXV0aG9yaXphdGlvbi1rZXkiOiJldzBLSUNBZ0lDSmpiMlJsSWpvZ0ltUlhWWGhQ": 3383,
      "eyJjbGllbnQtY29uZmlnIjp7InVybCI6Imh0dHBzOi8vY2xpZW50Y29uZmlnLnJwZy5yaW90Z2FtZXMuY29tIn0sImRlZmF1bHRfcmVnaW9uIjoiTkEiLCJnbG9iYWxzIjp7InNlc3Npb24taWQiOiI3ZD": 3384,
      "##fSwicGF0Y2hsaW5lX2lkIjoibGl2ZSIsInByb2R1Y3QtaW50ZWdyYXRpb24iOnsiYXBwLXVwZGF0ZS1zdGF0dXMiOiJDOi9Qcm9ncmFtRGF0YS9SaW90IEdhbWVzL01ldGFkYXRhL2xlYWd1ZV9vZl9sZWdlbmRzLmxpdmUvbGVhZ3VlX29mX2xlZ2VuZHMubGl2ZS51cGRhdGUtc3RhdHVzLmpzb24iLCJoZWFydGJlYXQiOiJDOi9Vc2Vycy9IYXJhbWJlL0FwcERhdGEvTG9jYWwvUmlvdCBHYW1lcy9SaW90IENsaWVudC9EYXRhL1Nlc3Npb25zLzdkOT": 3385,
      "##LmhlYXJ0YmVhdC5qc29uIiwibG9ja2ZpbGUiOiJDOi9Qcm9ncmFtRGF0YS9SaW90IEdhbWVzL01ldGFkYXRhL2xlYWd1ZV9vZl9sZWdlbmRzLmxpdmUvbGVhZ3VlX29mX2xlZ2VuZHMubGl2ZS5sb2NrZmlsZSIsInNldHRpbmdzIjoiQzovUHJvZ3JhbURhdGEvUmlvdCBHYW1lcy9NZXRhZGF0YS9sZWFndWVfb2ZfbGVnZW5kcy5saXZlL2xlYWd1ZV9vZl9sZWdlbmRzLmxpdmUucHJvZHVjdF9zZXR0aW5ncy55YW1sIn0sInByb2R1Y3RfaWQiOiJsZWFndWVfb2ZfbGVnZW5kcyIsInB1Ymxpc2hlciI6InJpb3QiLCJyZWdpb25fZGF0YSI6eyJOQSI6eyJhdmFpbGFibGVfbG9jYWxlcyI6WyJlbl9VUyJdLCJkZWZhdWx0X2xvY2FsZSI6ImVuX1VTIiwicnNvIjp7ImNsaWVudCI6ImxvbCJ9fX0sInJpb3RjbGllbnQiOnsiYXBwLXBvcnQiOiI2MT": 3386,
      "11770328": 3387,
      "##SE5mV": 3388,
      "##QifSwicGF0Y2hsaW5lX2lkIjoibGl2ZSIsInByb2R1Y3QtaW50ZWdyYXRpb24iOnsiYXBwLXVwZGF0ZS1zdGF0dXMiOiJDOi9Qcm9ncmFtRGF0YS9SaW90IEdhbWVzL01ldGFkYXRhL2xlYWd1ZV9vZl9sZWdlbmRzLmxpdmUvbGVhZ3VlX29mX2xlZ2VuZHMubGl2ZS51cGRhdGUtc3RhdHVzLmpzb24iLCJoZWFydGJlYXQiOiJDOi9Vc2Vycy9IYXJhbWJlL0FwcERhdGEvTG9jYWwvUmlvdCBHYW1lcy9SaW90IENsaWVudC9EYXRhL1Nlc3Npb25zLzdkOT": 3389,
      "788708188": 3390,
      "##241102": 3391,
      "##UyYWYxNC": 3392,
      "##WazR6U2p": 3393,
      "136168362": 3394,
      "129527993": 3395,
      "##87263": 3396,
      "18882915": 3397,
      "##hCNWEzZD": 3398,
      "##iMTlaU1": 3399,
      "##yNWQ1M": 3400,
      "##WQ4NS03": 3401,
      "##VZM3B": 3402,
      "##JSZDFK": 3403,
      "##MmIxLW": 3404,
      "5189564529": 3405,
      "##QxZDg1LT": 3406,
      "##yjQzBpk": 3407,
      "##62006": 3408,
      "##80124979": 3409,
      "452805829": 3410,
      "##lCWmp": 3411,
      "##4RVVTSU5DbjA9In19": 3412,
      "##81453": 3413,
      "##5902326107": 3414,
      "1374183358": 3415,
      "172321038": 3416,
      "##2818215": 3417,
      "##947486": 3418,
      "337847566": 3419,
      "586583532": 3420,
      "847001761277": 3421,
      "YMOAdR": 3422,
      "licen": 3423,
      "##287187263": 3424,
      "##k0MWQ4NS03": 3425,
      "##gxNCIsImF1dGgtdG9rZW4iOiJZTU9BZFJHVEl5alF6QnBrYXJZX3R3In0sInJpb3RnYW1lc2FwaSI6eyJwZXJzaXN0ZW5jZS1wYXRoIjoiQzovVXNlcnMvSGFyYW1iZS9BcHBEYXRhL0xvY2FsL1Jpb3QgR2FtZXMvTGVhZ3VlIG9mIExlZ2VuZHMifSwicnNvX2F1dGgiOnsiYXV0aG9yaXphdGlvbi1rZXkiOiJldzBLSUNBZ0lDSmpiMlJsSWpvZ0ltUlhWWGhQ": 3426,
      "##rWkRWMnBr": 3427,
      "##drNU9i": 3428,
      "##0583531807": 3429,
      "##KbU5WU": 3430,
      "##UWxWcV": 3431,
      "##UmJrWkRWMnBr": 3432,
      "##GTIyjQzBpk": 3433,
      "##GtkejA5SWl3TkNpQWdJQ0FpWTI5a1pWOTJaWEpwWm1sbGNpSTZJQ0pNWm5": 3434,
      "##EtYmU0My1": 3435,
      "##9ZTU9BZFJHVEl5alF6QnBrYXJZX3R3LmhlYXJ0YmVhdC5qc29uIiwibG9ja2ZpbGUiOiJDOi9Qcm9ncmFtRGF0YS9SaW90IEdhbWVzL01ldGFkYXRhL2xlYWd1ZV9vZl9sZWdlbmRzLmxpdmUvbGVhZ3VlX29mX2xlZ2VuZHMubGl2ZS5sb2NrZmlsZSIsInNldHRpbmdzIjoiQzovUHJvZ3JhbURhdGEvUmlvdCBHYW1lcy9NZXRhZGF0YS9sZWFndWVfb2ZfbGVnZW5kcy5saXZlL2xlYWd1ZV9vZl9sZWdlbmRzLmxpdmUucHJvZHVjdF9zZXR0aW5ncy55YW1sIn0sInByb2R1Y3RfaWQiOiJsZWFndWVfb2ZfbGVnZW5kcyIsInB1Ymxpc2hlciI6InJpb3QiLCJyZWdpb25fZGF0YSI6eyJOQSI6eyJhdmFpbGFibGVfbG9jYWxlcyI6WyJlbl9VUyJdLCJkZWZhdWx0X2xvY2FsZSI6ImVuX1VTIiwicnNvIjp7ImNsaWVudCI6ImxvbCJ9fX0sInJpb3RjbGllbnQiOnsiYXBwLXBvcnQiOiI2MT": 3436,
      "##9NRnBZVlRK": 3437,
      "##eG9WazR6U2p": 3438,
      "##hY2M3LWI1O": 3439,
      "##pHSlhjRlZ": 3440,
      "##FZJeF": 3441,
      "##FcHlaelJOU": 3442,
      "##FNWEwczFV": 3443,
      "##TWt4RVVTSU5DbjA9In19": 3444,
      "##OaGFsSnBVak": 3445,
      "##R1lXeG9WazR6U2p": 3446,
      "##ZvWlRWcF": 3447,
      "##ZqTk9NRnBZVlRK": 3448,
      "##amRXRkVZM3B": 3449,
      "##329863": 3450,
      "20173001939": 3451,
      "14237024288358": 3452,
      "134201888": 3453,
      "##8600982062": 3454,
      "##86160916236": 3455,
      "##1491697284": 3456,
      "##29677930532": 3457,
      "##ducGFWR1JT": 3458,
      "##8707974": 3459,
      "##cyYjEtYmU0My1": 3460,
      "##10767241102": 3461,
      "##mFmMTQifSwicGF0Y2hsaW5lX2lkIjoibGl2ZSIsInByb2R1Y3QtaW50ZWdyYXRpb24iOnsiYXBwLXVwZGF0ZS1zdGF0dXMiOiJDOi9Qcm9ncmFtRGF0YS9SaW90IEdhbWVzL01ldGFkYXRhL2xlYWd1ZV9vZl9sZWdlbmRzLmxpdmUvbGVhZ3VlX29mX2xlZ2VuZHMubGl2ZS51cGRhdGUtc3RhdHVzLmpzb24iLCJoZWFydGJlYXQiOiJDOi9Vc2Vycy9IYXJhbWJlL0FwcERhdGEvTG9jYWwvUmlvdCBHYW1lcy9SaW90IENsaWVudC9EYXRhL1Nlc3Npb25zLzdkOT": 3462,
      "##arY_tw": 3463,
      "394166007129": 3464,
      "##5012062006": 3465,
      "##TI1ZDUyYWYxNC": 3466,
      "##9729145517": 3467,
      "##97885219591": 3468,
      "##JlNDMtYWN": 3469,
      "##353336376": 3470,
      "5155564031491697284": 3471,
      "123019667566": 3472,
      "##YWxwQ1ZqTk9NRnBZVlRK": 3473,
      "##V0RKamRXRkVZM3B": 3474,
      "##V0pUVWtGTVR": 3475,
      "##OTW5SR1lXeG9WazR6U2p": 3476,
      "##sS05FcHlaelJOU": 3477,
      "##CU2pKbU5WU": 3478,
      "##VVVraGtkejA5SWl3TkNpQWdJQ0FpWTI5a1pWOTJaWEpwWm1sbGNpSTZJQ0pNWm5": 3479,
      "##FVdHlhM1oy": 3480,
      "##m5GWFpHSlhjRlZ": 3481,
      "##m5WMUZvWlRWcF": 3482,
      "##RkF0Ym5GWFpHSlhjRlZ": 3483,
      "##zBjMVdrNU9i": 3484,
      "##HSk9SRkF0Ym5GWFpHSlhjRlZ": 3485,
      "##VRMDlCWmp": 3486,
      "##3645796256": 3487,
      "##21525947486": 3488,
      "4254625070583531807": 3489,
      "15893429677930532": 3490,
      "##96866281453": 3491,
      "##jNy1iNTkyNWQ1M": 3492,
      "##YzUTRiMTlaU1": 3493,
      "eyJjbGllbnQtY29uZmlnIjp7InVybCI6Imh0dHBzOi8vY2xpZW50Y29uZmlnLnJwZy5yaW90Z2FtZXMuY29tIn0sImRlZmF1bHRfcmVnaW9uIjoiTkEiLCJnbG9iYWxzIjp7InNlc3Npb24taWQiOiI3ZDk0MWQ4NS03": 3494,
      "117703285902326107": 3495,
      "##SE5mVFZJeF": 3496,
      "7887081888600982062": 3497,
      "13616836221525947486": 3498,
      "12952799386160916236": 3499,
      "1888291596866281453": 3500,
      "##hCNWEzZDVRMDlCWmp": 3501,
      "##JSZDFKVVVraGtkejA5SWl3TkNpQWdJQ0FpWTI5a1pWOTJaWEpwWm1sbGNpSTZJQ0pNWm5": 3502,
      "##MmIxLWJlNDMtYWN": 3503,
      "5189564529353336376": 3504,
      "##QxZDg1LTcyYjEtYmU0My1": 3505,
      "4528058299729145517": 3506,
      "1374183358287187263": 3507,
      "17232103810767241102": 3508,
      "3378475665012062006": 3509,
      "5865835323645796256": 3510,
      "8470017612772818215": 3511,
      "YMOAdRGTIyjQzBpk": 3512,
      "##gxNCIsImF1dGgtdG9rZW4iOiJZTU9BZFJHVEl5alF6QnBrYXJZX3R3In0sInJpb3RnYW1lc2FwaSI6eyJwZXJzaXN0ZW5jZS1wYXRoIjoiQzovVXNlcnMvSGFyYW1iZS9BcHBEYXRhL0xvY2FsL1Jpb3QgR2FtZXMvTGVhZ3VlIG9mIExlZ2VuZHMifSwicnNvX2F1dGgiOnsiYXV0aG9yaXphdGlvbi1rZXkiOiJldzBLSUNBZ0lDSmpiMlJsSWpvZ0ltUlhWWGhQYWxwQ1ZqTk9NRnBZVlRK": 3513,
      "##UWxWcVducGFWR1JT": 3514,
      "##UmJrWkRWMnBrUWxWcVducGFWR1JT": 3515,
      "##9ZTU9BZFJHVEl5alF6QnBrYXJZX3R3LmhlYXJ0YmVhdC5qc29uIiwibG9ja2ZpbGUiOiJDOi9Qcm9ncmFtRGF0YS9SaW90IEdhbWVzL01ldGFkYXRhL2xlYWd1ZV9vZl9sZWdlbmRzLmxpdmUvbGVhZ3VlX29mX2xlZ2VuZHMubGl2ZS5sb2NrZmlsZSIsInNldHRpbmdzIjoiQzovUHJvZ3JhbURhdGEvUmlvdCBHYW1lcy9NZXRhZGF0YS9sZWFndWVfb2ZfbGVnZW5kcy5saXZlL2xlYWd1ZV9vZl9sZWdlbmRzLmxpdmUucHJvZHVjdF9zZXR0aW5ncy55YW1sIn0sInByb2R1Y3RfaWQiOiJsZWFndWVfb2ZfbGVnZW5kcyIsInB1Ymxpc2hlciI6InJpb3QiLCJyZWdpb25fZGF0YSI6eyJOQSI6eyJhdmFpbGFibGVfbG9jYWxlcyI6WyJlbl9VUyJdLCJkZWZhdWx0X2xvY2FsZSI6ImVuX1VTIiwicnNvIjp7ImNsaWVudCI6ImxvbCJ9fX0sInJpb3RjbGllbnQiOnsiYXBwLXBvcnQiOiI2MTgxNCIsImF1dGgtdG9rZW4iOiJZTU9BZFJHVEl5alF6QnBrYXJZX3R3In0sInJpb3RnYW1lc2FwaSI6eyJwZXJzaXN0ZW5jZS1wYXRoIjoiQzovVXNlcnMvSGFyYW1iZS9BcHBEYXRhL0xvY2FsL1Jpb3QgR2FtZXMvTGVhZ3VlIG9mIExlZ2VuZHMifSwicnNvX2F1dGgiOnsiYXV0aG9yaXphdGlvbi1rZXkiOiJldzBLSUNBZ0lDSmpiMlJsSWpvZ0ltUlhWWGhQYWxwQ1ZqTk9NRnBZVlRK": 3516,
      "##hY2M3LWI1OTI1ZDUyYWYxNC": 3517,
      "##FNWEwczFVSE5mVFZJeF": 3518,
      "##OaGFsSnBVakJSZDFKVVVraGtkejA5SWl3TkNpQWdJQ0FpWTI5a1pWOTJaWEpwWm1sbGNpSTZJQ0pNWm5": 3519,
      "2017300193980124979": 3520,
      "14237024288358329863": 3521,
      "13420188897885219591": 3522,
      "##mFmMTQifSwicGF0Y2hsaW5lX2lkIjoibGl2ZSIsInByb2R1Y3QtaW50ZWdyYXRpb24iOnsiYXBwLXVwZGF0ZS1zdGF0dXMiOiJDOi9Qcm9ncmFtRGF0YS9SaW90IEdhbWVzL01ldGFkYXRhL2xlYWd1ZV9vZl9sZWdlbmRzLmxpdmUvbGVhZ3VlX29mX2xlZ2VuZHMubGl2ZS51cGRhdGUtc3RhdHVzLmpzb24iLCJoZWFydGJlYXQiOiJDOi9Vc2Vycy9IYXJhbWJlL0FwcERhdGEvTG9jYWwvUmlvdCBHYW1lcy9SaW90IENsaWVudC9EYXRhL1Nlc3Npb25zLzdkOTQxZDg1LTcyYjEtYmU0My1": 3523,
      "3941660071298707974": 3524,
      "12301966756620914222": 3525,
      "##V0RKamRXRkVZM3BOTW5SR1lXeG9WazR6U2p": 3526,
      "##V0pUVWtGTVRHSk9SRkF0Ym5GWFpHSlhjRlZ": 3527,
      "##sS05FcHlaelJOUzBjMVdrNU9i": 3528,
      "##CU2pKbU5WUm5WMUZvWlRWcF": 3529,
      "##FVdHlhM1oyTWt4RVVTSU5DbjA9In19": 3530,
      "15893429677930532209": 3531,
      "##jNy1iNTkyNWQ1MmFmMTQifSwicGF0Y2hsaW5lX2lkIjoibGl2ZSIsInByb2R1Y3QtaW50ZWdyYXRpb24iOnsiYXBwLXVwZGF0ZS1zdGF0dXMiOiJDOi9Qcm9ncmFtRGF0YS9SaW90IEdhbWVzL01ldGFkYXRhL2xlYWd1ZV9vZl9sZWdlbmRzLmxpdmUvbGVhZ3VlX29mX2xlZ2VuZHMubGl2ZS51cGRhdGUtc3RhdHVzLmpzb24iLCJoZWFydGJlYXQiOiJDOi9Vc2Vycy9IYXJhbWJlL0FwcERhdGEvTG9jYWwvUmlvdCBHYW1lcy9SaW90IENsaWVudC9EYXRhL1Nlc3Npb25zLzdkOTQxZDg1LTcyYjEtYmU0My1": 3532,
      "##YzUTRiMTlaU1hCNWEzZDVRMDlCWmp": 3533,
      "eyJjbGllbnQtY29uZmlnIjp7InVybCI6Imh0dHBzOi8vY2xpZW50Y29uZmlnLnJwZy5yaW90Z2FtZXMuY29tIn0sImRlZmF1bHRfcmVnaW9uIjoiTkEiLCJnbG9iYWxzIjp7InNlc3Npb24taWQiOiI3ZDk0MWQ4NS03MmIxLWJlNDMtYWN": 3534,
      "11770328590232610756": 3535,
      "YMOAdRGTIyjQzBpkarY_tw": 3536,
      "##UmJrWkRWMnBrUWxWcVducGFWR1JTV0RKamRXRkVZM3BOTW5SR1lXeG9WazR6U2p": 3537,
      "##9ZTU9BZFJHVEl5alF6QnBrYXJZX3R3LmhlYXJ0YmVhdC5qc29uIiwibG9ja2ZpbGUiOiJDOi9Qcm9ncmFtRGF0YS9SaW90IEdhbWVzL01ldGFkYXRhL2xlYWd1ZV9vZl9sZWdlbmRzLmxpdmUvbGVhZ3VlX29mX2xlZ2VuZHMubGl2ZS5sb2NrZmlsZSIsInNldHRpbmdzIjoiQzovUHJvZ3JhbURhdGEvUmlvdCBHYW1lcy9NZXRhZGF0YS9sZWFndWVfb2ZfbGVnZW5kcy5saXZlL2xlYWd1ZV9vZl9sZWdlbmRzLmxpdmUucHJvZHVjdF9zZXR0aW5ncy55YW1sIn0sInByb2R1Y3RfaWQiOiJsZWFndWVfb2ZfbGVnZW5kcyIsInB1Ymxpc2hlciI6InJpb3QiLCJyZWdpb25fZGF0YSI6eyJOQSI6eyJhdmFpbGFibGVfbG9jYWxlcyI6WyJlbl9VUyJdLCJkZWZhdWx0X2xvY2FsZSI6ImVuX1VTIiwicnNvIjp7ImNsaWVudCI6ImxvbCJ9fX0sInJpb3RjbGllbnQiOnsiYXBwLXBvcnQiOiI2MTgxNCIsImF1dGgtdG9rZW4iOiJZTU9BZFJHVEl5alF6QnBrYXJZX3R3In0sInJpb3RnYW1lc2FwaSI6eyJwZXJzaXN0ZW5jZS1wYXRoIjoiQzovVXNlcnMvSGFyYW1iZS9BcHBEYXRhL0xvY2FsL1Jpb3QgR2FtZXMvTGVhZ3VlIG9mIExlZ2VuZHMifSwicnNvX2F1dGgiOnsiYXV0aG9yaXphdGlvbi1rZXkiOiJldzBLSUNBZ0lDSmpiMlJsSWpvZ0ltUlhWWGhQYWxwQ1ZqTk9NRnBZVlRKUmJrWkRWMnBrUWxWcVducGFWR1JTV0RKamRXRkVZM3BOTW5SR1lXeG9WazR6U2p": 3538,
      "##hY2M3LWI1OTI1ZDUyYWYxNC9ZTU9BZFJHVEl5alF6QnBrYXJZX3R3LmhlYXJ0YmVhdC5qc29uIiwibG9ja2ZpbGUiOiJDOi9Qcm9ncmFtRGF0YS9SaW90IEdhbWVzL01ldGFkYXRhL2xlYWd1ZV9vZl9sZWdlbmRzLmxpdmUvbGVhZ3VlX29mX2xlZ2VuZHMubGl2ZS5sb2NrZmlsZSIsInNldHRpbmdzIjoiQzovUHJvZ3JhbURhdGEvUmlvdCBHYW1lcy9NZXRhZGF0YS9sZWFndWVfb2ZfbGVnZW5kcy5saXZlL2xlYWd1ZV9vZl9sZWdlbmRzLmxpdmUucHJvZHVjdF9zZXR0aW5ncy55YW1sIn0sInByb2R1Y3RfaWQiOiJsZWFndWVfb2ZfbGVnZW5kcyIsInB1Ymxpc2hlciI6InJpb3QiLCJyZWdpb25fZGF0YSI6eyJOQSI6eyJhdmFpbGFibGVfbG9jYWxlcyI6WyJlbl9VUyJdLCJkZWZhdWx0X2xvY2FsZSI6ImVuX1VTIiwicnNvIjp7ImNsaWVudCI6ImxvbCJ9fX0sInJpb3RjbGllbnQiOnsiYXBwLXBvcnQiOiI2MTgxNCIsImF1dGgtdG9rZW4iOiJZTU9BZFJHVEl5alF6QnBrYXJZX3R3In0sInJpb3RnYW1lc2FwaSI6eyJwZXJzaXN0ZW5jZS1wYXRoIjoiQzovVXNlcnMvSGFyYW1iZS9BcHBEYXRhL0xvY2FsL1Jpb3QgR2FtZXMvTGVhZ3VlIG9mIExlZ2VuZHMifSwicnNvX2F1dGgiOnsiYXV0aG9yaXphdGlvbi1rZXkiOiJldzBLSUNBZ0lDSmpiMlJsSWpvZ0ltUlhWWGhQYWxwQ1ZqTk9NRnBZVlRKUmJrWkRWMnBrUWxWcVducGFWR1JTV0RKamRXRkVZM3BOTW5SR1lXeG9WazR6U2p": 3539,
      "##FNWEwczFVSE5mVFZJeFYzUTRiMTlaU1hCNWEzZDVRMDlCWmp": 3540,
      "##OaGFsSnBVakJSZDFKVVVraGtkejA5SWl3TkNpQWdJQ0FpWTI5a1pWOTJaWEpwWm1sbGNpSTZJQ0pNWm5FNWEwczFVSE5mVFZJeFYzUTRiMTlaU1hCNWEzZDVRMDlCWmp": 3541,
      "##V0pUVWtGTVRHSk9SRkF0Ym5GWFpHSlhjRlZCU2pKbU5WUm5WMUZvWlRWcF": 3542,
      "##sS05FcHlaelJOUzBjMVdrNU9iV0pUVWtGTVRHSk9SRkF0Ym5GWFpHSlhjRlZCU2pKbU5WUm5WMUZvWlRWcF": 3543,
      "##jNy1iNTkyNWQ1MmFmMTQifSwicGF0Y2hsaW5lX2lkIjoibGl2ZSIsInByb2R1Y3QtaW50ZWdyYXRpb24iOnsiYXBwLXVwZGF0ZS1zdGF0dXMiOiJDOi9Qcm9ncmFtRGF0YS9SaW90IEdhbWVzL01ldGFkYXRhL2xlYWd1ZV9vZl9sZWdlbmRzLmxpdmUvbGVhZ3VlX29mX2xlZ2VuZHMubGl2ZS51cGRhdGUtc3RhdHVzLmpzb24iLCJoZWFydGJlYXQiOiJDOi9Vc2Vycy9IYXJhbWJlL0FwcERhdGEvTG9jYWwvUmlvdCBHYW1lcy9SaW90IENsaWVudC9EYXRhL1Nlc3Npb25zLzdkOTQxZDg1LTcyYjEtYmU0My1hY2M3LWI1OTI1ZDUyYWYxNC9ZTU9BZFJHVEl5alF6QnBrYXJZX3R3LmhlYXJ0YmVhdC5qc29uIiwibG9ja2ZpbGUiOiJDOi9Qcm9ncmFtRGF0YS9SaW90IEdhbWVzL01ldGFkYXRhL2xlYWd1ZV9vZl9sZWdlbmRzLmxpdmUvbGVhZ3VlX29mX2xlZ2VuZHMubGl2ZS5sb2NrZmlsZSIsInNldHRpbmdzIjoiQzovUHJvZ3JhbURhdGEvUmlvdCBHYW1lcy9NZXRhZGF0YS9sZWFndWVfb2ZfbGVnZW5kcy5saXZlL2xlYWd1ZV9vZl9sZWdlbmRzLmxpdmUucHJvZHVjdF9zZXR0aW5ncy55YW1sIn0sInByb2R1Y3RfaWQiOiJsZWFndWVfb2ZfbGVnZW5kcyIsInB1Ymxpc2hlciI6InJpb3QiLCJyZWdpb25fZGF0YSI6eyJOQSI6eyJhdmFpbGFibGVfbG9jYWxlcyI6WyJlbl9VUyJdLCJkZWZhdWx0X2xvY2FsZSI6ImVuX1VTIiwicnNvIjp7ImNsaWVudCI6ImxvbCJ9fX0sInJpb3RjbGllbnQiOnsiYXBwLXBvcnQiOiI2MTgxNCIsImF1dGgtdG9rZW4iOiJZTU9BZFJHVEl5alF6QnBrYXJZX3R3In0sInJpb3RnYW1lc2FwaSI6eyJwZXJzaXN0ZW5jZS1wYXRoIjoiQzovVXNlcnMvSGFyYW1iZS9BcHBEYXRhL0xvY2FsL1Jpb3QgR2FtZXMvTGVhZ3VlIG9mIExlZ2VuZHMifSwicnNvX2F1dGgiOnsiYXV0aG9yaXphdGlvbi1rZXkiOiJldzBLSUNBZ0lDSmpiMlJsSWpvZ0ltUlhWWGhQYWxwQ1ZqTk9NRnBZVlRKUmJrWkRWMnBrUWxWcVducGFWR1JTV0RKamRXRkVZM3BOTW5SR1lXeG9WazR6U2p": 3544,
      "eyJjbGllbnQtY29uZmlnIjp7InVybCI6Imh0dHBzOi8vY2xpZW50Y29uZmlnLnJwZy5yaW90Z2FtZXMuY29tIn0sImRlZmF1bHRfcmVnaW9uIjoiTkEiLCJnbG9iYWxzIjp7InNlc3Npb24taWQiOiI3ZDk0MWQ4NS03MmIxLWJlNDMtYWNjNy1iNTkyNWQ1MmFmMTQifSwicGF0Y2hsaW5lX2lkIjoibGl2ZSIsInByb2R1Y3QtaW50ZWdyYXRpb24iOnsiYXBwLXVwZGF0ZS1zdGF0dXMiOiJDOi9Qcm9ncmFtRGF0YS9SaW90IEdhbWVzL01ldGFkYXRhL2xlYWd1ZV9vZl9sZWdlbmRzLmxpdmUvbGVhZ3VlX29mX2xlZ2VuZHMubGl2ZS51cGRhdGUtc3RhdHVzLmpzb24iLCJoZWFydGJlYXQiOiJDOi9Vc2Vycy9IYXJhbWJlL0FwcERhdGEvTG9jYWwvUmlvdCBHYW1lcy9SaW90IENsaWVudC9EYXRhL1Nlc3Npb25zLzdkOTQxZDg1LTcyYjEtYmU0My1hY2M3LWI1OTI1ZDUyYWYxNC9ZTU9BZFJHVEl5alF6QnBrYXJZX3R3LmhlYXJ0YmVhdC5qc29uIiwibG9ja2ZpbGUiOiJDOi9Qcm9ncmFtRGF0YS9SaW90IEdhbWVzL01ldGFkYXRhL2xlYWd1ZV9vZl9sZWdlbmRzLmxpdmUvbGVhZ3VlX29mX2xlZ2VuZHMubGl2ZS5sb2NrZmlsZSIsInNldHRpbmdzIjoiQzovUHJvZ3JhbURhdGEvUmlvdCBHYW1lcy9NZXRhZGF0YS9sZWFndWVfb2ZfbGVnZW5kcy5saXZlL2xlYWd1ZV9vZl9sZWdlbmRzLmxpdmUucHJvZHVjdF9zZXR0aW5ncy55YW1sIn0sInByb2R1Y3RfaWQiOiJsZWFndWVfb2ZfbGVnZW5kcyIsInB1Ymxpc2hlciI6InJpb3QiLCJyZWdpb25fZGF0YSI6eyJOQSI6eyJhdmFpbGFibGVfbG9jYWxlcyI6WyJlbl9VUyJdLCJkZWZhdWx0X2xvY2FsZSI6ImVuX1VTIiwicnNvIjp7ImNsaWVudCI6ImxvbCJ9fX0sInJpb3RjbGllbnQiOnsiYXBwLXBvcnQiOiI2MTgxNCIsImF1dGgtdG9rZW4iOiJZTU9BZFJHVEl5alF6QnBrYXJZX3R3In0sInJpb3RnYW1lc2FwaSI6eyJwZXJzaXN0ZW5jZS1wYXRoIjoiQzovVXNlcnMvSGFyYW1iZS9BcHBEYXRhL0xvY2FsL1Jpb3QgR2FtZXMvTGVhZ3VlIG9mIExlZ2VuZHMifSwicnNvX2F1dGgiOnsiYXV0aG9yaXphdGlvbi1rZXkiOiJldzBLSUNBZ0lDSmpiMlJsSWpvZ0ltUlhWWGhQYWxwQ1ZqTk9NRnBZVlRKUmJrWkRWMnBrUWxWcVducGFWR1JTV0RKamRXRkVZM3BOTW5SR1lXeG9WazR6U2p": 3545,
      "##OaGFsSnBVakJSZDFKVVVraGtkejA5SWl3TkNpQWdJQ0FpWTI5a1pWOTJaWEpwWm1sbGNpSTZJQ0pNWm5FNWEwczFVSE5mVFZJeFYzUTRiMTlaU1hCNWEzZDVRMDlCWmpsS05FcHlaelJOUzBjMVdrNU9iV0pUVWtGTVRHSk9SRkF0Ym5GWFpHSlhjRlZCU2pKbU5WUm5WMUZvWlRWcF": 3546,
      "eyJjbGllbnQtY29uZmlnIjp7InVybCI6Imh0dHBzOi8vY2xpZW50Y29uZmlnLnJwZy5yaW90Z2FtZXMuY29tIn0sImRlZmF1bHRfcmVnaW9uIjoiTkEiLCJnbG9iYWxzIjp7InNlc3Npb24taWQiOiI3ZDk0MWQ4NS03MmIxLWJlNDMtYWNjNy1iNTkyNWQ1MmFmMTQifSwicGF0Y2hsaW5lX2lkIjoibGl2ZSIsInByb2R1Y3QtaW50ZWdyYXRpb24iOnsiYXBwLXVwZGF0ZS1zdGF0dXMiOiJDOi9Qcm9ncmFtRGF0YS9SaW90IEdhbWVzL01ldGFkYXRhL2xlYWd1ZV9vZl9sZWdlbmRzLmxpdmUvbGVhZ3VlX29mX2xlZ2VuZHMubGl2ZS51cGRhdGUtc3RhdHVzLmpzb24iLCJoZWFydGJlYXQiOiJDOi9Vc2Vycy9IYXJhbWJlL0FwcERhdGEvTG9jYWwvUmlvdCBHYW1lcy9SaW90IENsaWVudC9EYXRhL1Nlc3Npb25zLzdkOTQxZDg1LTcyYjEtYmU0My1hY2M3LWI1OTI1ZDUyYWYxNC9ZTU9BZFJHVEl5alF6QnBrYXJZX3R3LmhlYXJ0YmVhdC5qc29uIiwibG9ja2ZpbGUiOiJDOi9Qcm9ncmFtRGF0YS9SaW90IEdhbWVzL01ldGFkYXRhL2xlYWd1ZV9vZl9sZWdlbmRzLmxpdmUvbGVhZ3VlX29mX2xlZ2VuZHMubGl2ZS5sb2NrZmlsZSIsInNldHRpbmdzIjoiQzovUHJvZ3JhbURhdGEvUmlvdCBHYW1lcy9NZXRhZGF0YS9sZWFndWVfb2ZfbGVnZW5kcy5saXZlL2xlYWd1ZV9vZl9sZWdlbmRzLmxpdmUucHJvZHVjdF9zZXR0aW5ncy55YW1sIn0sInByb2R1Y3RfaWQiOiJsZWFndWVfb2ZfbGVnZW5kcyIsInB1Ymxpc2hlciI6InJpb3QiLCJyZWdpb25fZGF0YSI6eyJOQSI6eyJhdmFpbGFibGVfbG9jYWxlcyI6WyJlbl9VUyJdLCJkZWZhdWx0X2xvY2FsZSI6ImVuX1VTIiwicnNvIjp7ImNsaWVudCI6ImxvbCJ9fX0sInJpb3RjbGllbnQiOnsiYXBwLXBvcnQiOiI2MTgxNCIsImF1dGgtdG9rZW4iOiJZTU9BZFJHVEl5alF6QnBrYXJZX3R3In0sInJpb3RnYW1lc2FwaSI6eyJwZXJzaXN0ZW5jZS1wYXRoIjoiQzovVXNlcnMvSGFyYW1iZS9BcHBEYXRhL0xvY2FsL1Jpb3QgR2FtZXMvTGVhZ3VlIG9mIExlZ2VuZHMifSwicnNvX2F1dGgiOnsiYXV0aG9yaXphdGlvbi1rZXkiOiJldzBLSUNBZ0lDSmpiMlJsSWpvZ0ltUlhWWGhQYWxwQ1ZqTk9NRnBZVlRKUmJrWkRWMnBrUWxWcVducGFWR1JTV0RKamRXRkVZM3BOTW5SR1lXeG9WazR6U2pOaGFsSnBVakJSZDFKVVVraGtkejA5SWl3TkNpQWdJQ0FpWTI5a1pWOTJaWEpwWm1sbGNpSTZJQ0pNWm5FNWEwczFVSE5mVFZJeFYzUTRiMTlaU1hCNWEzZDVRMDlCWmpsS05FcHlaelJOUzBjMVdrNU9iV0pUVWtGTVRHSk9SRkF0Ym5GWFpHSlhjRlZCU2pKbU5WUm5WMUZvWlRWcF": 3547,
      "eyJjbGllbnQtY29uZmlnIjp7InVybCI6Imh0dHBzOi8vY2xpZW50Y29uZmlnLnJwZy5yaW90Z2FtZXMuY29tIn0sImRlZmF1bHRfcmVnaW9uIjoiTkEiLCJnbG9iYWxzIjp7InNlc3Npb24taWQiOiI3ZDk0MWQ4NS03MmIxLWJlNDMtYWNjNy1iNTkyNWQ1MmFmMTQifSwicGF0Y2hsaW5lX2lkIjoibGl2ZSIsInByb2R1Y3QtaW50ZWdyYXRpb24iOnsiYXBwLXVwZGF0ZS1zdGF0dXMiOiJDOi9Qcm9ncmFtRGF0YS9SaW90IEdhbWVzL01ldGFkYXRhL2xlYWd1ZV9vZl9sZWdlbmRzLmxpdmUvbGVhZ3VlX29mX2xlZ2VuZHMubGl2ZS51cGRhdGUtc3RhdHVzLmpzb24iLCJoZWFydGJlYXQiOiJDOi9Vc2Vycy9IYXJhbWJlL0FwcERhdGEvTG9jYWwvUmlvdCBHYW1lcy9SaW90IENsaWVudC9EYXRhL1Nlc3Npb25zLzdkOTQxZDg1LTcyYjEtYmU0My1hY2M3LWI1OTI1ZDUyYWYxNC9ZTU9BZFJHVEl5alF6QnBrYXJZX3R3LmhlYXJ0YmVhdC5qc29uIiwibG9ja2ZpbGUiOiJDOi9Qcm9ncmFtRGF0YS9SaW90IEdhbWVzL01ldGFkYXRhL2xlYWd1ZV9vZl9sZWdlbmRzLmxpdmUvbGVhZ3VlX29mX2xlZ2VuZHMubGl2ZS5sb2NrZmlsZSIsInNldHRpbmdzIjoiQzovUHJvZ3JhbURhdGEvUmlvdCBHYW1lcy9NZXRhZGF0YS9sZWFndWVfb2ZfbGVnZW5kcy5saXZlL2xlYWd1ZV9vZl9sZWdlbmRzLmxpdmUucHJvZHVjdF9zZXR0aW5ncy55YW1sIn0sInByb2R1Y3RfaWQiOiJsZWFndWVfb2ZfbGVnZW5kcyIsInB1Ymxpc2hlciI6InJpb3QiLCJyZWdpb25fZGF0YSI6eyJOQSI6eyJhdmFpbGFibGVfbG9jYWxlcyI6WyJlbl9VUyJdLCJkZWZhdWx0X2xvY2FsZSI6ImVuX1VTIiwicnNvIjp7ImNsaWVudCI6ImxvbCJ9fX0sInJpb3RjbGllbnQiOnsiYXBwLXBvcnQiOiI2MTgxNCIsImF1dGgtdG9rZW4iOiJZTU9BZFJHVEl5alF6QnBrYXJZX3R3In0sInJpb3RnYW1lc2FwaSI6eyJwZXJzaXN0ZW5jZS1wYXRoIjoiQzovVXNlcnMvSGFyYW1iZS9BcHBEYXRhL0xvY2FsL1Jpb3QgR2FtZXMvTGVhZ3VlIG9mIExlZ2VuZHMifSwicnNvX2F1dGgiOnsiYXV0aG9yaXphdGlvbi1rZXkiOiJldzBLSUNBZ0lDSmpiMlJsSWpvZ0ltUlhWWGhQYWxwQ1ZqTk9NRnBZVlRKUmJrWkRWMnBrUWxWcVducGFWR1JTV0RKamRXRkVZM3BOTW5SR1lXeG9WazR6U2pOaGFsSnBVakJSZDFKVVVraGtkejA5SWl3TkNpQWdJQ0FpWTI5a1pWOTJaWEpwWm1sbGNpSTZJQ0pNWm5FNWEwczFVSE5mVFZJeFYzUTRiMTlaU1hCNWEzZDVRMDlCWmpsS05FcHlaelJOUzBjMVdrNU9iV0pUVWtGTVRHSk9SRkF0Ym5GWFpHSlhjRlZCU2pKbU5WUm5WMUZvWlRWcFFVdHlhM1oyTWt4RVVTSU5DbjA9In19": 3548,
      "##940": 3549,
      "AUT": 3550,
      "LOCAL": 3551,
      "SER": 3552,
      "Studio": 3553,
      "##HOR": 3554,
      "##ITY": 3555,
      "##ead": 3556,
      "##VICE": 3557,
      "##335": 3558,
      "AUTHOR": 3559,
      "SERVICE": 3560,
      "AUTHORITY": 3561,
      "02_": 3562,
      "vs": 3563,
      "##4V": 3564,
      "##7f": 3565,
      "##5214": 3566,
      "##aa": 3567,
      "##s_": 3568,
      "157": 3569,
      "Ar": 3570,
      "x64": 3571,
      "##c0": 3572,
      "##bf": 3573,
      "##875": 3574,
      "src": 3575,
      "##260": 3576,
      "##dg": 3577,
      "##ek": 3578,
      "##180": 3579,
      "##181": 3580,
      "##389": 3581,
      "audiodg": 3582,
      "##gy": 3583,
      "##Buil": 3584,
      "##722": 3585,
      "##pT": 3586,
      "##208": 3587,
      "##4373": 3588,
      "##Build": 3589,
      "format": 3590,
      "sign": 3591,
      "##nll": 3592,
      "##wWV": 3593,
      "##lpk": 3594,
      "##Fp": 3595,
      "##FN": 3596,
      "##Per": 3597,
      "##VY": 3598,
      "##mport": 3599,
      "##tYj": 3600,
      "##57b": 3601,
      "orig": 3602,
      "##199": 3603,
      "##8705": 3604,
      "##74722": 3605,
      "##970": 3606,
      "EdgeUpdate": 3607,
      "624": 3608,
      "711": 3609,
      "MO": 3610,
      "a93": 3611,
      "c0": 3612,
      "cwd": 3613,
      "import": 3614,
      "##aU": 3615,
      "##ng": 3616,
      "##d4": 3617,
      "##CRI": 3618,
      "##GJ": 3619,
      "##983": 3620,
      "##607": 3621,
      "##edul": 3622,
      "##ON": 3623,
      "##PTI": 3624,
      "##Z_L": 3625,
      "DESCRI": 3626,
      "1604": 3627,
      "16389": 3628,
      "1572": 3629,
      "##0717": 3630,
      "##0703": 3631,
      "04e2": 3632,
      "1150": 3633,
      "11804": 3634,
      "##2930": 3635,
      "1769": 3636,
      "##20180": 3637,
      "##b2a9": 3638,
      "##atch": 3639,
      "##0035": 3640,
      "##87470": 3641,
      "##872930": 3642,
      "##49970": 3643,
      "##1344": 3644,
      "##3693": 3645,
      "18934": 3646,
      "##18223": 3647,
      "##4760": 3648,
      "##4772": 3649,
      "##47872930": 3650,
      "##4718223": 3651,
      "##7687470": 3652,
      "##33a9": 3653,
      "##3895": 3654,
      "##3849970": 3655,
      "##940035": 3656,
      "##460879": 3657,
      "##183983": 3658,
      "##54529": 3659,
      "244718223": 3660,
      "##ource": 3661,
      "##5753": 3662,
      "show": 3663,
      "44d6": 3664,
      "##66940": 3665,
      "##52143849970": 3666,
      "15774722": 3667,
      "##4373460879": 3668,
      "##87057687470": 3669,
      "62420180": 3670,
      "711183983": 3671,
      "MOZ_L": 3672,
      "a93d": 3673,
      "c0b2a9": 3674,
      "##607260": 3675,
      "##eduler": 3676,
      "##PTION": 3677,
      "DESCRIPTION": 3678,
      "16389335": 3679,
      "115066940": 3680,
      "1180487057687470": 3681,
      "17693895": 3682,
      "##13443693": 3683,
      "1893452143849970": 3684,
      "##476054529": 3685,
      "##4772607260": 3686,
      "##478729305753": 3687,
      "##33a9e8": 3688,
      "##9400350703": 3689,
      "2447182239400350703": 3690,
      "15774722476054529": 3691,
      "624201804373460879": 3692,
      "71118398313443693": 3693,
      "MOZ_LOG": 3694,
      "c0b2a933a9e8": 3695,
      "1150669404772607260": 3696,
      "11804870576874700717": 3697,
      "17693895478729305753": 3698,
      "1893452143849970957": 3699,
      "15774722476054529875": 3700,
      "7111839831344369362": 3701,
      "boot": 3702,
      "##26": 3703,
      "##kZ": 3704,
      "##lan": 3705,
      "##936": 3706,
      "##bject": 3707,
      "1656": 3708,
      "118": 3709,
      "##1993": 3710,
      "##8353": 3711,
      "##906": 3712,
      "##5508": 3713,
      "##829": 3714,
      "##hea": 3715,
      "##3233": 3716,
      "##2761": 3717,
      "##header": 3718,
      "8223": 3719,
      "Rn": 3720,
      "cam": 3721,
      "nvi": 3722,
      "root": 3723,
      "##gQ": 3724,
      "##Qot": 3725,
      "##ep": 3726,
      "##tZh": 3727,
      "##1k": 3728,
      "##h4V": 3729,
      "##RmJ": 3730,
      "##AWQot": 3731,
      "##322761": 3732,
      "##ys_p": 3733,
      "1443": 3734,
      "1600": 3735,
      "1536": 3736,
      "appmo": 3737,
      "##29181": 3738,
      "##1929181": 3739,
      "##1543": 3740,
      "##8798": 3741,
      "##_sys_p": 3742,
      "##338798": 3743,
      "##97208": 3744,
      "PBE1": 3745,
      "##048353": 3746,
      "##TSjN": 3747,
      "##499322761": 3748,
      "##711993": 3749,
      "orig_sys_p": 3750,
      "##199499322761": 3751,
      "1656906": 3752,
      "1181929181": 3753,
      "##829048353": 3754,
      "##3233711993": 3755,
      "8223338798": 3756,
      "RnTSjN": 3757,
      "camsvc": 3758,
      "nvidia": 3759,
      "##tZhAWQot": 3760,
      "##h4VgQ": 3761,
      "##RmJh4VgQ": 3762,
      "1443829048353": 3763,
      "appmodel": 3764,
      "##1543936": 3765,
      "##972085508": 3766,
      "orig_sys_path": 3767,
      "1656906199499322761": 3768,
      "11819291813233711993": 3769,
      "8223338798972085508": 3770,
      "RnTSjNtZhAWQot": 3771,
      "14438290483531543936": 3772,
      "RnTSjNtZhAWQotRmJh4VgQ": 3773,
      "##ab": 3774,
      "##812": 3775,
      "##ham": 3776,
      "##mer": 3777,
      "##ration": 3778,
      "remote": 3779,
      "##hammer": 3780,
      "ua": 3781,
      "##0Z": 3782,
      "##EL": 3783,
      "##I2": 3784,
      "##source": 3785,
      "##DI5": 3786,
      "##3Nz": 3787,
      "installsource": 3788,
      "##LTA": 3789,
      "51392": 3790,
      "##My0": 3791,
      "Cor": 3792,
      "Wef": 3793,
      "##rdi": 3794,
      "##DRI": 3795,
      "##wser": 3796,
      "##BO": 3797,
      "##KDRI": 3798,
      "##M5": 3799,
      "##e1": 3800,
      "##bH": 3801,
      "##1MT": 3802,
      "##XP": 3803,
      "##OL": 3804,
      "##OTI": 3805,
      "##_OL": 3806,
      "##Jj": 3807,
      "##JEL": 3808,
      "##errdi": 3809,
      "##rowser": 3810,
      "##alogs": 3811,
      "noerrdi": 3812,
      "scheduler": 3813,
      "crashpad_18300": 3814,
      "00_18300": 3815,
      "##BYJEL": 3816,
      "##WFj": 3817,
      "smi": 3818,
      "##Dir": 3819,
      "##BOH": 3820,
      "##KDRIXP": 3821,
      "##_OLKDRIXP": 3822,
      "noerrdialogs": 3823,
      "crashpad_18300_OLKDRIXP": 3824,
      "00_18300_LeagueClient": 3825,
      "##BYJELBOH": 3826,
      "crashpad_18300_OLKDRIXPBYJELBOH": 3827,
      "##274": 3828,
      "##EzL": 3829,
      "##xMy0": 3830,
      "##ier": 3831,
      "##qS": 3832,
      "##MzI": 3833,
      "6lA": 3834,
      "NET": 3835,
      "##a7": 3836,
      "##as": 3837,
      "##aTF": 3838,
      "##ci": 3839,
      "##k0": 3840,
      "##kam": 3841,
      "##g3Nz": 3842,
      "##rUz": 3843,
      "##dT": 3844,
      "##dtdG": 3845,
      "##dzR": 3846,
      "##DV": 3847,
      "##CZW": 3848,
      "##CT2": 3849,
      "##BQW": 3850,
      "##HdzR": 3851,
      "##QtYj": 3852,
      "##MGR": 3853,
      "##MDI": 3854,
      "##UE": 3855,
      "##Ub": 3856,
      "##U2t": 3857,
      "##UkZ": 3858,
      "##UdT": 3859,
      "##G_": 3860,
      "##G5l": 3861,
      "##Epl": 3862,
      "##Ymp": 3863,
      "##Ylh": 3864,
      "##YlY": 3865,
      "##IVX": 3866,
      "##3Ep": 3867,
      "##6Rk": 3868,
      "##6YlY": 3869,
      "##eW": 3870,
      "##eE1": 3871,
      "##5YW": 3872,
      "##5SU5DbjA9In19": 3873,
      "##sR": 3874,
      "##hc": 3875,
      "##hN": 3876,
      "##hW": 3877,
      "##hell": 3878,
      "##hMU": 3879,
      "##pN": 3880,
      "##p5SU5DbjA9In19": 3881,
      "##xb1": 3882,
      "##xYz": 3883,
      "##mM0": 3884,
      "##mtkejA5SWl3TkNpQWdJQ0FpWTI5a1pWOTJaWEpwWm1sbGNpSTZJQ0p": 3885,
      "##iYj": 3886,
      "##NN": 3887,
      "##NWV": 3888,
      "##Fj": 3889,
      "##FU1": 3890,
      "##FdU": 3891,
      "##Fk0": 3892,
      "##vG_": 3893,
      "##TNN": 3894,
      "##ODI5": 3895,
      "##RWV": 3896,
      "##R0l": 3897,
      "##Rld": 3898,
      "##RM1": 3899,
      "##RsR": 3900,
      "##yNG": 3901,
      "##Wmx": 3902,
      "##SM1": 3903,
      "##SaF": 3904,
      "##qYmp": 3905,
      "##J8D": 3906,
      "##ZtN": 3907,
      "##ZwWV": 3908,
      "##ZG5l": 3909,
      "##KTlZ": 3910,
      "##WSFp": 3911,
      "##V1dG": 3912,
      "##V1pY": 3913,
      "##ubEpl": 3914,
      "##mF6Rk": 3915,
      "##WVVJ": 3916,
      "##ZVVJ": 3917,
      "##588": 3918,
      "##TkZwWV": 3919,
      "##i9udnZHX3ZVM0VwRDhKOEQtNmxBYTdB": 3920,
      "##lhhMU": 3921,
      "##IifSwicGF0Y2hsaW5lX2lkIjoibGl2ZSIsInByb2R1Y3QtaW50ZWdyYXRpb24iOnsiYXBwLXVwZGF0ZS1zdGF0dXMiOiJDOi9Qcm9ncmFtRGF0YS9SaW90IEdhbWVzL01ldGFkYXRhL2xlYWd1ZV9vZl9sZWdlbmRzLmxpdmUvbGVhZ3VlX29mX2xlZ2VuZHMubGl2ZS51cGRhdGUtc3RhdHVzLmpzb24iLCJoZWFydGJlYXQiOiJDOi9Vc2Vycy9IYXJhbWJlL0FwcERhdGEvTG9jYWwvUmlvdCBHYW1lcy9SaW90IENsaWVudC9EYXRhL1Nlc3Npb25zLz": 3922,
      "##NWRWV": 3923,
      "##iMmM0": 3924,
      "##iMi9udnZHX3ZVM0VwRDhKOEQtNmxBYTdB": 3925,
      "##BwTVR": 3926,
      "##wZGJ": 3927,
      "##vU3Ep": 3928,
      "##YW1SM1": 3929,
      "##ZFVY": 3930,
      "##ZFhN": 3931,
      "##RIZG5l": 3932,
      "##VXBQW": 3933,
      "##CUFdU": 3934,
      "##a2Rv": 3935,
      "##LWQ3": 3936,
      "##M0Ja": 3937,
      "##FVFU1": 3938,
      "##GVHS": 3939,
      "##TU5YW": 3940,
      "##c3MzI": 3941,
      "##MiIsImF1dGgtdG9rZW4iOiJ": 3942,
      "##NC1k": 3943,
      "##sxRld": 3944,
      "##0Mxb1": 3945,
      "##RWZFhN": 3946,
      "##aG9WSFp": 3947,
      "##4NFN": 3948,
      "##Nzg3Nz": 3949,
      "##bUpx": 3950,
      "##TSFk0": 3951,
      "##WU0Mxb1": 3952,
      "##UzE1": 3953,
      "##1OWFj": 3954,
      "##MtMDI": 3955,
      "##MyMGR": 3956,
      "##WRGVHS": 3957,
      "##UTRTSFk0": 3958,
      "eyJjbGllbnQtY29uZmlnIjp7InVybCI6Imh0dHBzOi8vY2xpZW50Y29uZmlnLnJwZy5yaW90Z2FtZXMuY29tIn0sImRlZmF1bHRfcmVnaW9uIjoiTkEiLCJnbG9iYWxzIjp7InNlc3Npb24taWQiOiIxYz": 3959,
      "##LmhlYXJ0YmVhdC5qc29uIiwibG9ja2ZpbGUiOiJDOi9Qcm9ncmFtRGF0YS9SaW90IEdhbWVzL01ldGFkYXRhL2xlYWd1ZV9vZl9sZWdlbmRzLmxpdmUvbGVhZ3VlX29mX2xlZ2VuZHMubGl2ZS5sb2NrZmlsZSIsInNldHRpbmdzIjoiQzovUHJvZ3JhbURhdGEvUmlvdCBHYW1lcy9NZXRhZGF0YS9sZWFndWVfb2ZfbGVnZW5kcy5saXZlL2xlYWd1ZV9vZl9sZWdlbmRzLmxpdmUucHJvZHVjdF9zZXR0aW5ncy55YW1sIn0sInByb2R1Y3RfaWQiOiJsZWFndWVfb2ZfbGVnZW5kcyIsInB1Ymxpc2hlciI6InJpb3QiLCJyZWdpb25fZGF0YSI6eyJOQSI6eyJhdmFpbGFibGVfbG9jYWxlcyI6WyJlbl9VUyJdLCJkZWZhdWx0X2xvY2FsZSI6ImVuX1VTIiwicnNvIjp7ImNsaWVudCI6ImxvbCJ9fX0sInJpb3RjbGllbnQiOnsiYXBwLXBvcnQiOiI1MT": 3960,
      "##In0sInJpb3RnYW1lc2FwaSI6eyJwZXJzaXN0ZW5jZS1wYXRoIjoiQzovVXNlcnMvSGFyYW1iZS9BcHBEYXRhL0xvY2FsL1Jpb3QgR2FtZXMvTGVhZ3VlIG9mIExlZ2VuZHMifSwicnNvX2F1dGgiOnsiYXV0aG9yaXphdGlvbi1rZXkiOiJldzBLSUNBZ0lDSmpiMlJsSWpvZ0ltUlhWWGhQYW1SM1": 3961,
      "##JaeW": 3962,
      "##J6aG9WSFp": 3963,
      "##J6UTRTSFk0": 3964,
      "##ODc3MzI": 3965,
      "##dUaTF": 3966,
      "##WWxkam": 3967,
      "##WWxWRGVHS": 3968,
      "##udnZHX3ZVM0VwRDhKOEQtNmxBYTdBIn0sInJpb3RnYW1lc2FwaSI6eyJwZXJzaXN0ZW5jZS1wYXRoIjoiQzovVXNlcnMvSGFyYW1iZS9BcHBEYXRhL0xvY2FsL1Jpb3QgR2FtZXMvTGVhZ3VlIG9mIExlZ2VuZHMifSwicnNvX2F1dGgiOnsiYXV0aG9yaXphdGlvbi1rZXkiOiJldzBLSUNBZ0lDSmpiMlJsSWpvZ0ltUlhWWGhQYW1SM1": 3969,
      "##MjEzL": 3970,
      "##D8J8D": 3971,
      "##C1iMmM0": 3972,
      "nvvG_": 3973,
      "##ekI2": 3974,
      "##gyOTI": 3975,
      "##pTWWxkam": 3976,
      "##nllR0l": 3977,
      "##lpkM0Ja": 3978,
      "##aUmF6Rk": 3979,
      "##0ZC1iMmM0": 3980,
      "##LTAyNG": 3981,
      "##M5MiIsImF1dGgtdG9rZW4iOiJ": 3982,
      "##bHBwTVR": 3983,
      "##JjNC1k": 3984,
      "##xMy01OWFj": 3985,
      "##qSmtkejA5SWl3TkNpQWdJQ0FpWTI5a1pWOTJaWEpwWm1sbGNpSTZJQ0p": 3986,
      "6lAa7": 3987,
      "##rUzJaeW": 3988,
      "##dtdGpN": 3989,
      "##DVWVVJ": 3990,
      "##CZWsxRld": 3991,
      "##CT2J6aG9WSFp": 3992,
      "##HdzRZVVJ": 3993,
      "##QtYjJjNC1k": 3994,
      "##UbDVWVVJ": 3995,
      "##U2tKTlZ": 3996,
      "##UkZCUFdU": 3997,
      "##UdTbHBwTVR": 3998,
      "##YlhSaF": 3999,
      "##IVXdUaTF": 4000,
      "##6YlY4NFN": 4001,
      "##eE1IVXdUaTF": 4002,
      "##hWa2Rv": 4003,
      "##iYjIifSwicGF0Y2hsaW5lX2lkIjoibGl2ZSIsInByb2R1Y3QtaW50ZWdyYXRpb24iOnsiYXBwLXVwZGF0ZS1zdGF0dXMiOiJDOi9Qcm9ncmFtRGF0YS9SaW90IEdhbWVzL01ldGFkYXRhL2xlYWd1ZV9vZl9sZWdlbmRzLmxpdmUvbGVhZ3VlX29mX2xlZ2VuZHMubGl2ZS51cGRhdGUtc3RhdHVzLmpzb24iLCJoZWFydGJlYXQiOiJDOi9Vc2Vycy9IYXJhbWJlL0FwcERhdGEvTG9jYWwvUmlvdCBHYW1lcy9SaW90IENsaWVudC9EYXRhL1Nlc3Npb25zLz": 4004,
      "##NWVubEpl": 4005,
      "##FjODI5": 4006,
      "##TNNeE1IVXdUaTF": 4007,
      "##RM1p5SU5DbjA9In19": 4008,
      "##RsRlhhMU": 4009,
      "##WmxRM1p5SU5DbjA9In19": 4010,
      "##qYmpCT2J6aG9WSFp": 4011,
      "##ZtNUdTbHBwTVR": 4012,
      "##V1dGNWVubEpl": 4013,
      "##V1pYYlhSaF": 4014,
      "##TkZwWVRsRlhhMU": 4015,
      "##NWRWVnllR0l": 4016,
      "##iMi9udnZHX3ZVM0VwRDhKOEQtNmxBYTdBLmhlYXJ0YmVhdC5qc29uIiwibG9ja2ZpbGUiOiJDOi9Qcm9ncmFtRGF0YS9SaW90IEdhbWVzL01ldGFkYXRhL2xlYWd1ZV9vZl9sZWdlbmRzLmxpdmUvbGVhZ3VlX29mX2xlZ2VuZHMubGl2ZS5sb2NrZmlsZSIsInNldHRpbmdzIjoiQzovUHJvZ3JhbURhdGEvUmlvdCBHYW1lcy9NZXRhZGF0YS9sZWFndWVfb2ZfbGVnZW5kcy5saXZlL2xlYWd1ZV9vZl9sZWdlbmRzLmxpdmUucHJvZHVjdF9zZXR0aW5ncy55YW1sIn0sInByb2R1Y3RfaWQiOiJsZWFndWVfb2ZfbGVnZW5kcyIsInB1Ymxpc2hlciI6InJpb3QiLCJyZWdpb25fZGF0YSI6eyJOQSI6eyJhdmFpbGFibGVfbG9jYWxlcyI6WyJlbl9VUyJdLCJkZWZhdWx0X2xvY2FsZSI6ImVuX1VTIiwicnNvIjp7ImNsaWVudCI6ImxvbCJ9fX0sInJpb3RjbGllbnQiOnsiYXBwLXBvcnQiOiI1MT": 4017,
      "##wZGJiMi9udnZHX3ZVM0VwRDhKOEQtNmxBYTdBLmhlYXJ0YmVhdC5qc29uIiwibG9ja2ZpbGUiOiJDOi9Qcm9ncmFtRGF0YS9SaW90IEdhbWVzL01ldGFkYXRhL2xlYWd1ZV9vZl9sZWdlbmRzLmxpdmUvbGVhZ3VlX29mX2xlZ2VuZHMubGl2ZS5sb2NrZmlsZSIsInNldHRpbmdzIjoiQzovUHJvZ3JhbURhdGEvUmlvdCBHYW1lcy9NZXRhZGF0YS9sZWFndWVfb2ZfbGVnZW5kcy5saXZlL2xlYWd1ZV9vZl9sZWdlbmRzLmxpdmUucHJvZHVjdF9zZXR0aW5ncy55YW1sIn0sInByb2R1Y3RfaWQiOiJsZWFndWVfb2ZfbGVnZW5kcyIsInB1Ymxpc2hlciI6InJpb3QiLCJyZWdpb25fZGF0YSI6eyJOQSI6eyJhdmFpbGFibGVfbG9jYWxlcyI6WyJlbl9VUyJdLCJkZWZhdWx0X2xvY2FsZSI6ImVuX1VTIiwicnNvIjp7ImNsaWVudCI6ImxvbCJ9fX0sInJpb3RjbGllbnQiOnsiYXBwLXBvcnQiOiI1MT": 4018,
      "##vU3EpD8J8D": 4019,
      "##ZFVYekI2": 4020,
      "##RIZG5lVXBQW": 4021,
      "##LWQ3ODc3MzI": 4022,
      "##FVFU1NWRWVnllR0l": 4023,
      "##TU5YWMtMDI": 4024,
      "##RWZFhNV1pYYlhSaF": 4025,
      "##Nzg3NzMyMGR": 4026,
      "##bUpxU2tKTlZ": 4027,
      "##WU0Mxb1RIZG5lVXBQW": 4028,
      "##UzE1UkZCUFdU": 4029,
      "eyJjbGllbnQtY29uZmlnIjp7InVybCI6Imh0dHBzOi8vY2xpZW50Y29uZmlnLnJwZy5yaW90Z2FtZXMuY29tIn0sImRlZmF1bHRfcmVnaW9uIjoiTkEiLCJnbG9iYWxzIjp7InNlc3Npb24taWQiOiIxYzgyOTI": 4030,
      "##J6UTRTSFk0WWxWRGVHS": 4031,
      "##udnZHX3ZVM0VwRDhKOEQtNmxBYTdBIn0sInJpb3RnYW1lc2FwaSI6eyJwZXJzaXN0ZW5jZS1wYXRoIjoiQzovVXNlcnMvSGFyYW1iZS9BcHBEYXRhL0xvY2FsL1Jpb3QgR2FtZXMvTGVhZ3VlIG9mIExlZ2VuZHMifSwicnNvX2F1dGgiOnsiYXV0aG9yaXphdGlvbi1rZXkiOiJldzBLSUNBZ0lDSmpiMlJsSWpvZ0ltUlhWWGhQYW1SM1ZtNUdTbHBwTVR": 4032,
      "##MjEzLTU5YWMtMDI": 4033,
      "nvvG_vU3EpD8J8D": 4034,
      "##pTWWxkamRWZFhNV1pYYlhSaF": 4035,
      "##lpkM0JaV1dGNWVubEpl": 4036,
      "##aUmF6RkhWa2Rv": 4037,
      "##0ZC1iMmM0LWQ3ODc3MzI": 4038,
      "##LTAyNGQtYjJjNC1k": 4039,
      "##M5MiIsImF1dGgtdG9rZW4iOiJudnZHX3ZVM0VwRDhKOEQtNmxBYTdBIn0sInJpb3RnYW1lc2FwaSI6eyJwZXJzaXN0ZW5jZS1wYXRoIjoiQzovVXNlcnMvSGFyYW1iZS9BcHBEYXRhL0xvY2FsL1Jpb3QgR2FtZXMvTGVhZ3VlIG9mIExlZ2VuZHMifSwicnNvX2F1dGgiOnsiYXV0aG9yaXphdGlvbi1rZXkiOiJldzBLSUNBZ0lDSmpiMlJsSWpvZ0ltUlhWWGhQYW1SM1ZtNUdTbHBwTVR": 4040,
      "##xMy01OWFjLTAyNGQtYjJjNC1k": 4041,
      "##qSmtkejA5SWl3TkNpQWdJQ0FpWTI5a1pWOTJaWEpwWm1sbGNpSTZJQ0pqYmpCT2J6aG9WSFp": 4042,
      "6lAa7A": 4043,
      "##rUzJaeWJ6UTRTSFk0WWxWRGVHS": 4044,
      "##dtdGpNbUpxU2tKTlZ": 4045,
      "##CZWsxRldqSmtkejA5SWl3TkNpQWdJQ0FpWTI5a1pWOTJaWEpwWm1sbGNpSTZJQ0pqYmpCT2J6aG9WSFp": 4046,
      "##HdzRZVVJWU0Mxb1RIZG5lVXBQW": 4047,
      "##UbDVWVVJCZWsxRldqSmtkejA5SWl3TkNpQWdJQ0FpWTI5a1pWOTJaWEpwWm1sbGNpSTZJQ0pqYmpCT2J6aG9WSFp": 4048,
      "##6YlY4NFNHdzRZVVJWU0Mxb1RIZG5lVXBQW": 4049,
      "##iYjIifSwicGF0Y2hsaW5lX2lkIjoibGl2ZSIsInByb2R1Y3QtaW50ZWdyYXRpb24iOnsiYXBwLXVwZGF0ZS1zdGF0dXMiOiJDOi9Qcm9ncmFtRGF0YS9SaW90IEdhbWVzL01ldGFkYXRhL2xlYWd1ZV9vZl9sZWdlbmRzLmxpdmUvbGVhZ3VlX29mX2xlZ2VuZHMubGl2ZS51cGRhdGUtc3RhdHVzLmpzb24iLCJoZWFydGJlYXQiOiJDOi9Vc2Vycy9IYXJhbWJlL0FwcERhdGEvTG9jYWwvUmlvdCBHYW1lcy9SaW90IENsaWVudC9EYXRhL1Nlc3Npb25zLzFjODI5": 4050,
      "##TNNeE1IVXdUaTFrUzJaeWJ6UTRTSFk0WWxWRGVHS": 4051,
      "##TkZwWVRsRlhhMUpTWWxkamRWZFhNV1pYYlhSaF": 4052,
      "##wZGJiMi9udnZHX3ZVM0VwRDhKOEQtNmxBYTdBLmhlYXJ0YmVhdC5qc29uIiwibG9ja2ZpbGUiOiJDOi9Qcm9ncmFtRGF0YS9SaW90IEdhbWVzL01ldGFkYXRhL2xlYWd1ZV9vZl9sZWdlbmRzLmxpdmUvbGVhZ3VlX29mX2xlZ2VuZHMubGl2ZS5sb2NrZmlsZSIsInNldHRpbmdzIjoiQzovUHJvZ3JhbURhdGEvUmlvdCBHYW1lcy9NZXRhZGF0YS9sZWFndWVfb2ZfbGVnZW5kcy5saXZlL2xlYWd1ZV9vZl9sZWdlbmRzLmxpdmUucHJvZHVjdF9zZXR0aW5ncy55YW1sIn0sInByb2R1Y3RfaWQiOiJsZWFndWVfb2ZfbGVnZW5kcyIsInB1Ymxpc2hlciI6InJpb3QiLCJyZWdpb25fZGF0YSI6eyJOQSI6eyJhdmFpbGFibGVfbG9jYWxlcyI6WyJlbl9VUyJdLCJkZWZhdWx0X2xvY2FsZSI6ImVuX1VTIiwicnNvIjp7ImNsaWVudCI6ImxvbCJ9fX0sInJpb3RjbGllbnQiOnsiYXBwLXBvcnQiOiI1MTM5MiIsImF1dGgtdG9rZW4iOiJudnZHX3ZVM0VwRDhKOEQtNmxBYTdBIn0sInJpb3RnYW1lc2FwaSI6eyJwZXJzaXN0ZW5jZS1wYXRoIjoiQzovVXNlcnMvSGFyYW1iZS9BcHBEYXRhL0xvY2FsL1Jpb3QgR2FtZXMvTGVhZ3VlIG9mIExlZ2VuZHMifSwicnNvX2F1dGgiOnsiYXV0aG9yaXphdGlvbi1rZXkiOiJldzBLSUNBZ0lDSmpiMlJsSWpvZ0ltUlhWWGhQYW1SM1ZtNUdTbHBwTVR": 4053,
      "##ZFVYekI2WmxRM1p5SU5DbjA9In19": 4054,
      "##FVFU1NWRWVnllR0l6YlY4NFNHdzRZVVJWU0Mxb1RIZG5lVXBQW": 4055,
      "##Nzg3NzMyMGRiYjIifSwicGF0Y2hsaW5lX2lkIjoibGl2ZSIsInByb2R1Y3QtaW50ZWdyYXRpb24iOnsiYXBwLXVwZGF0ZS1zdGF0dXMiOiJDOi9Qcm9ncmFtRGF0YS9SaW90IEdhbWVzL01ldGFkYXRhL2xlYWd1ZV9vZl9sZWdlbmRzLmxpdmUvbGVhZ3VlX29mX2xlZ2VuZHMubGl2ZS51cGRhdGUtc3RhdHVzLmpzb24iLCJoZWFydGJlYXQiOiJDOi9Vc2Vycy9IYXJhbWJlL0FwcERhdGEvTG9jYWwvUmlvdCBHYW1lcy9SaW90IENsaWVudC9EYXRhL1Nlc3Npb25zLzFjODI5": 4056,
      "##UzE1UkZCUFdUZFVYekI2WmxRM1p5SU5DbjA9In19": 4057,
      "eyJjbGllbnQtY29uZmlnIjp7InVybCI6Imh0dHBzOi8vY2xpZW50Y29uZmlnLnJwZy5yaW90Z2FtZXMuY29tIn0sImRlZmF1bHRfcmVnaW9uIjoiTkEiLCJnbG9iYWxzIjp7InNlc3Npb24taWQiOiIxYzgyOTIxMy01OWFjLTAyNGQtYjJjNC1k": 4058,
      "##MjEzLTU5YWMtMDI0ZC1iMmM0LWQ3ODc3MzI": 4059,
      "##lpkM0JaV1dGNWVubEplUzE1UkZCUFdUZFVYekI2WmxRM1p5SU5DbjA9In19": 4060,
      "##aUmF6RkhWa2RvTkZwWVRsRlhhMUpTWWxkamRWZFhNV1pYYlhSaF": 4061,
      "##dtdGpNbUpxU2tKTlZUbDVWVVJCZWsxRldqSmtkejA5SWl3TkNpQWdJQ0FpWTI5a1pWOTJaWEpwWm1sbGNpSTZJQ0pqYmpCT2J6aG9WSFp": 4062,
      "##TNNeE1IVXdUaTFrUzJaeWJ6UTRTSFk0WWxWRGVHSlpkM0JaV1dGNWVubEplUzE1UkZCUFdUZFVYekI2WmxRM1p5SU5DbjA9In19": 4063,
      "##wZGJiMi9udnZHX3ZVM0VwRDhKOEQtNmxBYTdBLmhlYXJ0YmVhdC5qc29uIiwibG9ja2ZpbGUiOiJDOi9Qcm9ncmFtRGF0YS9SaW90IEdhbWVzL01ldGFkYXRhL2xlYWd1ZV9vZl9sZWdlbmRzLmxpdmUvbGVhZ3VlX29mX2xlZ2VuZHMubGl2ZS5sb2NrZmlsZSIsInNldHRpbmdzIjoiQzovUHJvZ3JhbURhdGEvUmlvdCBHYW1lcy9NZXRhZGF0YS9sZWFndWVfb2ZfbGVnZW5kcy5saXZlL2xlYWd1ZV9vZl9sZWdlbmRzLmxpdmUucHJvZHVjdF9zZXR0aW5ncy55YW1sIn0sInByb2R1Y3RfaWQiOiJsZWFndWVfb2ZfbGVnZW5kcyIsInB1Ymxpc2hlciI6InJpb3QiLCJyZWdpb25fZGF0YSI6eyJOQSI6eyJhdmFpbGFibGVfbG9jYWxlcyI6WyJlbl9VUyJdLCJkZWZhdWx0X2xvY2FsZSI6ImVuX1VTIiwicnNvIjp7ImNsaWVudCI6ImxvbCJ9fX0sInJpb3RjbGllbnQiOnsiYXBwLXBvcnQiOiI1MTM5MiIsImF1dGgtdG9rZW4iOiJudnZHX3ZVM0VwRDhKOEQtNmxBYTdBIn0sInJpb3RnYW1lc2FwaSI6eyJwZXJzaXN0ZW5jZS1wYXRoIjoiQzovVXNlcnMvSGFyYW1iZS9BcHBEYXRhL0xvY2FsL1Jpb3QgR2FtZXMvTGVhZ3VlIG9mIExlZ2VuZHMifSwicnNvX2F1dGgiOnsiYXV0aG9yaXphdGlvbi1rZXkiOiJldzBLSUNBZ0lDSmpiMlJsSWpvZ0ltUlhWWGhQYW1SM1ZtNUdTbHBwTVRaUmF6RkhWa2RvTkZwWVRsRlhhMUpTWWxkamRWZFhNV1pYYlhSaF": 4064,
      "##FVFU1NWRWVnllR0l6YlY4NFNHdzRZVVJWU0Mxb1RIZG5lVXBQWTNNeE1IVXdUaTFrUzJaeWJ6UTRTSFk0WWxWRGVHSlpkM0JaV1dGNWVubEplUzE1UkZCUFdUZFVYekI2WmxRM1p5SU5DbjA9In19": 4065,
      "##Nzg3NzMyMGRiYjIifSwicGF0Y2hsaW5lX2lkIjoibGl2ZSIsInByb2R1Y3QtaW50ZWdyYXRpb24iOnsiYXBwLXVwZGF0ZS1zdGF0dXMiOiJDOi9Qcm9ncmFtRGF0YS9SaW90IEdhbWVzL01ldGFkYXRhL2xlYWd1ZV9vZl9sZWdlbmRzLmxpdmUvbGVhZ3VlX29mX2xlZ2VuZHMubGl2ZS51cGRhdGUtc3RhdHVzLmpzb24iLCJoZWFydGJlYXQiOiJDOi9Vc2Vycy9IYXJhbWJlL0FwcERhdGEvTG9jYWwvUmlvdCBHYW1lcy9SaW90IENsaWVudC9EYXRhL1Nlc3Npb25zLzFjODI5MjEzLTU5YWMtMDI0ZC1iMmM0LWQ3ODc3MzI": 4066,
      "eyJjbGllbnQtY29uZmlnIjp7InVybCI6Imh0dHBzOi8vY2xpZW50Y29uZmlnLnJwZy5yaW90Z2FtZXMuY29tIn0sImRlZmF1bHRfcmVnaW9uIjoiTkEiLCJnbG9iYWxzIjp7InNlc3Npb24taWQiOiIxYzgyOTIxMy01OWFjLTAyNGQtYjJjNC1kNzg3NzMyMGRiYjIifSwicGF0Y2hsaW5lX2lkIjoibGl2ZSIsInByb2R1Y3QtaW50ZWdyYXRpb24iOnsiYXBwLXVwZGF0ZS1zdGF0dXMiOiJDOi9Qcm9ncmFtRGF0YS9SaW90IEdhbWVzL01ldGFkYXRhL2xlYWd1ZV9vZl9sZWdlbmRzLmxpdmUvbGVhZ3VlX29mX2xlZ2VuZHMubGl2ZS51cGRhdGUtc3RhdHVzLmpzb24iLCJoZWFydGJlYXQiOiJDOi9Vc2Vycy9IYXJhbWJlL0FwcERhdGEvTG9jYWwvUmlvdCBHYW1lcy9SaW90IENsaWVudC9EYXRhL1Nlc3Npb25zLzFjODI5MjEzLTU5YWMtMDI0ZC1iMmM0LWQ3ODc3MzI": 4067,
      "##dtdGpNbUpxU2tKTlZUbDVWVVJCZWsxRldqSmtkejA5SWl3TkNpQWdJQ0FpWTI5a1pWOTJaWEpwWm1sbGNpSTZJQ0pqYmpCT2J6aG9WSFpFVFU1NWRWVnllR0l6YlY4NFNHdzRZVVJWU0Mxb1RIZG5lVXBQWTNNeE1IVXdUaTFrUzJaeWJ6UTRTSFk0WWxWRGVHSlpkM0JaV1dGNWVubEplUzE1UkZCUFdUZFVYekI2WmxRM1p5SU5DbjA9In19": 4068,
      "##wZGJiMi9udnZHX3ZVM0VwRDhKOEQtNmxBYTdBLmhlYXJ0YmVhdC5qc29uIiwibG9ja2ZpbGUiOiJDOi9Qcm9ncmFtRGF0YS9SaW90IEdhbWVzL01ldGFkYXRhL2xlYWd1ZV9vZl9sZWdlbmRzLmxpdmUvbGVhZ3VlX29mX2xlZ2VuZHMubGl2ZS5sb2NrZmlsZSIsInNldHRpbmdzIjoiQzovUHJvZ3JhbURhdGEvUmlvdCBHYW1lcy9NZXRhZGF0YS9sZWFndWVfb2ZfbGVnZW5kcy5saXZlL2xlYWd1ZV9vZl9sZWdlbmRzLmxpdmUucHJvZHVjdF9zZXR0aW5ncy55YW1sIn0sInByb2R1Y3RfaWQiOiJsZWFndWVfb2ZfbGVnZW5kcyIsInB1Ymxpc2hlciI6InJpb3QiLCJyZWdpb25fZGF0YSI6eyJOQSI6eyJhdmFpbGFibGVfbG9jYWxlcyI6WyJlbl9VUyJdLCJkZWZhdWx0X2xvY2FsZSI6ImVuX1VTIiwicnNvIjp7ImNsaWVudCI6ImxvbCJ9fX0sInJpb3RjbGllbnQiOnsiYXBwLXBvcnQiOiI1MTM5MiIsImF1dGgtdG9rZW4iOiJudnZHX3ZVM0VwRDhKOEQtNmxBYTdBIn0sInJpb3RnYW1lc2FwaSI6eyJwZXJzaXN0ZW5jZS1wYXRoIjoiQzovVXNlcnMvSGFyYW1iZS9BcHBEYXRhL0xvY2FsL1Jpb3QgR2FtZXMvTGVhZ3VlIG9mIExlZ2VuZHMifSwicnNvX2F1dGgiOnsiYXV0aG9yaXphdGlvbi1rZXkiOiJldzBLSUNBZ0lDSmpiMlJsSWpvZ0ltUlhWWGhQYW1SM1ZtNUdTbHBwTVRaUmF6RkhWa2RvTkZwWVRsRlhhMUpTWWxkamRWZFhNV1pYYlhSaFdtdGpNbUpxU2tKTlZUbDVWVVJCZWsxRldqSmtkejA5SWl3TkNpQWdJQ0FpWTI5a1pWOTJaWEpwWm1sbGNpSTZJQ0pqYmpCT2J6aG9WSFpFVFU1NWRWVnllR0l6YlY4NFNHdzRZVVJWU0Mxb1RIZG5lVXBQWTNNeE1IVXdUaTFrUzJaeWJ6UTRTSFk0WWxWRGVHSlpkM0JaV1dGNWVubEplUzE1UkZCUFdUZFVYekI2WmxRM1p5SU5DbjA9In19": 4069,
      "eyJjbGllbnQtY29uZmlnIjp7InVybCI6Imh0dHBzOi8vY2xpZW50Y29uZmlnLnJwZy5yaW90Z2FtZXMuY29tIn0sImRlZmF1bHRfcmVnaW9uIjoiTkEiLCJnbG9iYWxzIjp7InNlc3Npb24taWQiOiIxYzgyOTIxMy01OWFjLTAyNGQtYjJjNC1kNzg3NzMyMGRiYjIifSwicGF0Y2hsaW5lX2lkIjoibGl2ZSIsInByb2R1Y3QtaW50ZWdyYXRpb24iOnsiYXBwLXVwZGF0ZS1zdGF0dXMiOiJDOi9Qcm9ncmFtRGF0YS9SaW90IEdhbWVzL01ldGFkYXRhL2xlYWd1ZV9vZl9sZWdlbmRzLmxpdmUvbGVhZ3VlX29mX2xlZ2VuZHMubGl2ZS51cGRhdGUtc3RhdHVzLmpzb24iLCJoZWFydGJlYXQiOiJDOi9Vc2Vycy9IYXJhbWJlL0FwcERhdGEvTG9jYWwvUmlvdCBHYW1lcy9SaW90IENsaWVudC9EYXRhL1Nlc3Npb25zLzFjODI5MjEzLTU5YWMtMDI0ZC1iMmM0LWQ3ODc3MzIwZGJiMi9udnZHX3ZVM0VwRDhKOEQtNmxBYTdBLmhlYXJ0YmVhdC5qc29uIiwibG9ja2ZpbGUiOiJDOi9Qcm9ncmFtRGF0YS9SaW90IEdhbWVzL01ldGFkYXRhL2xlYWd1ZV9vZl9sZWdlbmRzLmxpdmUvbGVhZ3VlX29mX2xlZ2VuZHMubGl2ZS5sb2NrZmlsZSIsInNldHRpbmdzIjoiQzovUHJvZ3JhbURhdGEvUmlvdCBHYW1lcy9NZXRhZGF0YS9sZWFndWVfb2ZfbGVnZW5kcy5saXZlL2xlYWd1ZV9vZl9sZWdlbmRzLmxpdmUucHJvZHVjdF9zZXR0aW5ncy55YW1sIn0sInByb2R1Y3RfaWQiOiJsZWFndWVfb2ZfbGVnZW5kcyIsInB1Ymxpc2hlciI6InJpb3QiLCJyZWdpb25fZGF0YSI6eyJOQSI6eyJhdmFpbGFibGVfbG9jYWxlcyI6WyJlbl9VUyJdLCJkZWZhdWx0X2xvY2FsZSI6ImVuX1VTIiwicnNvIjp7ImNsaWVudCI6ImxvbCJ9fX0sInJpb3RjbGllbnQiOnsiYXBwLXBvcnQiOiI1MTM5MiIsImF1dGgtdG9rZW4iOiJudnZHX3ZVM0VwRDhKOEQtNmxBYTdBIn0sInJpb3RnYW1lc2FwaSI6eyJwZXJzaXN0ZW5jZS1wYXRoIjoiQzovVXNlcnMvSGFyYW1iZS9BcHBEYXRhL0xvY2FsL1Jpb3QgR2FtZXMvTGVhZ3VlIG9mIExlZ2VuZHMifSwicnNvX2F1dGgiOnsiYXV0aG9yaXphdGlvbi1rZXkiOiJldzBLSUNBZ0lDSmpiMlJsSWpvZ0ltUlhWWGhQYW1SM1ZtNUdTbHBwTVRaUmF6RkhWa2RvTkZwWVRsRlhhMUpTWWxkamRWZFhNV1pYYlhSaFdtdGpNbUpxU2tKTlZUbDVWVVJCZWsxRldqSmtkejA5SWl3TkNpQWdJQ0FpWTI5a1pWOTJaWEpwWm1sbGNpSTZJQ0pqYmpCT2J6aG9WSFpFVFU1NWRWVnllR0l6YlY4NFNHdzRZVVJWU0Mxb1RIZG5lVXBQWTNNeE1IVXdUaTFrUzJaeWJ6UTRTSFk0WWxWRGVHSlpkM0JaV1dGNWVubEplUzE1UkZCUFdUZFVYekI2WmxRM1p5SU5DbjA9In19": 4070,
      "79": 4071,
      ":\"": 4072,
      "Detec": 4073,
      "ele": 4074,
      "##ling": 4075,
      "##0i": 4076,
      "##Upd": 4077,
      "##ater": 4078,
      "stat": 4079,
      "Installer": 4080,
      "Service": 4081,
      "0x7ff": 4082,
      "vsce": 4083,
      "Detected": 4084,
      "##Updater": 4085,
      "##zation": 4086,
      "##itch": 4087,
      "##b6d": 4088,
      ":{": 4089,
      "Dll": 4090,
      "##mk": 4091,
      "##iti": 4092,
      "##Rl": 4093,
      "##sid": 4094,
      "##cessid": 4095,
      "##ctron": 4096,
      "##972": 4097,
      "Processid": 4098,
      "DllHost": 4099,
      "()": 4100,
      "));": 4101,
      "lam": 4102,
      "nor": 4103,
      "text": 4104,
      "##cwd": 4105,
      "##718": 4106,
      "##5wY": 4107,
      "##bda": 4108,
      "##lization": 4109,
      "##case": 4110,
      "##mpath": 4111,
      "##aWx": 4112,
      "##1086": 4113,
      "##4355": 4114,
      "##LCJy": 4115,
      "##conv": 4116,
      "normcase": 4117,
      "HKCU": 4118,
      "getcwd": 4119,
      "##tal_war": 4120,
      "());": 4121,
      "lambda": 4122,
      "normpath": 4123,
      "textconv": 4124,
      "##5wYmU": 4125,
      "827": 4126,
      "object": 4127,
      "##4499": 4128,
      "1482": 4129,
      "1560": 4130,
      "##0739": 4131,
      "##1956": 4132,
      "##8738": 4133,
      "##281086": 4134,
      "##9037": 4135,
      "64812": 4136,
      "##97276": 4137,
      "##53024": 4138,
      "##4031": 4139,
      "##95183": 4140,
      "##4604355": 4141,
      "117281086": 4142,
      "##5880739": 4143,
      "##7188738": 4144,
      "8275880739": 4145,
      "14824604355": 4146,
      "##195675": 4147,
      "648127188738": 4148,
      "##972769037": 4149,
      "##53024195675": 4150,
      "##4031328": 4151,
      "##951834499": 4152,
      "11728108653024195675": 4153,
      "8275880739972769037": 4154,
      "14824604355951834499": 4155,
      "6481271887384031328": 4156,
      "pid": 4157,
      "webview2": 4158,
      "##witch": 4159,
      "##erF": 4160,
      "comm": 4161,
      "##poration": 4162,
      "Corporation": 4163,
      "status": 4164,
      "commit": 4165,
      "us": 4166,
      "##sU": 4167,
      "##_1": 4168,
      "=%": 4169,
      "Use": 4170,
      "each": 4171,
      "head": 4172,
      "sc": 4173,
      "tra": 4174,
      "uall": 4175,
      "##ly": 4176,
      "##f9": 4177,
      "##pn": 4178,
      "##eref": 4179,
      "##verw": 4180,
      "##ARM": 4181,
      "Install": 4182,
      "remotename": 4183,
      "remoteref": 4184,
      "refname": 4185,
      "short": 4186,
      "AdobeARM": 4187,
      "remotes": 4188,
      "objectname": 4189,
      "=%(": 4190,
      "heads": 4191,
      "track": 4192,
      "Down": 4193,
      "##aem": 4194,
      "##gthr": 4195,
      "##Daem": 4196,
      "##987": 4197,
      "##Level": 4198,
      "electron": 4199,
      "usgthr": 4200,
      "DownLevel": 4201,
      "##Daemon": 4202,
      "usgthrsvc": 4203,
      "DownLevelDaemon": 4204,
      "529": 4205,
      "Node": 4206,
      "System": 4207,
      "##b0": 4208,
      "##bat": 4209,
      "##ph": 4210,
      "##pro": 4211,
      "##zd": 4212,
      "##lade": 4213,
      "RiotClientUxRender": 4214,
      "netsh": 4215,
      "NodeService": 4216,
      "ui": 4217,
      "##8e": 4218,
      "##to": 4219,
      "##ZT": 4220,
      "authd": 4221,
      "add": 4222,
      "browser": 4223,
      "##k2": 4224,
      "##dc": 4225,
      "##lu": 4226,
      "##fj": 4227,
      "##59": 4228,
      "##5h": 4229,
      "##pSV": 4230,
      "##m50": 4231,
      "##vz1": 4232,
      "##Office": 4233,
      "##_f": 4234,
      "##jwd": 4235,
      "##etpx": 4236,
      "MicrosoftOffice": 4237,
      "##54h2": 4238,
      "AppX54h2": 4239,
      "ClipSV": 4240,
      "##e8jwd": 4241,
      "##7czd": 4242,
      "##a8987": 4243,
      "##fj5h": 4244,
      "##m50fj5h": 4245,
      "##vz1etpx": 4246,
      "MicrosoftOfficeHub": 4247,
      "AppX54h2e8jwd": 4248,
      "ClipSVC": 4249,
      "##a8987vz1etpx": 4250,
      "##m50fj5ha8987vz1etpx": 4251,
      "AppX54h2e8jwdm50fj5ha8987vz1etpx": 4252,
      "AppX54h2e8jwdm50fj5ha8987vz1etpx7czd": 4253,
      "55": 4254,
      "824": 4255,
      "##ner": 4256,
      "##e00": 4257,
      "##ip": 4258,
      "##Shell": 4259,
      "##Power": 4260,
      "##Code": 4261,
      "WindowsPower": 4262,
      "52986": 4263,
      "WindowsPowerShell": 4264,
      "4e": 4265,
      "820": 4266,
      "804": 4267,
      "9be": 4268,
      "ae00": 4269,
      "wu": 4270,
      "##nap": 4271,
      "##DAL": 4272,
      "##f2": 4273,
      "##1_": 4274,
      "##sho": 4275,
      "##_d": 4276,
      "##beb9": 4277,
      "##ca57b": 4278,
      "04f5": 4279,
      "##_ADAL": 4280,
      "##d6_ADAL": 4281,
      "79972": 4282,
      "4edf": 4283,
      "9be6": 4284,
      "ae00beb9": 4285,
      "wuau": 4286,
      "##napsho": 4287,
      "##ca57bd6_ADAL": 4288,
      "79972ca57bd6_ADAL": 4289,
      "##napshot": 4290,
      "832": 4291,
      "828": 4292,
      "##243": 4293,
      "##ges": 4294,
      "##65": 4295,
      "##b3J": 4296,
      "##ps": 4297,
      "##mt": 4298,
      "##Not": 4299,
      "##tions": 4300,
      "192": 4301,
      "8192": 4302,
      "##Noti": 4303,
      ")/": 4304,
      "45": 4305,
      "==": 4306,
      "Fram": 4307,
      "];": 4308,
      "b74": 4309,
      "par": 4310,
      "##k9": 4311,
      "##ump": 4312,
      "##Map": 4313,
      "##eft": 4314,
      "##Handle": 4315,
      "prefs": 4316,
      "prefMap": 4317,
      "##eb9": 4318,
      "##arhammer": 4319,
      "##ework": 4320,
      "Crashpad": 4321,
      "Office16": 4322,
      "SysNative": 4323,
      "##a0f": 4324,
      "Framework": 4325,
      "sh": 4326,
      "##ug": 4327,
      "##3e": 4328,
      "##786": 4329,
      "##Only": 4330,
      "391": 4331,
      "pylan": 4332,
      "pylance": 4333,
      "Sp": 4334,
      "v1": 4335,
      "##Dem": 4336,
      "##pE": 4337,
      "##orSite": 4338,
      "##til": 4339,
      "##etri": 4340,
      "##OnDem": 4341,
      "##147": 4342,
      "##RendererF": 4343,
      "##areRendererF": 4344,
      "##eSug": 4345,
      "Root": 4346,
      "##eveSug": 4347,
      "WinRAR": 4348,
      "WinRetri": 4349,
      "##PerProcess": 4350,
      "##gestions": 4351,
      "##OnlyOnDem": 4352,
      "SpareRendererF": 4353,
      "##orSitePerProcess": 4354,
      "##eveSuggestions": 4355,
      "WinRetrieveSuggestions": 4356,
      "##OnlyOnDemand": 4357,
      "SpareRendererForSitePerProcess": 4358,
      "WinRetrieveSuggestionsOnlyOnDemand": 4359,
      "73": 4360,
      "Rem": 4361,
      "squi": 4362,
      "##rr": 4363,
      "##o_": 4364,
      "##nz": 4365,
      "##800": 4366,
      "##_and": 4367,
      "##SJ": 4368,
      "##Studio": 4369,
      "the_": 4370,
      "VisualStudio": 4371,
      "Arm": 4372,
      "squirr": 4373,
      "squirrel": 4374,
      "Overw": 4375,
      "sid": 4376,
      "##2n": 4377,
      "##a1r": 4378,
      "##nj": 4379,
      "##Cra": 4380,
      "##eed": 4381,
      "##tle": 4382,
      "##5ct": 4383,
      "##ide": 4384,
      "##Feed": 4385,
      "##_mo": 4386,
      "##tide": 4387,
      "deps": 4388,
      "##tore": 4389,
      "##ellFeed": 4390,
      "##tt2t": 4391,
      "##76pn": 4392,
      "##d1a1r": 4393,
      "ShellFeed": 4394,
      "AppXnj": 4395,
      "##oury": 4396,
      "478": 4397,
      "##ng5ct": 4398,
      "##mk3e": 4399,
      "##sUI": 4400,
      "##k2d1a1r": 4401,
      "55196": 4402,
      "##65k2d1a1r": 4403,
      "##nztt2t": 4404,
      "##2nng5ct": 4405,
      "ShellFeedsUI": 4406,
      "AppXnj65k2d1a1r": 4407,
      "##mk3e76pn": 4408,
      "##nztt2t2nng5ct": 4409,
      "AppXnj65k2d1a1rnztt2t2nng5ct": 4410,
      "AppXnj65k2d1a1rnztt2t2nng5ctmk3e76pn": 4411,
      "463": 4412,
      "776": 4413,
      "791": 4414,
      "8D": 4415,
      "##C8D": 4416,
      "##UM": 4417,
      "##E12": 4418,
      "##34": 4419,
      "##49D8": 4420,
      "##EF49D8": 4421,
      "##5094": 4422,
      "##DBC8D": 4423,
      "7347": 4424,
      "478C": 4425,
      "776DBC8D": 4426,
      "791E12": 4427,
      "8D71": 4428,
      "791E12EF49D8": 4429,
      "637": 4430,
      "Lo": 4431,
      "SUM": 4432,
      "buil": 4433,
      "cat": 4434,
      "wev": 4435,
      "##g0": 4436,
      "##util": 4437,
      "##lea": 4438,
      "##Mode": 4439,
      "##tub": 4440,
      "##tutil": 4441,
      "##549": 4442,
      "##NER": 4443,
      "##RUE": 4444,
      "##VF": 4445,
      "##Vz": 4446,
      "##Zz": 4447,
      "##can": 4448,
      "2040": 4449,
      "##645094": 4450,
      "GameID": 4451,
      "##13507": 4452,
      "##aseDir": 4453,
      "##1052": 4454,
      "##4726": 4455,
      "##vY2t": 4456,
      "##NameMode": 4457,
      "##54645094": 4458,
      "GameBaseDir": 4459,
      "PlayerID": 4460,
      "PlayerNameMode": 4461,
      "##MONER": 4462,
      "Product": 4463,
      "##24354645094": 4464,
      "##7864726": 4465,
      "4637864726": 4466,
      "63713507": 4467,
      "LoL": 4468,
      "SUMMONER": 4469,
      "wevtutil": 4470,
      "##54903": 4471,
      "##105254903": 4472,
      "4637864726105254903": 4473,
      "6371350724354645094": 4474,
      "-@": 4475,
      "-#": 4476,
      "FAL": 4477,
      "Platform": 4478,
      "TRUE": 4479,
      "js": 4480,
      "ke": 4481,
      "snapshot": 4482,
      "vnc": 4483,
      "##gs": 4484,
      "##d2": 4485,
      "##Dis": 4486,
      "##0h2": 4487,
      "##AD": 4488,
      "##Iy": 4489,
      "##ber": 4490,
      "##sename": 4491,
      "##Tier": 4492,
      "##Rol": 4493,
      "##Vs": 4494,
      "##tepad": 4495,
      "##est": 4496,
      "20800": 4497,
      "##ervice": 4498,
      "##seversion": 4499,
      "notepad": 4500,
      "##umber": 4501,
      "##eService": 4502,
      "##ytoken": 4503,
      "numRol": 4504,
      "querytoken": 4505,
      "stdio": 4506,
      "##dnumber": 4507,
      "##oteDis": 4508,
      "licensename": 4509,
      "licenseversion": 4510,
      "##lingTier": 4511,
      "RemoteDis": 4512,
      "buildnumber": 4513,
      "FALSE": 4514,
      "keep": 4515,
      "20800274": 4516,
      "numRollingTier": 4517,
      "RemoteDisplay": 4518,
      "numRollingTiers": 4519,
      "ai": 4520,
      "fetch": 4521,
      "secure": 4522,
      "ver": 4523,
      "warhammer": 4524,
      "##ard": 4525,
      "##aCI6": 4526,
      "##fQ": 4527,
      "##BM": 4528,
      "##IM": 4529,
      "##IsIm": 4530,
      "##9LCJy": 4531,
      "##b19": 4532,
      "##sO": 4533,
      "##maWx": 4534,
      "##iwi": 4535,
      "##No": 4536,
      "##XR": 4537,
      "##_b": 4538,
      "##_th": 4539,
      "##yI6": 4540,
      "##yIsIn": 4541,
      "##Server": 4542,
      "##Vk": 4543,
      "##J1": 4544,
      "##olf": 4545,
      "##mxvY2t": 4546,
      "##fication": 4547,
      "UsGthrFltPipeMssGthrPipe29": 4548,
      "UsGthrFltPipeMssGthrPipe28": 4549,
      "UsGthrFltPipeMssGthrPipe30": 4550,
      "##2xlYWd1ZV9vZl9sZWdlbmRzLnB": 4551,
      "total_war": 4552,
      "##Iiwic": 4553,
      "##RGF0YS9": 4554,
      "##hdXR": 4555,
      "##iOiJDOi9Qcm9ncmFtRGF0YS9SaW90IEdhbWVzL01ldGFkYXRhL2xlYWd1ZV9vZl9sZWdlbmRzLnB": 4556,
      "##aW9uLW": 4557,
      "##IiwiZ": 4558,
      "##iZS9sZWFndWVfb2ZfbGVnZW5kcy": 4559,
      "Armoury": 4560,
      "Overwolf": 4561,
      "##Crate": 4562,
      "##maWxl": 4563,
      "##yI6eyJ": 4564,
      "##mxvY2tmaWxl": 4565,
      "##hdXRo": 4566,
      "##iOiJDOi9Qcm9ncmFtRGF0YS9SaW90IEdhbWVzL01ldGFkYXRhL2xlYWd1ZV9vZl9sZWdlbmRzLnBiZS9sZWFndWVfb2ZfbGVnZW5kcy": 4567,
      "ArmouryCrate": 4568,
      "##iOiJDOi9Qcm9ncmFtRGF0YS9SaW90IEdhbWVzL01ldGFkYXRhL2xlYWd1ZV9vZl9sZWdlbmRzLnBiZS9sZWFndWVfb2ZfbGVnZW5kcy5wYmU": 4569,
      "by": 4570,
      "cor": 4571,
      "worker": 4572,
      "##sp": 4573,
      "##ssc": 4574,
      "cont": 4575,
      "conda": 4576,
      "##reaming": 4577,
      "##passc": 4578,
      "standard": 4579,
      "streaming": 4580,
      "monitoring": 4581,
      "##Notification": 4582,
      "##lean": 4583,
      "bypassc": 4584,
      "cors": 4585,
      "bypasscsp": 4586,
      "try": 4587,
      "##a3": 4588,
      "##kn": 4589,
      "##HIM": 4590,
      "##8hb": 4591,
      "##7k9": 4592,
      "##xb6d": 4593,
      "##mz": 4594,
      "##Files": 4595,
      "##_id": 4596,
      "##y7k9": 4597,
      "##zh0": 4598,
      "##SHIM": 4599,
      "##icG": 4600,
      "NvSHIM": 4601,
      "noex": 4602,
      "##tfbf": 4603,
      "AppXmt": 4604,
      "##z1zh0": 4605,
      "##can0h2": 4606,
      "##kn8hb": 4607,
      "##xb6dmz": 4608,
      "##y7k9kn8hb": 4609,
      "noexit": 4610,
      "##tfbfy7k9kn8hb": 4611,
      "AppXmtcan0h2": 4612,
      "##xb6dmzz1zh0": 4613,
      "##tfbfy7k9kn8hbxb6dmzz1zh0": 4614,
      "AppXmtcan0h2tfbfy7k9kn8hbxb6dmzz1zh0": 4615,
      "Ac": 4616,
      "IsO": 4617,
      "wer": 4618,
      "##ature": 4619,
      "##lin": 4620,
      "##01": 4621,
      "##B6": 4622,
      "##ive": 4623,
      "##RM": 4624,
      "##ialBuild": 4625,
      "##fficialBuild": 4626,
      "initi": 4627,
      "##Processor": 4628,
      "IsOfficialBuild": 4629,
      "initial": 4630,
      "244": 4631,
      "Cur": 4632,
      "Cent": 4633,
      "Def": 4634,
      "Driver": 4635,
      "Dump": 4636,
      "Mus": 4637,
      "Pan": 4638,
      "Phon": 4639,
      "[:": 4640,
      "clo": 4641,
      "pci": 4642,
      "sy": 4643,
      "tim": 4644,
      "tem": 4645,
      "##cks": 4646,
      "##rent": 4647,
      "##lProcessor": 4648,
      "##8b": 4649,
      "##eEx": 4650,
      "##pend": 4651,
      "##xsi": 4652,
      "##ience": 4653,
      "##Nk": 4654,
      "##FILE": 4655,
      "##TA": 4656,
      "##_FILE": 4657,
      "##LU": 4658,
      "##Win": 4659,
      "##Store": 4660,
      "##Patch": 4661,
      "##ralProcessor": 4662,
      "##tamp": 4663,
      "##estamp": 4664,
      "dist": 4665,
      "##643": 4666,
      "##ther": 4667,
      "append": 4668,
      "##perature": 4669,
      "##perience": 4670,
      "utilization": 4671,
      "maxsi": 4672,
      "UsGthrCtrlFltPipeMssGthrPipe29": 4673,
      "UsGthrCtrlFltPipeMssGthrPipe28": 4674,
      "UsGthrCtrlFltPipeMssGthrPipe30": 4675,
      "prepend": 4676,
      "MOZ_LOG_FILE": 4677,
      "ServiceHub": 4678,
      "Current": 4679,
      "CentralProcessor": 4680,
      "Defender": 4681,
      "DriverStore": 4682,
      "MusNotification": 4683,
      "Panther": 4684,
      "PhoneEx": 4685,
      "[:]": 4686,
      "clocks": 4687,
      "sync": 4688,
      "timestamp": 4689,
      "temperature": 4690,
      "##perienceHost": 4691,
      "maxsize": 4692,
      "prependheader": 4693,
      "CurrentVersion": 4694,
      "PhoneExperienceHost": 4695,
      "##cG": 4696,
      "##c1": 4697,
      "##dD": 4698,
      "##d0": 4699,
      "##CC": 4700,
      "##bc": 4701,
      "##ess": 4702,
      "##eat": 4703,
      "##elta": 4704,
      "wermgr": 4705,
      "AM": 4706,
      "EB": 4707,
      "##fe1": 4708,
      "##9Ij": 4709,
      "##FI": 4710,
      "##_Patch": 4711,
      "##robat": 4712,
      "##_Delta": 4713,
      "parent": 4714,
      "Acrobat": 4715,
      "AM_Delta": 4716,
      "EBWebView": 4717,
      "##_Patch_1": 4718,
      "AM_Delta_Patch_1": 4719,
      "##a4": 4720,
      "##Ig": 4721,
      "##he": 4722,
      "##FB": 4723,
      "##onda3": 4724,
      "##aconda3": 4725,
      "##lat": 4726,
      "noheader": 4727,
      "303": 4728,
      "anaconda3": 4729,
      "asar": 4730,
      "$(": 4731,
      "BU": 4732,
      "Gra": 4733,
      "TM": 4734,
      "rund": 4735,
      "v4": 4736,
      "##r_war": 4737,
      "##dX": 4738,
      "##Bk": 4739,
      "##ME": 4740,
      "##EE": 4741,
      "##IG": 4742,
      "##51": 4743,
      "##ll32": 4744,
      "##ServiceB": 4745,
      "star_war": 4746,
      "##ILD": 4747,
      "Arg0": 4748,
      "##_fall": 4749,
      "30319": 4750,
      "BUILD": 4751,
      "rundll32": 4752,
      "star_wars_": 4753,
      "467": 4754,
      "beat": 4755,
      "##gAAA": 4756,
      "##nal": 4757,
      "##IH": 4758,
      "##8f": 4759,
      "##eg": 4760,
      "##5M": 4761,
      "##sf": 4762,
      "##VSI": 4763,
      "##ery": 4764,
      "##168": 4765,
      "Gaming": 4766,
      "Pres": 4767,
      "WCC": 4768,
      "media": 4769,
      "##cery": 4770,
      "##kM": 4771,
      "##lI": 4772,
      "##0ac": 4773,
      "##Bi": 4774,
      "##Umx": 4775,
      "##Gk": 4776,
      "##Yy": 4777,
      "##Y3N": 4778,
      "##9_": 4779,
      "##5_": 4780,
      "##sW": 4781,
      "##ms": 4782,
      "##Rm": 4783,
      "##Sig": 4784,
      "##Stub": 4785,
      "##Vj": 4786,
      "##rage": 4787,
      "##orest": 4788,
      "##orcery": 4789,
      "##ZW50": 4790,
      "##137": 4791,
      "##SIg": 4792,
      "##ternal": 4793,
      "Internal": 4794,
      "##d68": 4795,
      "##enceWriterServer": 4796,
      "MpSig": 4797,
      "##ZTRm": 4798,
      "##SJ9LCJy": 4799,
      "OverwolfUpdater": 4800,
      "PresenceWriterServer": 4801,
      "WCChrome": 4802,
      "MpSigStub": 4803,
      "AB": 4804,
      "NOT": 4805,
      "ar": 4806,
      "##c5": 4807,
      "##din": 4808,
      "##0iM": 4809,
      "##Qk": 4810,
      "##EP": 4811,
      "##864": 4812,
      "##tureService": 4813,
      "##104": 4814,
      "##aptureService": 4815,
      "100227": 4816,
      "stdin": 4817,
      "NOTEP": 4818,
      "arm": 4819,
      "NOTEPAD": 4820,
      "2168": 4821,
      "Ms": 4822,
      "fre": 4823,
      "out": 4824,
      "twitch": 4825,
      "##MpE": 4826,
      "##9I": 4827,
      "##sent": 4828,
      "##sPer": 4829,
      "##New": 4830,
      "##Ses": 4831,
      "##serv": 4832,
      "##icsPer": 4833,
      "consent": 4834,
      "1624": 4835,
      "##Info": 4836,
      "2164": 4837,
      "1823": 4838,
      "pipeInfo": 4839,
      "##178": 4840,
      "##_studio": 4841,
      "##fSvc": 4842,
      "##X3D": 4843,
      "UseNew": 4844,
      "##phicsPer": 4845,
      "wuauserv": 4846,
      "GraphicsPer": 4847,
      "MsMpE": 4848,
      "twitch_studio": 4849,
      "##Session": 4850,
      "UseNewX3D": 4851,
      "GraphicsPerfSvc": 4852,
      "MsMpEng": 4853,
      "4460": 4854,
      "ARM": 4855,
      "_version": 4856,
      "_pro": 4857,
      "clean": 4858,
      "server": 4859,
      "##cz": 4860,
      "##od": 4861,
      "##lz": 4862,
      "##fe": 4863,
      "##veS": 4864,
      "##TM": 4865,
      "##tand": 4866,
      "##entpro": 4867,
      "##dir": 4868,
      "##ductName": 4869,
      "##559": 4870,
      "windir": 4871,
      "##677": 4872,
      "OneDriveS": 4873,
      "##aloneUpdater": 4874,
      "Services": 4875,
      "VisualStudioCode": 4876,
      "contentpro": 4877,
      "##dXBk": 4878,
      "_productName": 4879,
      "##tandaloneUpdater": 4880,
      "OneDriveStandaloneUpdater": 4881,
      "contentproc": 4882,
      "##dXBkYXR": 4883,
      "65": 4884,
      "94": 4885,
      "_co": 4886,
      "a39": 4887,
      "fa": 4888,
      "##update": 4889,
      "##dW": 4890,
      "##fd": 4891,
      "##4e": 4892,
      "##764": 4893,
      "##e20": 4894,
      "##e075": 4895,
      "##Tel": 4896,
      "##_a": 4897,
      "##yName": 4898,
      "##PSI": 4899,
      "##VS": 4900,
      "##anyName": 4901,
      "1632": 4902,
      "Comp": 4903,
      "##mpanyName": 4904,
      "##atTel": 4905,
      "##6216": 4906,
      "##475": 4907,
      "##337": 4908,
      "##Runner": 4909,
      "##dbf2": 4910,
      "##_to_": 4911,
      "##c093": 4912,
      "cleanmgr": 4913,
      "_companyName": 4914,
      "a39e075": 4915,
      "CompatTel": 4916,
      "##_to_df": 4917,
      "a39e075dbf2": 4918,
      "CompatTelRunner": 4919,
      "4f": 4920,
      "442": 4921,
      "417": 4922,
      "61": 4923,
      "blade": 4924,
      "f4": 4925,
      "##a_ii": 4926,
      "##ome": 4927,
      "##DA": 4928,
      "##lX": 4929,
      "##fy": 4930,
      "##forest": 4931,
      "##09": 4932,
      "##8df": 4933,
      "##825": 4934,
      "##b7f": 4935,
      "##114": 4936,
      "##iv": 4937,
      "##_sorcery": 4938,
      "##4958": 4939,
      "##626": 4940,
      "##4677": 4941,
      "msgs": 4942,
      "##_and_sorcery": 4943,
      "the_forest": 4944,
      "arma_ii": 4945,
      "blade_and_sorcery": 4946,
      "arma_iii": 4947,
      "01c": 4948,
      "07f": 4949,
      "0c1": 4950,
      "1de": 4951,
      "1a9": 4952,
      "1241": 4953,
      "4ad": 4954,
      "462": 4955,
      "4a2": 4956,
      "4e8": 4957,
      "4f6": 4958,
      "446a": 4959,
      "4f2": 4960,
      "4147": 4961,
      "48b": 4962,
      "4643": 4963,
      "4337": 4964,
      "5c": 4965,
      "543": 4966,
      "5b0": 4967,
      "5bc": 4968,
      "6de": 4969,
      "6f6": 4970,
      "7aa": 4971,
      "83": 4972,
      "8cce": 4973,
      "8e1": 4974,
      "9a0": 4975,
      "9f3": 4976,
      "Task": 4977,
      "a2": 4978,
      "aec": 4979,
      "aid": 4980,
      "a66": 4981,
      "a57b": 4982,
      "a864": 4983,
      "b77": 4984,
      "be20": 4985,
      "cb6d": 4986,
      "ca0f": 4987,
      "d42": 4988,
      "d57": 4989,
      "d8e": 4990,
      "e5": 4991,
      "e86": 4992,
      "embe": 4993,
      "ea2": 4994,
      "e957": 4995,
      "eaa": 4996,
      "ea0f": 4997,
      "f33": 4998,
      "f17": 4999,
      "f37": 5000,
      "f1c": 5001,
      "f879": 5002,
      "f764": 5003,
      "f6216": 5004,
      "f09": 5005,
      "iid": 5006,
      "uid": 5007,
      "##2f7": 5008,
      "##2a8": 5009,
      "##ade": 5010,
      "##aging": 5011,
      "##aeb9": 5012,
      "##a559": 5013,
      "##c23": 5014,
      "##c80": 5015,
      "##c194": 5016,
      "##c77": 5017,
      "##kL": 5018,
      "##rys": 5019,
      "##oo": 5020,
      "##d9": 5021,
      "##dde": 5022,
      "##lord": 5023,
      "##f1": 5024,
      "##f80": 5025,
      "##fron": 5026,
      "##4c0": 5027,
      "##Mk": 5028,
      "##Mess": 5029,
      "##9f80": 5030,
      "##3e8": 5031,
      "##7af": 5032,
      "##7d2": 5033,
      "##5df": 5034,
      "##1d68": 5035,
      "##spe": 5036,
      "##set": 5037,
      "##has": 5038,
      "##py": 5039,
      "##pho": 5040,
      "##isk": 5041,
      "##ize": 5042,
      "##ires": 5043,
      "##TmR": 5044,
      "##ylin": 5045,
      "##Len": 5046,
      "##Size": 5047,
      "##qm": 5048,
      "##jm": 5049,
      "##ere": 5050,
      "##ons": 5051,
      "##beec": 5052,
      "##mintide": 5053,
      "##ca76": 5054,
      "AppServiceB": 5055,
      "##anner": 5056,
      "##320": 5057,
      "##32kL": 5058,
      "##yson": 5059,
      "20024": 5060,
      "##de9": 5061,
      "NvTmR": 5062,
      "##alhe": 5063,
      "##86ec": 5064,
      "2380": 5065,
      "23c3": 5066,
      "068f": 5067,
      "202305": 5068,
      "appcent": 5069,
      "appDir": 5070,
      "11beec": 5071,
      "##cee": 5072,
      "##ec8": 5073,
      "##ecd1": 5074,
      "##20475": 5075,
      "##b2cee": 5076,
      "##uman": 5077,
      "##0086ec": 5078,
      "##vilization": 5079,
      "debugpy": 5080,
      "##loons": 5081,
      "##1355": 5082,
      "##1340": 5083,
      "##368": 5084,
      "217d2": 5085,
      "##ocke": 5086,
      "1964": 5087,
      "##11a3": 5088,
      "##2890": 5089,
      "##2898": 5090,
      "##9067": 5091,
      "##793": 5092,
      "##arrys": 5093,
      "##221340": 5094,
      "3975": 5095,
      "##50e": 5096,
      "inspe": 5097,
      "##ridge": 5098,
      "570ac": 5099,
      "##d1fb": 5100,
      "win32kL": 5101,
      "##94e8": 5102,
      "##1b5": 5103,
      "VSCode": 5104,
      "##0db2cee": 5105,
      "##1c88": 5106,
      "##db626": 5107,
      "##mong": 5108,
      "4c97": 5109,
      "##dF9s": 5110,
      "35bb": 5111,
      "stream": 5112,
      "34bf": 5113,
      "##251b5": 5114,
      "##mopho": 5115,
      "##ba20475": 5116,
      "##ccf1": 5117,
      "##e41": 5118,
      "##e451": 5119,
      "##e450e": 5120,
      "##a85df": 5121,
      "445": 5122,
      "44fe": 5123,
      "66f5": 5124,
      "##5bc093": 5125,
      "4dbe": 5126,
      "658e": 5127,
      "##bia": 5128,
      "2f9f80": 5129,
      "476e": 5130,
      "4736": 5131,
      "472890": 5132,
      "##BuildID": 5133,
      "##d423": 5134,
      "##lanet": 5135,
      "##aber": 5136,
      "##ities": 5137,
      "##f9c80": 5138,
      "##f9ccf1": 5139,
      "##phere": 5140,
      "##dc677": 5141,
      "b74f": 5142,
      "b74e": 5143,
      "prefsHandle": 5144,
      "prefsLen": 5145,
      "prefMapHandle": 5146,
      "prefMapSize": 5147,
      "##eb99": 5148,
      "Framework64": 5149,
      "##tlefron": 5150,
      "json": 5151,
      "##dDown": 5152,
      "##fe1a4": 5153,
      "parentBuildID": 5154,
      "##137b": 5155,
      "fake": 5156,
      "##4eec8": 5157,
      "4f53": 5158,
      "4427": 5159,
      "4177": 5160,
      "61d8": 5161,
      "f42898": 5162,
      "##8df8e": 5163,
      "##825e450e": 5164,
      "##b7fd423": 5165,
      "##4958ade": 5166,
      "01c4958ade": 5167,
      "07fc194": 5168,
      "0c1dc677": 5169,
      "1de4eec8": 5170,
      "1a92": 5171,
      "4ad9": 5172,
      "4627": 5173,
      "4a2c": 5174,
      "4e82": 5175,
      "4f61": 5176,
      "4f2ba20475": 5177,
      "48b8": 5178,
      "5c06": 5179,
      "543d": 5180,
      "5b0e": 5181,
      "5bc6": 5182,
      "6dec77": 5183,
      "6f69067": 5184,
      "7aa4c0": 5185,
      "8395": 5186,
      "8cce1d68": 5187,
      "8e1e": 5188,
      "9a02": 5189,
      "9f30086ec": 5190,
      "a2f9ccf1": 5191,
      "aec5": 5192,
      "a66e": 5193,
      "a57b3e8": 5194,
      "b77c": 5195,
      "be201c88": 5196,
      "d42f9c80": 5197,
      "d578df8e": 5198,
      "d8e5bc093": 5199,
      "e594e8": 5200,
      "e86db626": 5201,
      "embedde": 5202,
      "ea26": 5203,
      "eaa1": 5204,
      "ea0f825e450e": 5205,
      "f330": 5206,
      "f17fe1a4": 5207,
      "f37ecd1": 5208,
      "f1c7af": 5209,
      "f879e451": 5210,
      "f6216de9": 5211,
      "f09a": 5212,
      "##2a8251b5": 5213,
      "##a559ba": 5214,
      "##d911a3": 5215,
      "##Messaging": 5216,
      "##hasmopho": 5217,
      "##ylines": 5218,
      "##ca7680": 5219,
      "AppServiceBridge": 5220,
      "##annerlord": 5221,
      "NvTmRep": 5222,
      "##alheim": 5223,
      "238042": 5224,
      "202305221340": 5225,
      "appcenter": 5226,
      "11beecca7680": 5227,
      "217d2b7fd423": 5228,
      "##ockedDown": 5229,
      "inspect": 5230,
      "570ac0db2cee": 5231,
      "##d1fb38": 5232,
      "win32kLockedDown": 5233,
      "35bb1355": 5234,
      "34bf2a8251b5": 5235,
      "##a85df1": 5236,
      "2f9f80d911a3": 5237,
      "472890a85df1": 5238,
      "##tlefront": 5239,
      "f4289815": 5240,
      "01c4958adefd": 5241,
      "07fc194d": 5242,
      "4f2ba2047550": 5243,
      "6dec777f": 5244,
      "6f69067b": 5245,
      "7aa4c09b": 5246,
      "9f30086ec2f7": 5247,
      "a2f9ccf1eb99": 5248,
      "a57b3e85": 5249,
      "d8e5bc093e41": 5250,
      "e594e8d1fb38": 5251,
      "embedded": 5252,
      "f17fe1a4137b": 5253,
      "f37ecd17": 5254,
      "f1c7afa559ba": 5255,
      "f879e451aeb9": 5256,
      "##hasmophobia": 5257,
      "20230522134052": 5258,
      "183": 5259,
      "25": 5260,
      "Sto": 5261,
      "##oC": 5262,
      "##uZV9": 5263,
      "##App": 5264,
      "##Ext": 5265,
      "##s2": 5266,
      "##hY": 5267,
      "##X64_": 5268,
      "##Re": 5269,
      "##_X64_": 5270,
      "##ran": 5271,
      "20_r3dlog": 5272,
      "##crip": 5273,
      "##ZXN": 5274,
      "32_r3dlog": 5275,
      "57_r3dlog": 5276,
      "##dHJ": 5277,
      "49_r3dlog": 5278,
      "##IiB": 5279,
      "##303": 5280,
      "##Vyc2": 5281,
      "29_r3dlog": 5282,
      "##X1J": 5283,
      "MicrosoftEdge_X64_": 5284,
      "37_r3dlog": 5285,
      "37_1": 5286,
      "40_r3dlog": 5287,
      "33_r3dlog": 5288,
      "09_r3dlog": 5289,
      "53_r3dlog": 5290,
      "56_r3dlog": 5291,
      "03_r3dlog": 5292,
      "27_r3dlog": 5293,
      "02_r3dlog": 5294,
      "##lzdG": 5295,
      "MicrosoftEdge_X64_114": 5296,
      "37_113": 5297,
      "114": 5298,
      "215": 5299,
      "949": 5300,
      "ALL": 5301,
      "##228": 5302,
      "##c8": 5303,
      "##clt": 5304,
      "##rot": 5305,
      "##nR": 5306,
      "##QX": 5307,
      "##84": 5308,
      "##tling": 5309,
      "##hrot": 5310,
      "##NE": 5311,
      "##XS": 5312,
      "##vel": 5313,
      "##Tg": 5314,
      "##jZ": 5315,
      "##V3": 5316,
      "##..": 5317,
      "##level": 5318,
      "##324": 5319,
      "##etup": 5320,
      "##644": 5321,
      "##148": 5322,
      "##296": 5323,
      "##sive": 5324,
      "##124": 5325,
      "csv_to_df": 5326,
      "2436": 5327,
      "##482": 5328,
      "node_mo": 5329,
      "wuauclt": 5330,
      "##hrottling": 5331,
      "node_modules": 5332,
      "bund": 5333,
      "spe": 5334,
      "##c9": 5335,
      "##c14": 5336,
      "##c793": 5337,
      "##nn": 5338,
      "##n7": 5339,
      "##netstats": 5340,
      "##wOD": 5341,
      "##lr": 5342,
      "##fc": 5343,
      "##0z": 5344,
      "##060": 5345,
      "##CR": 5346,
      "##ED": 5347,
      "##89": 5348,
      "##e95": 5349,
      "##td4": 5350,
      "##5b2": 5351,
      "##508": 5352,
      "##176": 5353,
      "##1n7": 5354,
      "##_g": 5355,
      "##_v": 5356,
      "##zI": 5357,
      "##qrc": 5358,
      "##j30": 5359,
      "##pp1n7": 5360,
      "20_netstats": 5361,
      "0x4": 5362,
      "3068": 5363,
      "32_netstats": 5364,
      "57_netstats": 5365,
      "##277": 5366,
      "49_netstats": 5367,
      "##98e95": 5368,
      "##a2e4": 5369,
      "AppXas": 5370,
      "##cons": 5371,
      "29_netstats": 5372,
      "vmxc14": 5373,
      "##5y31": 5374,
      "##7c5b2": 5375,
      "37_netstats": 5376,
      "40_netstats": 5377,
      "33_netstats": 5378,
      "09_netstats": 5379,
      "##06pp1n7": 5380,
      "53_netstats": 5381,
      "56_netstats": 5382,
      "##ODk": 5383,
      "03_netstats": 5384,
      "27_netstats": 5385,
      "##aktd4": 5386,
      "02_netstats": 5387,
      "0x7ff7": 5388,
      "0x7ff7c5b2": 5389,
      "##dcj30": 5390,
      "2448": 5391,
      "##jm06pp1n7": 5392,
      "18300": 5393,
      "##s2jm06pp1n7": 5394,
      "bundle": 5395,
      "##qrc54": 5396,
      "##98e95a2e4": 5397,
      "AppXass2jm06pp1n7": 5398,
      "vmxc1498e95a2e4": 5399,
      "##5y31qrc54": 5400,
      "##aktd4dcj30": 5401,
      "0x7ff7c5b280": 5402,
      "AppXass2jm06pp1n7aktd4dcj30": 5403,
      "vmxc1498e95a2e4c793": 5404,
      "AppXass2jm06pp1n7aktd4dcj305y31qrc54": 5405,
      "428": 5406,
      "58": 5407,
      "Bat": 5408,
      "II": 5409,
      "age": 5410,
      "among": 5411,
      "bloons": 5412,
      "cred": 5413,
      "cities": 5414,
      "dyson": 5415,
      "gra": 5416,
      "garrys": 5417,
      "human": 5418,
      "lib": 5419,
      "left": 5420,
      "pack": 5421,
      "planet": 5422,
      "phasmophobia": 5423,
      "rome": 5424,
      "risk": 5425,
      "vf": 5426,
      "vmp": 5427,
      "valheim": 5428,
      "##2V0": 5429,
      "##aE": 5430,
      "##a2Vu": 5431,
      "##aGV": 5432,
      "##cg": 5433,
      "##c29": 5434,
      "##cGF0": 5435,
      "##king": 5436,
      "##kZV9": 5437,
      "##ktide": 5438,
      "##rb19": 5439,
      "##oiLCJ": 5440,
      "##uan": 5441,
      "##uys": 5442,
      "##uMD": 5443,
      "##udXBkYXR": 5444,
      "##nS": 5445,
      "##nVu": 5446,
      "##nSUN": 5447,
      "##d_": 5448,
      "##dOQ": 5449,
      "##DbGllbnQ": 5450,
      "##DQW": 5451,
      "##wb3J": 5452,
      "##lDS": 5453,
      "##lsi": 5454,
      "##lLX": 5455,
      "##lbl9": 5456,
      "##lkIjoi": 5457,
      "##lX2xvY2Fs": 5458,
      "##lbl9VU": 5459,
      "##lpY": 5460,
      "##fYX": 5461,
      "##fQ1": 5462,
      "##fRl": 5463,
      "##fVF": 5464,
      "##0X": 5465,
      "##0Ijoi": 5466,
      "##01Y": 5467,
      "##0IjoiQzovVXNlcnMvSGFyYW1iZS9BcHBEYXRhL0xvY2FsL1Jpb3QgR2FtZX": 5468,
      "##0aW9uLW": 5469,
      "##CB": 5470,
      "##C9SaW90IEdhbWVzL0": 5471,
      "##BvZ": 5472,
      "##BhdG": 5473,
      "##HZ": 5474,
      "##HQi": 5475,
      "##Kam": 5476,
      "##Q2R": 5477,
      "##QlI": 5478,
      "##QQk": 5479,
      "##MG": 5480,
      "##MvUmlvdCB": 5481,
      "##Mb2N": 5482,
      "##MiOiJDOi9Qcm9ncmFtRGF0YS9SaW90IEdhbWVzL01ldGFkYXRhL2xlYWd1ZV9vZl9sZWdlbmRzLnBiZS9sZWFndWVfb2ZfbGVnZW5kcy5wYmU": 5483,
      "##UiOiJ": 5484,
      "##UiOnsiYX": 5485,
      "##UIiwi": 5486,
      "##YaF": 5487,
      "##Y5M": 5488,
      "##ImF": 5489,
      "##IiLCJ": 5490,
      "##IkM": 5491,
      "##9nS": 5492,
      "##3Zz": 5493,
      "##6_": 5494,
      "##6L1": 5495,
      "##tJQ0F": 5496,
      "##5oZWFydGJlYXQ": 5497,
      "##byI6eyJ": 5498,
      "##1S": 5499,
      "##1cy": 5500,
      "##sb2": 5501,
      "##sX1": 5502,
      "##sitor": 5503,
      "##sY2": 5504,
      "##sicG": 5505,
      "##hP": 5506,
      "##hbG": 5507,
      "##hNR": 5508,
      "##hhc": 5509,
      "##pZ": 5510,
      "##pun": 5511,
      "##xlYWd1": 5512,
      "##mYX": 5513,
      "##iZWF": 5514,
      "##iIsInB": 5515,
      "##iBM": 5516,
      "##Nvbi": 5517,
      "##Nhc": 5518,
      "##NsW": 5519,
      "##NuMD": 5520,
      "##X0d": 5521,
      "##X01Y": 5522,
      "##FfS": 5523,
      "##FUy": 5524,
      "##FIiwiZ": 5525,
      "##vt": 5526,
      "##vRGF0YS9": 5527,
      "##vQX": 5528,
      "##TE": 5529,
      "##TZX": 5530,
      "##Olsi": 5531,
      "##RV": 5532,
      "##_z": 5533,
      "##_me": 5534,
      "##_sk": 5535,
      "##_vi": 5536,
      "##_us": 5537,
      "##_ver": 5538,
      "##_2_": 5539,
      "##_iv": 5540,
      "##W1S": 5541,
      "##SnB": 5542,
      "##V2x": 5543,
      "##VzZX": 5544,
      "##V9I": 5545,
      "##Jam": 5546,
      "##JzL0": 5547,
      "##JFIiwiZ": 5548,
      "##ZE": 5549,
      "##ZGV": 5550,
      "##ZYaF": 5551,
      "##er_3": 5552,
      "##rain": 5553,
      "##inter": 5554,
      "##ential": 5555,
      "##stpun": 5556,
      "##amFfS": 5557,
      "##rostpun": 5558,
      "##UxjZ": 5559,
      "##pemF": 5560,
      "##ree_": 5561,
      "##VIiLCJ": 5562,
      "##VIiwi": 5563,
      "##In0sIn": 5564,
      "##InBi": 5565,
      "mount": 5566,
      "##_of_emp": 5567,
      "##_of_rain": 5568,
      "##scyI6eyJ": 5569,
      "##ZWt": 5570,
      "##ZWdlbmR": 5571,
      "##19LCJy": 5572,
      "##19FUy": 5573,
      "##0000": 5574,
      "##_saber": 5575,
      "##_sphere": 5576,
      "##V1hNR": 5577,
      "##dGlu": 5578,
      "##SIsIm": 5579,
      "##SIiwi": 5580,
      "##ZXMi": 5581,
      "##0Y2xp": 5582,
      "##mxlX2xvY2Fs": 5583,
      "##2xvY": 5584,
      "##mFtYmU": 5585,
      "##mFscyI6eyJ": 5586,
      "##arktide": 5587,
      "##VuY2": 5588,
      "##iOiJsb2": 5589,
      "##ml0X": 5590,
      "##ZSBvZ": 5591,
      "##lZMj": 5592,
      "manager": 5593,
      "pythonFiles": 5594,
      "##hbC9SaW90IEdhbWVzL0": 5595,
      "##ZW5fQ": 5596,
      "##lc19FUy": 5597,
      "##uto_v": 5598,
      "##nd_th": 5599,
      "##iLCJhdXRo": 5600,
      "##iLCJrb19": 5601,
      "##iLCJlbl9": 5602,
      "##248": 5603,
      "##TkNuMD": 5604,
      "##5352": 5605,
      "##VlVU": 5606,
      "##VlIy": 5607,
      "##5268": 5608,
      "##eyJhdXRo": 5609,
      "##iOnsicG": 5610,
      "##Z3MiOiJDOi9Qcm9ncmFtRGF0YS9SaW90IEdhbWVzL01ldGFkYXRhL2xlYWd1ZV9vZl9sZWdlbmRzLnBiZS9sZWFndWVfb2ZfbGVnZW5kcy5wYmU": 5611,
      "##Ijp7ImF": 5612,
      "##aXdOQ": 5613,
      "##bGluZV9": 5614,
      "##positor": 5615,
      "##cHZz": 5616,
      "##IiXS": 5617,
      "##BwRGF0YS9": 5618,
      "##WxsY2": 5619,
      "project_w": 5620,
      "##YXR1cy": 5621,
      "##LXRv": 5622,
      "##V0aCI6": 5623,
      "##jbGllbnQiOiJsb2": 5624,
      "##wifX": 5625,
      "##wiZXN": 5626,
      "##wiZGV": 5627,
      "##_program": 5628,
      "##vbGVhZ3VlX29mX2xlZ2VuZHMucG": 5629,
      "##wcC1": 5630,
      "##UTJ": 5631,
      "##aW90Y2xp": 5632,
      "##0lUIiwi": 5633,
      "##WlY5M": 5634,
      "##CI6InBi": 5635,
      "##VUiLCJlbl9": 5636,
      "##M3SV": 5637,
      "##M3ZTRm": 5638,
      "##_4_d": 5639,
      "##_40000": 5640,
      "##zZXNz": 5641,
      "##nJfRl": 5642,
      "##lJNk": 5643,
      "##lJaXdOQ": 5644,
      "##sIml0X": 5645,
      "##b2NhbG": 5646,
      "##fX0": 5647,
      "##WFZYaF": 5648,
      "##aW90Z2FtZXNhc": 5649,
      "##iLCJyb19": 5650,
      "##HRfQlI": 5651,
      "##N0YXR1cy": 5652,
      "wsqm": 5653,
      "##JzbyI6eyJ": 5654,
      "##2lBZ0l": 5655,
      "##ZlMV": 5656,
      "##ERSIsIm": 5657,
      "##STyIsIn": 5658,
      "##UtcGF0": 5659,
      "##IsImxvY2tmaWxl": 5660,
      "##WGx": 5661,
      "##SI6ImV3": 5662,
      "##JlLmxvY2tmaWxl": 5663,
      "##VuX1VTIiwiZXN": 5664,
      "##5qc29uIiwiaGV": 5665,
      "##IjoiQzovUHJvZ3JhbURhdGEvUmlvdCBHYW1lcy9NZXRhZGF0YS9sZWFndWVfb2ZfbGVnZW5kcy5wYmU": 5666,
      "##ZSIsInByb2R1Y3QtaW50ZWdyYXRpb24iOnsiYXBwLXVwZGF0ZS1zdGF0dXMiOiJDOi9Qcm9ncmFtRGF0YS9SaW90IEdhbWVzL01ldGFkYXRhL2xlYWd1ZV9vZl9sZWdlbmRzLnBiZS9sZWFndWVfb2ZfbGVnZW5kcy5wYmU": 5667,
      "eyJjbGllbnQtY29uZmlnIjp7InVybCI6Imh0dHBzOi8vY2xpZW50Y29uZmlnLnJwZy5yaW90Z2FtZXMuY29tIn0sImRlZmF1bHRfcmVnaW9uIjoiUE": 5668,
      "##ucHJvZHVjdF9zZXR0aW5ncy55YW1sIn0sInByb2R1Y3RfaWQiOiJsZWFndWVfb2ZfbGVnZW5kcyIsInB1Ymxpc2hlciI6InJpb3QiLCJyZWdpb25fZGF0YSI6eyJQQk": 5669,
      "##NzaW9u": 5670,
      "##_td_": 5671,
      "##doms": 5672,
      "##MDlJaXdOQ": 5673,
      "##_warhammer": 5674,
      "##_ii_b": 5675,
      "##ZhaWx": 5676,
      "##lAiLCJrb19": 5677,
      "##T2J1": 5678,
      "##ead_2": 5679,
      "##s_ci": 5680,
      "##abWxsY2": 5681,
      "##iers_ci": 5682,
      "##hcnR": 5683,
      "##0ifX0": 5684,
      "##witcher_3": 5685,
      "##battlefront": 5686,
      "##lade_ii_b": 5687,
      "##total_war": 5688,
      "##_flat": 5689,
      "##_darktide": 5690,
      "##b3JpemF": 5691,
      "##eft_a": 5692,
      "##_and_b": 5693,
      "the_witcher_3": 5694,
      "sid_me": 5695,
      "##tleSI6ImV3": 5696,
      "##_mod": 5697,
      "##VFM3SV": 5698,
      "##VzNsW": 5699,
      "##VzX01Y": 5700,
      "##IyUmx": 5701,
      "##VsdF9s": 5702,
      "##VsX0d": 5703,
      "warhammer_ver": 5704,
      "warhammer_40000": 5705,
      "##aCI6IkM": 5706,
      "##fQVIiLCJ": 5707,
      "##BMIiwic": 5708,
      "##IsImVuX1VTIiwiZXN": 5709,
      "##IsImVzX01Y": 5710,
      "##NobGluZV9": 5711,
      "##_three_": 5712,
      "##yIsInJzbyI6eyJ": 5713,
      "##J1X1J": 5714,
      "total_war_warhammer": 5715,
      "total_war_three_": 5716,
      "##Iiwic2V0": 5717,
      "##aW9uLWlkIjoi": 5718,
      "##IiwiZnJfRl": 5719,
      "##LUiIsInB": 5720,
      "##d0VzNsW": 5721,
      "##FIQ": 5722,
      "##FBCR": 5723,
      "##MEtJQ0F": 5724,
      "##_fall_flat": 5725,
      "star_wars_battlefront": 5726,
      "beat_saber": 5727,
      "##VSIsIml0X": 5728,
      "##GkiOnsicG": 5729,
      "##Y3NfQ1": 5730,
      "##Vjd0VzNsW": 5731,
      "##ZW50Ijp7ImF": 5732,
      "##SJ9LCJyc29": 5733,
      "##odV9I": 5734,
      "Taskmgr": 5735,
      "##ires_iv": 5736,
      "##mintide_2": 5737,
      "##vilization_vi": 5738,
      "##hYmxlX2xvY2Fs": 5739,
      "##Repositor": 5740,
      "##dHJfVF": 5741,
      "##Vyc2lzdG": 5742,
      "##lrWlY5M": 5743,
      "##zIFBCR": 5744,
      "age_of_emp": 5745,
      "among_us": 5746,
      "bloons_td_": 5747,
      "credential": 5748,
      "cities_sk": 5749,
      "dyson_sphere": 5750,
      "grand_th": 5751,
      "garrys_mod": 5752,
      "human_fall_flat": 5753,
      "left_4_d": 5754,
      "planet_z": 5755,
      "rome_2_": 5756,
      "risk_of_rain": 5757,
      "vfs": 5758,
      "vmplayer": 5759,
      "##a2VuIjoi": 5760,
      "##kingdoms": 5761,
      "##kZV9ERSIsIm": 5762,
      "##oiLCJkZV9ERSIsIm": 5763,
      "##uanNvbi": 5764,
      "##udXBkYXRlLX": 5765,
      "##nVuT2J1": 5766,
      "##nSUNKam": 5767,
      "##DbGllbnQvRGF0YS9": 5768,
      "##DQWlZMj": 5769,
      "##wb3J0Ijoi": 5770,
      "##lbl9VUyIsInJzbyI6eyJ": 5771,
      "##lpYSnB": 5772,
      "##fYXV0aCI6": 5773,
      "##0IjoiQzovVXNlcnMvSGFyYW1iZS9BcHBEYXRhL0xvY2FsL1Jpb3QgR2FtZXMvUmlvdCB": 5774,
      "##0aW9uLWtleSI6ImV3": 5775,
      "##BhdGNobGluZV9": 5776,
      "##HQiIsImVuX1VTIiwiZXN": 5777,
      "##Q2RnVuT2J1": 5778,
      "##Mb2NhbC9SaW90IEdhbWVzL0": 5779,
      "##UiOiJlbl9VUyIsInJzbyI6eyJ": 5780,
      "##UiOnsiYXZhaWx": 5781,
      "##IiLCJodV9I": 5782,
      "##9nSW1S": 5783,
      "##3ZzVjd0VzNsW": 5784,
      "##6L1VzZX": 5785,
      "##5oZWFydGJlYXQuanNvbi": 5786,
      "##sX1BMIiwic": 5787,
      "##hhcmFtYmU": 5788,
      "##pZCI6InBi": 5789,
      "##xlYWd1ZSBvZ": 5790,
      "##mYXVsdF9s": 5791,
      "##iZWF0IjoiQzovVXNlcnMvSGFyYW1iZS9BcHBEYXRhL0xvY2FsL1Jpb3QgR2FtZXMvUmlvdCB": 5792,
      "##iBMZWdlbmR": 5793,
      "##vQXBwRGF0YS9": 5794,
      "##TZXNzaW9u": 5795,
      "##OlsiY3NfQ1": 5796,
      "##Jam9nSW1S": 5797,
      "##JzL0hhcmFtYmU": 5798,
      "##JFIiwiZ2xvY": 5799,
      "##amFfSlAiLCJrb19": 5800,
      "##rostpunk": 5801,
      "##VIiwidHJfVF": 5802,
      "##In0sInBhdGNobGluZV9": 5803,
      "mount_and_b": 5804,
      "##19LCJyaW90Y2xp": 5805,
      "##V1hNR3ZzVjd0VzNsW": 5806,
      "##dGluZ3MiOiJDOi9Qcm9ncmFtRGF0YS9SaW90IEdhbWVzL01ldGFkYXRhL2xlYWd1ZV9vZl9sZWdlbmRzLnBiZS9sZWFndWVfb2ZfbGVnZW5kcy5wYmU": 5807,
      "##SIiwiZW5fQ": 5808,
      "##ZXMiOlsiY3NfQ1": 5809,
      "##mFscyI6eyJzZXNz": 5810,
      "##VuY2UtcGF0": 5811,
      "##lc19FUyIsImVzX01Y": 5812,
      "##iLCJhdXRoLXRv": 5813,
      "##TkNuMD0ifX0": 5814,
      "##VlVUMDlJaXdOQ": 5815,
      "##VlIycHZz": 5816,
      "##eyJhdXRob3JpemF": 5817,
      "##IiXSwiZGV": 5818,
      "project_winter": 5819,
      "##jbGllbnQiOiJsb2wifX": 5820,
      "##vbGVhZ3VlX29mX2xlZ2VuZHMucGJlLmxvY2tmaWxl": 5821,
      "##wcC1wb3J0Ijoi": 5822,
      "##0lUIiwiamFfSlAiLCJrb19": 5823,
      "##VUiLCJlbl9HQiIsImVuX1VTIiwiZXN": 5824,
      "##M3ZTRmZlMV": 5825,
      "##lJNklDS": 5826,
      "##b2NhbGUiOiJlbl9VUyIsInJzbyI6eyJ": 5827,
      "##aW90Z2FtZXNhcGkiOnsicG": 5828,
      "##iLCJyb19STyIsIn": 5829,
      "##HRfQlIiLCJyb19STyIsIn": 5830,
      "##N0YXR1cy5qc29uIiwiaGV": 5831,
      "wsqmcons": 5832,
      "##2lBZ0lDQWlZMj": 5833,
      "##IsImxvY2tmaWxlIjoiQzovUHJvZ3JhbURhdGEvUmlvdCBHYW1lcy9NZXRhZGF0YS9sZWFndWVfb2ZfbGVnZW5kcy5wYmU": 5834,
      "##ZSIsInByb2R1Y3QtaW50ZWdyYXRpb24iOnsiYXBwLXVwZGF0ZS1zdGF0dXMiOiJDOi9Qcm9ncmFtRGF0YS9SaW90IEdhbWVzL01ldGFkYXRhL2xlYWd1ZV9vZl9sZWdlbmRzLnBiZS9sZWFndWVfb2ZfbGVnZW5kcy5wYmUudXBkYXRlLX": 5835,
      "eyJjbGllbnQtY29uZmlnIjp7InVybCI6Imh0dHBzOi8vY2xpZW50Y29uZmlnLnJwZy5yaW90Z2FtZXMuY29tIn0sImRlZmF1bHRfcmVnaW9uIjoiUEJFIiwiZ2xvY": 5836,
      "##ucHJvZHVjdF9zZXR0aW5ncy55YW1sIn0sInByb2R1Y3RfaWQiOiJsZWFndWVfb2ZfbGVnZW5kcyIsInB1Ymxpc2hlciI6InJpb3QiLCJyZWdpb25fZGF0YSI6eyJQQkUiOnsiYXZhaWx": 5837,
      "##abWxsY2lJNklDS": 5838,
      "##iers_civilization_vi": 5839,
      "##hcnRiZWF0IjoiQzovVXNlcnMvSGFyYW1iZS9BcHBEYXRhL0xvY2FsL1Jpb3QgR2FtZXMvUmlvdCB": 5840,
      "##lade_ii_bannerlord": 5841,
      "##eft_auto_v": 5842,
      "sid_meiers_civilization_vi": 5843,
      "##VFM3SVFIQ": 5844,
      "##IyUmxJam9nSW1S": 5845,
      "##VsX0dSIiwiZW5fQ": 5846,
      "warhammer_vermintide_2": 5847,
      "warhammer_40000_darktide": 5848,
      "##aCI6IkM6L1VzZX": 5849,
      "##fQVIiLCJlc19FUyIsImVzX01Y": 5850,
      "##J1X1JVIiwidHJfVF": 5851,
      "total_war_warhammer_ii": 5852,
      "total_war_three_kingdoms": 5853,
      "##Iiwic2V0dGluZ3MiOiJDOi9Qcm9ncmFtRGF0YS9SaW90IEdhbWVzL01ldGFkYXRhL2xlYWd1ZV9vZl9sZWdlbmRzLnBiZS9sZWFndWVfb2ZfbGVnZW5kcy5wYmU": 5854,
      "##IiwiZnJfRlIiLCJodV9I": 5855,
      "##LUiIsInBsX1BMIiwic": 5856,
      "##MEtJQ0FnSUNKam": 5857,
      "star_wars_battlefront_ii": 5858,
      "##VSIsIml0X0lUIiwiamFfSlAiLCJrb19": 5859,
      "##ZW50Ijp7ImFwcC1wb3J0Ijoi": 5860,
      "##SJ9LCJyc29fYXV0aCI6": 5861,
      "##hYmxlX2xvY2FsZXMiOlsiY3NfQ1": 5862,
      "##Repository": 5863,
      "##Vyc2lzdGVuY2UtcGF0": 5864,
      "##lrWlY5MlpYSnB": 5865,
      "##zIFBCRSJ9LCJyc29fYXV0aCI6": 5866,
      "age_of_empires_iv": 5867,
      "bloons_td_6": 5868,
      "cities_skylines": 5869,
      "dyson_sphere_program": 5870,
      "grand_theft_auto_v": 5871,
      "left_4_dead_2": 5872,
      "planet_zoo": 5873,
      "rome_2_total_war": 5874,
      "risk_of_rain_2": 5875,
      "##oiLCJkZV9ERSIsImVsX0dSIiwiZW5fQ": 5876,
      "##DbGllbnQvRGF0YS9TZXNzaW9u": 5877,
      "##0aW9uLWtleSI6ImV3MEtJQ0FnSUNKam": 5878,
      "##Q2RnVuT2J1VFM3SVFIQ": 5879,
      "##Mb2NhbC9SaW90IEdhbWVzL0xlYWd1ZSBvZ": 5880,
      "##5oZWFydGJlYXQuanNvbiIsImxvY2tmaWxlIjoiQzovUHJvZ3JhbURhdGEvUmlvdCBHYW1lcy9NZXRhZGF0YS9sZWFndWVfb2ZfbGVnZW5kcy5wYmU": 5881,
      "##pZCI6InBiZSIsInByb2R1Y3QtaW50ZWdyYXRpb24iOnsiYXBwLXVwZGF0ZS1zdGF0dXMiOiJDOi9Qcm9ncmFtRGF0YS9SaW90IEdhbWVzL01ldGFkYXRhL2xlYWd1ZV9vZl9sZWdlbmRzLnBiZS9sZWFndWVfb2ZfbGVnZW5kcy5wYmUudXBkYXRlLX": 5882,
      "##mYXVsdF9sb2NhbGUiOiJlbl9VUyIsInJzbyI6eyJ": 5883,
      "##iBMZWdlbmRzIFBCRSJ9LCJyc29fYXV0aCI6": 5884,
      "##vQXBwRGF0YS9Mb2NhbC9SaW90IEdhbWVzL0xlYWd1ZSBvZ": 5885,
      "##JzL0hhcmFtYmUvQXBwRGF0YS9Mb2NhbC9SaW90IEdhbWVzL0xlYWd1ZSBvZ": 5886,
      "##In0sInBhdGNobGluZV9pZCI6InBiZSIsInByb2R1Y3QtaW50ZWdyYXRpb24iOnsiYXBwLXVwZGF0ZS1zdGF0dXMiOiJDOi9Qcm9ncmFtRGF0YS9SaW90IEdhbWVzL01ldGFkYXRhL2xlYWd1ZV9vZl9sZWdlbmRzLnBiZS9sZWFndWVfb2ZfbGVnZW5kcy5wYmUudXBkYXRlLX": 5887,
      "mount_and_blade_ii_bannerlord": 5888,
      "##19LCJyaW90Y2xpZW50Ijp7ImFwcC1wb3J0Ijoi": 5889,
      "##V1hNR3ZzVjd0VzNsWUxjZ": 5890,
      "##mFscyI6eyJzZXNzaW9uLWlkIjoi": 5891,
      "##iLCJhdXRoLXRva2VuIjoi": 5892,
      "##VlVUMDlJaXdOQ2lBZ0lDQWlZMj": 5893,
      "##VlIycHZzV1hNR3ZzVjd0VzNsWUxjZ": 5894,
      "##eyJhdXRob3JpemF0aW9uLWtleSI6ImV3MEtJQ0FnSUNKam": 5895,
      "##IiXSwiZGVmYXVsdF9sb2NhbGUiOiJlbl9VUyIsInJzbyI6eyJ": 5896,
      "##jbGllbnQiOiJsb2wifX19LCJyaW90Y2xpZW50Ijp7ImFwcC1wb3J0Ijoi": 5897,
      "##vbGVhZ3VlX29mX2xlZ2VuZHMucGJlLmxvY2tmaWxlIiwic2V0dGluZ3MiOiJDOi9Qcm9ncmFtRGF0YS9SaW90IEdhbWVzL01ldGFkYXRhL2xlYWd1ZV9vZl9sZWdlbmRzLnBiZS9sZWFndWVfb2ZfbGVnZW5kcy5wYmU": 5898,
      "##VUiLCJlbl9HQiIsImVuX1VTIiwiZXNfQVIiLCJlc19FUyIsImVzX01Y": 5899,
      "##M3ZTRmZlMVQ2RnVuT2J1VFM3SVFIQ": 5900,
      "##aW90Z2FtZXNhcGkiOnsicGVyc2lzdGVuY2UtcGF0": 5901,
      "##HRfQlIiLCJyb19STyIsInJ1X1JVIiwidHJfVF": 5902,
      "##N0YXR1cy5qc29uIiwiaGVhcnRiZWF0IjoiQzovVXNlcnMvSGFyYW1iZS9BcHBEYXRhL0xvY2FsL1Jpb3QgR2FtZXMvUmlvdCB": 5903,
      "eyJjbGllbnQtY29uZmlnIjp7InVybCI6Imh0dHBzOi8vY2xpZW50Y29uZmlnLnJwZy5yaW90Z2FtZXMuY29tIn0sImRlZmF1bHRfcmVnaW9uIjoiUEJFIiwiZ2xvYmFscyI6eyJzZXNzaW9uLWlkIjoi": 5904,
      "##ucHJvZHVjdF9zZXR0aW5ncy55YW1sIn0sInByb2R1Y3RfaWQiOiJsZWFndWVfb2ZfbGVnZW5kcyIsInB1Ymxpc2hlciI6InJpb3QiLCJyZWdpb25fZGF0YSI6eyJQQkUiOnsiYXZhaWxhYmxlX2xvY2FsZXMiOlsiY3NfQ1": 5905,
      "##IyUmxJam9nSW1SWFZYaF": 5906,
      "##aCI6IkM6L1VzZXJzL0hhcmFtYmUvQXBwRGF0YS9Mb2NhbC9SaW90IEdhbWVzL0xlYWd1ZSBvZ": 5907,
      "##IiwiZnJfRlIiLCJodV9IVSIsIml0X0lUIiwiamFfSlAiLCJrb19": 5908,
      "##LUiIsInBsX1BMIiwicHRfQlIiLCJyb19STyIsInJ1X1JVIiwidHJfVF": 5909,
      "##lrWlY5MlpYSnBabWxsY2lJNklDS": 5910,
      "##oiLCJkZV9ERSIsImVsX0dSIiwiZW5fQVUiLCJlbl9HQiIsImVuX1VTIiwiZXNfQVIiLCJlc19FUyIsImVzX01Y": 5911,
      "##5oZWFydGJlYXQuanNvbiIsImxvY2tmaWxlIjoiQzovUHJvZ3JhbURhdGEvUmlvdCBHYW1lcy9NZXRhZGF0YS9sZWFndWVfb2ZfbGVnZW5kcy5wYmUvbGVhZ3VlX29mX2xlZ2VuZHMucGJlLmxvY2tmaWxlIiwic2V0dGluZ3MiOiJDOi9Qcm9ncmFtRGF0YS9SaW90IEdhbWVzL01ldGFkYXRhL2xlYWd1ZV9vZl9sZWdlbmRzLnBiZS9sZWFndWVfb2ZfbGVnZW5kcy5wYmU": 5912,
      "##iBMZWdlbmRzIFBCRSJ9LCJyc29fYXV0aCI6eyJhdXRob3JpemF0aW9uLWtleSI6ImV3MEtJQ0FnSUNKam": 5913,
      "##In0sInBhdGNobGluZV9pZCI6InBiZSIsInByb2R1Y3QtaW50ZWdyYXRpb24iOnsiYXBwLXVwZGF0ZS1zdGF0dXMiOiJDOi9Qcm9ncmFtRGF0YS9SaW90IEdhbWVzL01ldGFkYXRhL2xlYWd1ZV9vZl9sZWdlbmRzLnBiZS9sZWFndWVfb2ZfbGVnZW5kcy5wYmUudXBkYXRlLXN0YXR1cy5qc29uIiwiaGVhcnRiZWF0IjoiQzovVXNlcnMvSGFyYW1iZS9BcHBEYXRhL0xvY2FsL1Jpb3QgR2FtZXMvUmlvdCB": 5914,
      "##VlVUMDlJaXdOQ2lBZ0lDQWlZMjlrWlY5MlpYSnBabWxsY2lJNklDS": 5915,
      "##IiXSwiZGVmYXVsdF9sb2NhbGUiOiJlbl9VUyIsInJzbyI6eyJjbGllbnQiOiJsb2wifX19LCJyaW90Y2xpZW50Ijp7ImFwcC1wb3J0Ijoi": 5916,
      "##aW90Z2FtZXNhcGkiOnsicGVyc2lzdGVuY2UtcGF0aCI6IkM6L1VzZXJzL0hhcmFtYmUvQXBwRGF0YS9Mb2NhbC9SaW90IEdhbWVzL0xlYWd1ZSBvZ": 5917,
      "##ucHJvZHVjdF9zZXR0aW5ncy55YW1sIn0sInByb2R1Y3RfaWQiOiJsZWFndWVfb2ZfbGVnZW5kcyIsInB1Ymxpc2hlciI6InJpb3QiLCJyZWdpb25fZGF0YSI6eyJQQkUiOnsiYXZhaWxhYmxlX2xvY2FsZXMiOlsiY3NfQ1oiLCJkZV9ERSIsImVsX0dSIiwiZW5fQVUiLCJlbl9HQiIsImVuX1VTIiwiZXNfQVIiLCJlc19FUyIsImVzX01Y": 5918,
      "##IiwiZnJfRlIiLCJodV9IVSIsIml0X0lUIiwiamFfSlAiLCJrb19LUiIsInBsX1BMIiwicHRfQlIiLCJyb19STyIsInJ1X1JVIiwidHJfVF": 5919,
      "##5oZWFydGJlYXQuanNvbiIsImxvY2tmaWxlIjoiQzovUHJvZ3JhbURhdGEvUmlvdCBHYW1lcy9NZXRhZGF0YS9sZWFndWVfb2ZfbGVnZW5kcy5wYmUvbGVhZ3VlX29mX2xlZ2VuZHMucGJlLmxvY2tmaWxlIiwic2V0dGluZ3MiOiJDOi9Qcm9ncmFtRGF0YS9SaW90IEdhbWVzL01ldGFkYXRhL2xlYWd1ZV9vZl9sZWdlbmRzLnBiZS9sZWFndWVfb2ZfbGVnZW5kcy5wYmUucHJvZHVjdF9zZXR0aW5ncy55YW1sIn0sInByb2R1Y3RfaWQiOiJsZWFndWVfb2ZfbGVnZW5kcyIsInB1Ymxpc2hlciI6InJpb3QiLCJyZWdpb25fZGF0YSI6eyJQQkUiOnsiYXZhaWxhYmxlX2xvY2FsZXMiOlsiY3NfQ1oiLCJkZV9ERSIsImVsX0dSIiwiZW5fQVUiLCJlbl9HQiIsImVuX1VTIiwiZXNfQVIiLCJlc19FUyIsImVzX01Y": 5920,
      "##iBMZWdlbmRzIFBCRSJ9LCJyc29fYXV0aCI6eyJhdXRob3JpemF0aW9uLWtleSI6ImV3MEtJQ0FnSUNKamIyUmxJam9nSW1SWFZYaF": 5921,
      "##In0sInBhdGNobGluZV9pZCI6InBiZSIsInByb2R1Y3QtaW50ZWdyYXRpb24iOnsiYXBwLXVwZGF0ZS1zdGF0dXMiOiJDOi9Qcm9ncmFtRGF0YS9SaW90IEdhbWVzL01ldGFkYXRhL2xlYWd1ZV9vZl9sZWdlbmRzLnBiZS9sZWFndWVfb2ZfbGVnZW5kcy5wYmUudXBkYXRlLXN0YXR1cy5qc29uIiwiaGVhcnRiZWF0IjoiQzovVXNlcnMvSGFyYW1iZS9BcHBEYXRhL0xvY2FsL1Jpb3QgR2FtZXMvUmlvdCBDbGllbnQvRGF0YS9TZXNzaW9u": 5922,
      "##IiXSwiZGVmYXVsdF9sb2NhbGUiOiJlbl9VUyIsInJzbyI6eyJjbGllbnQiOiJsb2wifX19LCJyaW90Y2xpZW50Ijp7ImFwcC1wb3J0IjoiN": 5923,
      "##aW90Z2FtZXNhcGkiOnsicGVyc2lzdGVuY2UtcGF0aCI6IkM6L1VzZXJzL0hhcmFtYmUvQXBwRGF0YS9Mb2NhbC9SaW90IEdhbWVzL0xlYWd1ZSBvZiBMZWdlbmRzIFBCRSJ9LCJyc29fYXV0aCI6eyJhdXRob3JpemF0aW9uLWtleSI6ImV3MEtJQ0FnSUNKamIyUmxJam9nSW1SWFZYaF": 5924,
      "##IiwiZnJfRlIiLCJodV9IVSIsIml0X0lUIiwiamFfSlAiLCJrb19LUiIsInBsX1BMIiwicHRfQlIiLCJyb19STyIsInJ1X1JVIiwidHJfVFIiXSwiZGVmYXVsdF9sb2NhbGUiOiJlbl9VUyIsInJzbyI6eyJjbGllbnQiOiJsb2wifX19LCJyaW90Y2xpZW50Ijp7ImFwcC1wb3J0IjoiN": 5925,
      "##5oZWFydGJlYXQuanNvbiIsImxvY2tmaWxlIjoiQzovUHJvZ3JhbURhdGEvUmlvdCBHYW1lcy9NZXRhZGF0YS9sZWFndWVfb2ZfbGVnZW5kcy5wYmUvbGVhZ3VlX29mX2xlZ2VuZHMucGJlLmxvY2tmaWxlIiwic2V0dGluZ3MiOiJDOi9Qcm9ncmFtRGF0YS9SaW90IEdhbWVzL01ldGFkYXRhL2xlYWd1ZV9vZl9sZWdlbmRzLnBiZS9sZWFndWVfb2ZfbGVnZW5kcy5wYmUucHJvZHVjdF9zZXR0aW5ncy55YW1sIn0sInByb2R1Y3RfaWQiOiJsZWFndWVfb2ZfbGVnZW5kcyIsInB1Ymxpc2hlciI6InJpb3QiLCJyZWdpb25fZGF0YSI6eyJQQkUiOnsiYXZhaWxhYmxlX2xvY2FsZXMiOlsiY3NfQ1oiLCJkZV9ERSIsImVsX0dSIiwiZW5fQVUiLCJlbl9HQiIsImVuX1VTIiwiZXNfQVIiLCJlc19FUyIsImVzX01YIiwiZnJfRlIiLCJodV9IVSIsIml0X0lUIiwiamFfSlAiLCJrb19LUiIsInBsX1BMIiwicHRfQlIiLCJyb19STyIsInJ1X1JVIiwidHJfVFIiXSwiZGVmYXVsdF9sb2NhbGUiOiJlbl9VUyIsInJzbyI6eyJjbGllbnQiOiJsb2wifX19LCJyaW90Y2xpZW50Ijp7ImFwcC1wb3J0IjoiN": 5926,
      "AU": 5927,
      "Cal": 5928,
      "Vide": 5929,
      "Waa": 5930,
      "ec": 5931,
      "vide": 5932,
      "##279": 5933,
      "##cu": 5934,
      "##DN": 5935,
      "##4_": 5936,
      "##Med": 5937,
      "##YMk": 5938,
      "##94677": 5939,
      "##b3": 5940,
      "##pack": 5941,
      "##pture": 5942,
      "##mi": 5943,
      "##Occ": 5944,
      "##SMed": 5945,
      "##capture": 5946,
      "20_exception": 5947,
      "##DIOD": 5948,
      "119": 5949,
      "175352": 5950,
      "##load": 5951,
      "##12_LeagueClientUx": 5952,
      "1952": 5953,
      "32_exception": 5954,
      "100232": 5955,
      "100228": 5956,
      "unpack": 5957,
      "57_exception": 5958,
      "##621494677": 5959,
      "##1715": 5960,
      "49_exception": 5961,
      "##lateNative": 5962,
      "1684964791715": 5963,
      "29_exception": 5964,
      "1002286": 5965,
      "1002283": 5966,
      "1002287": 5967,
      "1002280": 5968,
      "1002275": 5969,
      "1002270": 5970,
      "1002269": 5971,
      "1002273": 5972,
      "37_exception": 5973,
      "40_exception": 5974,
      "33_exception": 5975,
      "09_exception": 5976,
      "53_exception": 5977,
      "56_exception": 5978,
      "03_exception": 5979,
      "27_exception": 5980,
      "0x708": 5981,
      "0x7e4": 5982,
      "1002319": 5983,
      "1002300": 5984,
      "1002304": 5985,
      "1002303": 5986,
      "02_exception": 5987,
      "##lusion": 5988,
      "##1475268": 5989,
      "##o_capture": 5990,
      "##WinOcc": 5991,
      "##178482": 5992,
      "##oCaptureService": 5993,
      "##cripts": 5994,
      "##30386": 5995,
      "4281475268": 5996,
      "AUDIOD": 5997,
      "Calcu": 5998,
      "VideoCaptureService": 5999,
      "WaaSMed": 6000,
      "video_capture": 6001,
      "175352621494677": 6002,
      "##lateNativeWinOcc": 6003,
      "##178482460": 6004,
      "4281475268178482460": 6005,
      "AUDIODG": 6006,
      "CalculateNativeWinOcc": 6007,
      "WaaSMedic": 6008,
      "17535262149467730386": 6009,
      "CalculateNativeWinOcclusion": 6010,
      "000": 6011,
      "4B": 6012,
      "B7": 6013,
      "DC": 6014,
      "Ep": 6015,
      "Featur": 6016,
      "Launch": 6017,
      "Setup": 6018,
      "ba": 6019,
      "bin": 6020,
      "background": 6021,
      "bus": 6022,
      "dra": 6023,
      "fan": 6024,
      "fla": 6025,
      "gr": 6026,
      "##a86": 6027,
      "##age": 6028,
      "##a87": 6029,
      "##d64_": 6030,
      "##fa": 6031,
      "##Agent": 6032,
      "##CA": 6033,
      "##Event": 6034,
      "##8F": 6035,
      "##e34": 6036,
      "##spi": 6037,
      "##xy": 6038,
      "##X64": 6039,
      "##_di": 6040,
      "##_version": 6041,
      "##_060": 6042,
      "##zel": 6043,
      "##amd64_": 6044,
      "##act": 6045,
      "20248": 6046,
      "ProgramFiles": 6047,
      "##its": 6048,
      "169": 6049,
      "##units": 6050,
      "155": 6051,
      "nounits": 6052,
      "##f_amd64_": 6053,
      "##Common": 6054,
      "WindowsApp": 6055,
      "proxy": 6056,
      "prefix": 6057,
      "##vice_id": 6058,
      "##eSet": 6059,
      "##4688": 6060,
      "FileRepository": 6061,
      "sub_de": 6062,
      "inf_amd64_": 6063,
      "setupact": 6064,
      "##60c23": 6065,
      "total": 6066,
      "used": 6067,
      "##b660c23": 6068,
      "driver_version": 6069,
      "updates": 6070,
      "WinEvent": 6071,
      "23050": 6072,
      "##UVG": 6073,
      "##42023": 6074,
      "nv_di": 6075,
      "##NativeMessaging": 6076,
      "##icGames": 6077,
      "WCChromeNativeMessaging": 6078,
      "free": 6079,
      "16327": 6080,
      "speed": 6081,
      "bundled": 6082,
      "echo": 6083,
      "unpacked": 6084,
      "WaaSMedicAgent": 6085,
      "EpicGames": 6086,
      "FeatureSet": 6087,
      "LaunchTM": 6088,
      "bazel": 6089,
      "bus_id": 6090,
      "draw": 6091,
      "##a86b660c23": 6092,
      "##a87a86b660c23": 6093,
      "##e34a87a86b660c23": 6094,
      "##_06042023": 6095,
      "ProgramFilesCommon": 6096,
      "WindowsApps": 6097,
      "##4688_06042023": 6098,
      "sub_device_id": 6099,
      "inf_amd64_e34a87a86b660c23": 6100,
      "WinEvent4688_06042023": 6101,
      "nv_dispi": 6102,
      "WCChromeNativeMessagingHost": 6103,
      "ProgramFilesCommonX64": 6104,
      "22": 6105,
      "375": 6106,
      "52": 6107,
      "Reg": 6108,
      "##ay": 6109,
      "##B4": 6110,
      "##4A": 6111,
      "##Gro": 6112,
      "##GAAAAAAAAAA": 6113,
      "##sm": 6114,
      "##hub": 6115,
      "##OM": 6116,
      "##Rj": 6117,
      "##ity": 6118,
      "##ad8": 6119,
      "##008": 6120,
      "##492": 6121,
      "databas": 6122,
      "##gAAAAAAAAACAAAAAAAAAA": 6123,
      "##AAAAAAAAAAAAAAAAAABgAAAAAAA": 6124,
      "##Group": 6125,
      "databases": 6126,
      "528": 6127,
      "930": 6128,
      "A8F": 6129,
      "Media": 6130,
      "War": 6131,
      "frostpunk": 6132,
      "ming": 6133,
      "##2B4": 6134,
      "##w64": 6135,
      "##len": 6136,
      "##0y": 6137,
      "##A8D": 6138,
      "##HB": 6139,
      "##99": 6140,
      "##890": 6141,
      "##840": 6142,
      "##edi": 6143,
      "##tlen": 6144,
      "##500": 6145,
      "##_ser": 6146,
      "##z48": 6147,
      "##SF": 6148,
      "##SP": 6149,
      "##entity": 6150,
      "##stri": 6151,
      "WORKSP": 6152,
      "LocalService": 6153,
      "##rement": 6154,
      "fir": 6155,
      "rev": 6156,
      "##bution": 6157,
      "Dism": 6158,
      "##lock": 6159,
      "identity": 6160,
      "##actory": 6161,
      "##424": 6162,
      "##425": 6163,
      "requirement": 6164,
      "SoftwareDi": 6165,
      "##ACE": 6166,
      "##atisf": 6167,
      "upfc": 6168,
      "09CA": 6169,
      "##12004": 6170,
      "##079A8D": 6171,
      "##s_lock": 6172,
      "##59079A8D": 6173,
      "AB890": 6174,
      "##SessionService": 6175,
      "Battlen": 6176,
      "4BB6": 6177,
      "B78D": 6178,
      "flags": 6179,
      "A8F59079A8D": 6180,
      "MediaSessionService": 6181,
      "mingw64": 6182,
      "##_service": 6183,
      "##stribution": 6184,
      "WORKSPACE": 6185,
      "DismHost": 6186,
      "identity_helper": 6187,
      "requirements_lock": 6188,
      "SoftwareDistribution": 6189,
      "##atisfactory": 6190,
      "AB8902B4": 6191,
      "Battlenet": 6192,
      "A8F59079A8D5": 6193,
      "955": 6194,
      "ROU": 6195,
      "Scripts": 6196,
      "tun": 6197,
      "##ket": 6198,
      "##orage": 6199,
      "##l_g": 6200,
      "##f4": 6201,
      "##02": 6202,
      "##Qy": 6203,
      "##6F": 6204,
      "##6B6": 6205,
      "##e7": 6206,
      "##iIG": 6207,
      "##ify": 6208,
      "##Tran": 6209,
      "##erHost": 6210,
      "##ffer": 6211,
      "1612": 6212,
      "2376": 6213,
      "##648": 6214,
      "##740": 6215,
      "fall_g": 6216,
      "39840": 6217,
      "##AAAAAAAAADgAAA": 6218,
      "storage": 6219,
      "BackgroundTran": 6220,
      "13688": 6221,
      "verify": 6222,
      "##9IjE": 6223,
      "4675": 6224,
      "##sferHost": 6225,
      "##rageService": 6226,
      "StorageService": 6227,
      "package": 6228,
      "11988": 6229,
      "ROUTE": 6230,
      "tunnel": 6231,
      "fall_guys": 6232,
      "BackgroundTransferHost": 6233,
      "127": 6234,
      "2160": 6235,
      "3644": 6236,
      "4492": 6237,
      "97": 6238,
      "953": 6239,
      "Browser": 6240,
      "En": 6241,
      "Net": 6242,
      "OF": 6243,
      "Sk": 6244,
      "iext": 6245,
      "ow": 6246,
      "window": 6247,
      "work": 6248,
      "##cb": 6249,
      "##ob": 6250,
      "##0A": 6251,
      "##C4": 6252,
      "##C3": 6253,
      "##HA": 6254,
      "##Qj": 6255,
      "##Me": 6256,
      "##GU": 6257,
      "##Y3": 6258,
      "##85": 6259,
      "##ben": 6260,
      "##Frame": 6261,
      "##Token": 6262,
      "##Lz48": 6263,
      "##SK": 6264,
      "##Port": 6265,
      "##VTF": 6266,
      "Locale": 6267,
      "1616": 6268,
      "##ableCrash": 6269,
      "11508": 6270,
      "##buffer": 6271,
      "RiotClientAuth": 6272,
      "RiotClientPort": 6273,
      "##16_LeagueClientUx": 6274,
      "2172": 6275,
      "##ocket": 6276,
      "3032": 6277,
      "3064": 6278,
      "3052": 6279,
      "##944": 6280,
      "Download": 6281,
      "##_store": 6282,
      "##001F6": 6283,
      "2464": 6284,
      "2456": 6285,
      "2440": 6286,
      "##DX11": 6287,
      "asset": 6288,
      "##CE16": 6289,
      "UseMe": 6290,
      "UseDX11": 6291,
      "##ipBuild": 6292,
      "parse": 6293,
      "PlatformID": 6294,
      "2444": 6295,
      "##FICE16": 6296,
      "UseNewX3DFrame": 6297,
      "GraphicsPerfSvcGroup": 6298,
      "2156": 6299,
      "000001F6": 6300,
      "Region": 6301,
      "52858": 6302,
      "EnableCrash": 6303,
      "OFFICE16": 6304,
      "SkipBuild": 6305,
      "workben": 6306,
      "##buffers": 6307,
      "RiotClientAuthToken": 6308,
      "asset_store": 6309,
      "UseMetal": 6310,
      "UseNewX3DFramebuffers": 6311,
      "EnableCrashpad": 6312,
      "workbench": 6313,
      "4F": 6314,
      "5507": 6315,
      "74": 6316,
      "76": 6317,
      "B5": 6318,
      "Doc": 6319,
      "EF": 6320,
      "Fall": 6321,
      "Key": 6322,
      "and": 6323,
      "ip": 6324,
      "li": 6325,
      "shell": 6326,
      "##268": 6327,
      "##ound": 6328,
      "##ument": 6329,
      "##D075": 6330,
      "##lB": 6331,
      "##016": 6332,
      "##AEE": 6333,
      "##B0A": 6334,
      "##Qv": 6335,
      "##UL": 6336,
      "##9D": 6337,
      "##5EE": 6338,
      "##hak": 6339,
      "##F4A": 6340,
      "##Found": 6341,
      "##_36": 6342,
      "##Live": 6343,
      "##Po": 6344,
      "##stone": 6345,
      "##server": 6346,
      "##romi": 6347,
      "##DOM": 6348,
      "chromi": 6349,
      "165": 6350,
      "##86AEE": 6351,
      "##8046": 6352,
      "##ationLive": 6353,
      "30196": 6354,
      "308046": 6355,
      "##505": 6356,
      "##d1d": 6357,
      "=--": 6358,
      "##39CB": 6359,
      "##336_LeagueClientUx": 6360,
      "Sysmon64": 6361,
      "stdo": 6362,
      "ABD075": 6363,
      "4FDA": 6364,
      "55076": 6365,
      "B518": 6366,
      "Document": 6367,
      "EF5EE": 6368,
      "Keystone": 6369,
      "##B0AF4A": 6370,
      "##FoundationLive": 6371,
      "chromium": 6372,
      "##86AEE9D": 6373,
      "308046B0AF4A": 6374,
      "stdout": 6375,
      "ABD075C3": 6376,
      "EF5EE86AEE9D": 6377,
      "KeystoneFoundationLive": 6378,
      "308046B0AF4A39CB": 6379,
      "KeystoneFoundationLiveWin": 6380,
      "0_": 6381,
      "6C": 6382,
      "92": 6383,
      "979": 6384,
      "B740": 6385,
      "GOG": 6386,
      "MpW": 6387,
      "To": 6388,
      "Ub": 6389,
      "Us": 6390,
      "WerF": 6391,
      "Your": 6392,
      "ada": 6393,
      "bit": 6394,
      "dic": 6395,
      "dump": 6396,
      "e69": 6397,
      "nord": 6398,
      "overw": 6399,
      "program": 6400,
      "pay": 6401,
      "satisfactory": 6402,
      "##2e": 6403,
      "##213": 6404,
      "##a6": 6405,
      "##ae7": 6406,
      "##c53": 6407,
      "##gx": 6408,
      "##oS": 6409,
      "##D83": 6410,
      "##we": 6411,
      "##wek": 6412,
      "##A3": 6413,
      "##C7993": 6414,
      "##Bo": 6415,
      "##BD83": 6416,
      "##Gh": 6417,
      "##Ew": 6418,
      "##Ey": 6419,
      "##8wek": 6420,
      "##6b": 6421,
      "##61": 6422,
      "##e48": 6423,
      "##bm": 6424,
      "##pter": 6425,
      "##plevel": 6426,
      "##mc": 6427,
      "##io": 6428,
      "##ile": 6429,
      "##NT": 6430,
      "##XV": 6431,
      "##F1": 6432,
      "##vpn": 6433,
      "##_ord": 6434,
      "##_8wek": 6435,
      "##yZ": 6436,
      "##yb3": 6437,
      "##Phon": 6438,
      "##jedi": 6439,
      "##VT": 6440,
      "##Zlc": 6441,
      "##raft": 6442,
      "##en_ord": 6443,
      "##bexec": 6444,
      "##capp": 6445,
      "UserSession": 6446,
      "##orld": 6447,
      "##de29b": 6448,
      "##uty": 6449,
      "##old": 6450,
      "##secapp": 6451,
      "##29ae7": 6452,
      "##b2d1d": 6453,
      "##4916": 6454,
      "##49Ij": 6455,
      "##16C": 6456,
      "18500": 6457,
      "196": 6458,
      "##468": 6459,
      "##108": 6460,
      "##476": 6461,
      "starc": 6462,
      "##hbm": 6463,
      "unsecapp": 6464,
      "##rib": 6465,
      "activate": 6466,
      "##pb249Ij": 6467,
      "49A3": 6468,
      "##d8bb": 6469,
      "toplevel": 6470,
      "##c2e48": 6471,
      "##da6b": 6472,
      "##75ad8": 6473,
      "##nNpb249Ij": 6474,
      "##untu": 6475,
      "##UStub": 6476,
      "##e_1": 6477,
      "##LTg": 6478,
      "stub": 6479,
      "##x64__8wek": 6480,
      "23032": 6481,
      "##4b8b": 6482,
      "95BD83": 6483,
      "##atch_2": 6484,
      "contrib": 6485,
      "##6434b8b": 6486,
      "MusNotificationUx": 6487,
      "##_fallen_ord": 6488,
      "star_wars_jedi": 6489,
      "WCChromeExt": 6490,
      "##0iMSIg": 6491,
      "65FB": 6492,
      "0x7ff7da6b": 6493,
      "backgroundupdate": 6494,
      "libexec": 6495,
      "Documents": 6496,
      "0_x64__8wek": 6497,
      "6C213": 6498,
      "MpWUStub": 6499,
      "Total": 6500,
      "Ubuntu": 6501,
      "WerFault": 6502,
      "YourPhon": 6503,
      "adapter": 6504,
      "dict": 6505,
      "e69de29b": 6506,
      "nordvpn": 6507,
      "overwatch_2": 6508,
      "payload": 6509,
      "##c5391": 6510,
      "##C7993C": 6511,
      "##yb3d8bb": 6512,
      "##ZlcnNpb249Ij": 6513,
      "##raft_ii": 6514,
      "UserSessionHelper": 6515,
      "##29ae775ad8": 6516,
      "##b2d1d6434b8b": 6517,
      "starcraft_ii": 6518,
      "##c2e48c5391": 6519,
      "95BD83C7993C": 6520,
      "##_fallen_order": 6521,
      "star_wars_jedi_fallen_order": 6522,
      "WCChromeExtn": 6523,
      "0x7ff7da6b80": 6524,
      "0_x64__8wekyb3d8bb": 6525,
      "6C21316C": 6526,
      "YourPhone_1": 6527,
      "e69de29bb2d1d6434b8b": 6528,
      "##29ae775ad8c2e48c5391": 6529,
      "0_x64__8wekyb3d8bbwe": 6530,
      "e69de29bb2d1d6434b8b29ae775ad8c2e48c5391": 6531,
      "/..": 6532,
      "1868": 6533,
      "7176": 6534,
      "All": 6535,
      "Cach": 6536,
      "d3": 6537,
      "mmc": 6538,
      "##a1": 6539,
      "##gAAAA": 6540,
      "##ggr": 6541,
      "##DgAAAA": 6542,
      "##wR": 6543,
      "##AgAAA": 6544,
      "##Aggr": 6545,
      "##C0z": 6546,
      "##4O": 6547,
      "##QAAAAAAAAAAAAAAAA": 6548,
      "##MH": 6549,
      "##UpT": 6550,
      "##EgAAAAAAAAA": 6551,
      "##Yi": 6552,
      "##YAAAAAAAAAAAAAAAAAABgAAAAAAA": 6553,
      "##750": 6554,
      "##tw": 6555,
      "##564": 6556,
      "##1ND": 6557,
      "##hWeb": 6558,
      "##pr": 6559,
      "##Xs": 6560,
      "##F3": 6561,
      "##Throttling": 6562,
      "##OAAAAEAAAAAAAAAABAAAA": 6563,
      "##SAAAAAAAAAA": 6564,
      "##Socket": 6565,
      "##ja": 6566,
      "##jp": 6567,
      "##VL": 6568,
      "##/..": 6569,
      "##ension": 6570,
      "##essive": 6571,
      "##ING": 6572,
      "137": 6573,
      "##640": 6574,
      "##6429": 6575,
      "##owAggr": 6576,
      "##200": 6577,
      "##1955": 6578,
      "##1940": 6579,
      "##19016": 6580,
      "##196429": 6581,
      "USER": 6582,
      "##AAAAAAAAAEgAAAAAAAAA": 6583,
      "##dule": 6584,
      "0x44": 6585,
      "##GFj": 6586,
      "##WithWeb": 6587,
      "##101955": 6588,
      "inject": 6589,
      "##971": 6590,
      "##Tk5": 6591,
      "##tensive": 6592,
      "##BAAAAAAAAAAGAAAAAAAAAA": 6593,
      "##QAAAAAAAAAAAAAAAOAAAAEAAAAAAAAAABAAAA": 6594,
      "##9892": 6595,
      "##YAAAAAgAAA": 6596,
      "Intensive": 6597,
      "##keUpT": 6598,
      "DiscordHook64": 6599,
      "wsl": 6600,
      "##NzY": 6601,
      "pty": 6602,
      "##edExt": 6603,
      "##WakeUpT": 6604,
      "##ache": 6605,
      "0x3b": 6606,
      "0x3c0": 6607,
      "0x3bc": 6608,
      "##NoZW": 6609,
      "##VSIXs": 6610,
      "##296101955": 6611,
      "1651940": 6612,
      "##491619016": 6613,
      "/../..": 6614,
      "7176196429": 6615,
      "AllowAggr": 6616,
      "CachedExt": 6617,
      "##DgAAAAgAAAAAAAAACAAAAAAAAAA": 6618,
      "##QAAAAAAAAAAAAAAAAAAAAAAAAAEgAAAAAAAAA": 6619,
      "##YAAAAAAAAAAAAAAAAAABgAAAAAAAw": 6620,
      "##ThrottlingWithWeb": 6621,
      "##SAAAAAAAAAAYAAAAAgAAA": 6622,
      "##ensionVSIXs": 6623,
      "##essiveThrottlingWithWeb": 6624,
      "##BAAAAAAAAAAGAAAAAAAAAAQAAAAAAAAAAAAAAAOAAAAEAAAAAAAAAABAAAA": 6625,
      "IntensiveWakeUpT": 6626,
      "1651940491619016": 6627,
      "7176196429296101955": 6628,
      "AllowAggressiveThrottlingWithWeb": 6629,
      "CachedExtensionVSIXs": 6630,
      "##QAAAAAAAAAAAAAAAAAAAAAAAAAEgAAAAAAAAASAAAAAAAAAAYAAAAAgAAA": 6631,
      "##BAAAAAAAAAAGAAAAAAAAAAQAAAAAAAAAAAAAAAOAAAAEAAAAAAAAAABAAAADgAAAAgAAAAAAAAACAAAAAAAAAA": 6632,
      "IntensiveWakeUpThrottling": 6633,
      "16519404916190169892": 6634,
      "AllowAggressiveThrottlingWithWebSocket": 6635,
      "##QAAAAAAAAAAAAAAAAAAAAAAAAAEgAAAAAAAAASAAAAAAAAAAYAAAAAgAAABAAAAAAAAAAGAAAAAAAAAAQAAAAAAAAAAAAAAAOAAAAEAAAAAAAAAABAAAADgAAAAgAAAAAAAAACAAAAAAAAAA": 6636,
      ").": 6637,
      "120": 6638,
      "3v": 6639,
      "567": 6640,
      "950": 6641,
      "954": 6642,
      "CaptureService": 6643,
      "Fal": 6644,
      "SC": 6645,
      "VR": 6646,
      "efa": 6647,
      "ps": 6648,
      "rim": 6649,
      "ter": 6650,
      "tmp": 6651,
      "##2Y": 6652,
      "##2V": 6653,
      "##2Q0": 6654,
      "##2Vj": 6655,
      "##aN": 6656,
      "##aj": 6657,
      "##aR0": 6658,
      "##aHZ": 6659,
      "##aDN": 6660,
      "##cVl": 6661,
      "##kd": 6662,
      "##kR": 6663,
      "##kdR": 6664,
      "##kd4": 6665,
      "##gNoti": 6666,
      "##rb": 6667,
      "##rV": 6668,
      "##oz": 6669,
      "##oUmx": 6670,
      "##nib": 6671,
      "##nlJ": 6672,
      "##nbm": 6673,
      "##dh": 6674,
      "##d12": 6675,
      "##dWa": 6676,
      "##wT": 6677,
      "##wV": 6678,
      "##wNG": 6679,
      "##wVk": 6680,
      "##wVlVUMDlJaXdOQ2lBZ0lDQWlZMjlrWlY5MlpYSnBabWxsY2lJNklDS": 6681,
      "##world": 6682,
      "##wNzY": 6683,
      "##l0": 6684,
      "##lV": 6685,
      "##lNW": 6686,
      "##fk": 6687,
      "##find": 6688,
      "##fgNoti": 6689,
      "##0b": 6690,
      "##0N": 6691,
      "##0_": 6692,
      "##01_": 6693,
      "##Cache": 6694,
      "##CfgNoti": 6695,
      "##Bh": 6696,
      "##Bj": 6697,
      "##Bib": 6698,
      "##4c": 6699,
      "##4f": 6700,
      "##4Y": 6701,
      "##HED": 6702,
      "##HMH": 6703,
      "##Kb1": 6704,
      "##KMV": 6705,
      "##Qt": 6706,
      "##QUz": 6707,
      "##QHA": 6708,
      "##MWV": 6709,
      "##MmVh": 6710,
      "##MtYj": 6711,
      "##M2Vj": 6712,
      "##U20": 6713,
      "##UZW": 6714,
      "##UVl": 6715,
      "##UwWV": 6716,
      "##URl": 6717,
      "##UlI": 6718,
      "##UWGx": 6719,
      "##UlB": 6720,
      "##GE": 6721,
      "##GI": 6722,
      "##Gv": 6723,
      "##GT": 6724,
      "##GS": 6725,
      "##GMv": 6726,
      "##Gto": 6727,
      "##GaHZ": 6728,
      "##Et": 6729,
[...]
