{
  "version": "1.0",
  "truncation": null,
  "padding": null,
  "added_tokens": [
    {
      "id": 0,
      "content": "[UNK]",
      "single_word": false,
      "lstrip": false,
      "rstrip": false,
      "normalized": false,
      "special": true
    },
    {
      "id": 1,
      "content": "[PAD]",
      "single_word": false,
      "lstrip": false,
      "rstrip": false,
      "normalized": false,
      "special": true
    },
    {
      "id": 2,
      "content": "[CLS]",
      "single_word": false,
      "lstrip": false,
      "rstrip": false,
      "normalized": false,
      "special": true
    },
    {
      "id": 3,
      "content": "[SEP]",
      "single_word": false,
      "lstrip": false,
      "rstrip": false,
      "normalized": false,
      "special": true
    },
    {
      "id": 4,
      "content": "[MASK]",
      "single_word": false,
      "lstrip": false,
      "rstrip": false,
      "normalized": false,
      "special": true
    }
  ],
  "normalizer": null,
  "pre_tokenizer": {
    "type": "Whitespace"
  },
  "post_processor": {
    "type": "TemplateProcessing",
    "single": [
      {
        "SpecialToken": {
          "id": "[CLS]",
          "type_id": 0
        }
      },
      {
        "Sequence": {
          "id": "A",
          "type_id": 0
        }
      },
      {
        "SpecialToken": {
          "id": "[SEP]",
          "type_id": 0
        }
      }
    ],
    "pair": [
      {
        "SpecialToken": {
          "id": "[CLS]",
          "type_id": 0
        }
      },
      {
        "Sequence": {
          "id": "A",
          "type_id": 0
        }
      },
      {
        "SpecialToken": {
          "id": "[SEP]",
          "type_id": 0
        }
      },
      {
        "Sequence": {
          "id": "B",
          "type_id": 1
        }
      },
      {
        "SpecialToken": {
          "id": "[SEP]",
          "type_id": 1
        }
      }
    ],
    "special_tokens": {
      "[CLS]": {
        "id": "[CLS]",
        "ids": [
          2
        ],
        "tokens": [
          "[CLS]"
        ]
      },
      "[SEP]": {
        "id": "[SEP]",
        "ids": [
          3
        ],
        "tokens": [
          "[SEP]"
        ]
      }
    }
  },
  "decoder": {
    "type": "WordPiece",
    "prefix": "##",
    "cleanup": true
  },
  "model": {
    "type": "WordPiece",
    "unk_token": "[UNK]",
    "continuing_subword_prefix": "##",
    "max_input_chars_per_word": 100,
    "vocab": {
      "[UNK]": 0,
      "[PAD]": 1,
      "[CLS]": 2,
      "[SEP]": 3,
      "[MASK]": 4,
      "!": 5,
      "\"": 6,
      "#": 7,
      "$": 8,
      "%": 9,
      "&": 10,
      "'": 11,
      "(": 12,
      ")": 13,
      "+": 14,
      ",": 15,
      "-": 16,
      ".": 17,
      "/": 18,
      "0": 19,
      "1": 20,
      "2": 21,
      "3": 22,
      "4": 23,
      "5": 24,
      "6": 25,
      "7": 26,
      "8": 27,
      "9": 28,
      ":": 29,
      ";": 30,
      "<": 31,
      "=": 32,
      ">": 33,
      "?": 34,
      "@": 35,
      "A": 36,
      "B": 37,
      "C": 38,
      "D": 39,
      "E": 40,
      "F": 41,
      "G": 42,
      "H": 43,
      "I": 44,
      "J": 45,
      "K": 46,
      "L": 47,
      "M": 48,
      "N": 49,
      "O": 50,
      "P": 51,
      "Q": 52,
      "R": 53,
      "S": 54,
      "T": 55,
      "U": 56,
      "V": 57,
      "W": 58,
      "X": 59,
      "Y": 60,
      "Z": 61,
      "[": 62,
      "]": 63,
      "^": 64,
      "_": 65,
      "a": 66,
      "b": 67,
      "c": 68,
      "d": 69,
      "e": 70,
      "f": 71,
      "g": 72,
      "h": 73,
      "i": 74,
      "j": 75,
      "k": 76,
      "l": 77,
      "m": 78,
      "n": 79,
      "o": 80,
      "p": 81,
      "q": 82,
      "r": 83,
      "s": 84,
      "t": 85,
      "u": 86,
      "v": 87,
      "w": 88,
      "x": 89,
      "y": 90,
      "z": 91,
      "{": 92,
      "}": 93,
      "##e": 94,
      "##t": 95,
      "##c": 96,
      "##h": 97,
      "##x": 98,
      "##7": 99,
      "##f": 100,
      "##3": 101,
      "##6": 102,
      "##9": 103,
      "##4": 104,
      "##0": 105,
      "##5": 106,
      "##8": 107,
      "##n": 108,
      "##i": 109,
      "##y": 110,
      "##_": 111,
      "##r": 112,
      "##a": 113,
      "##o": 114,
      "##s": 115,
      "##v": 116,
      "##m": 117,
      "##d": 118,
      "##G": 119,
      "##F": 120,
      "##w": 121,
      "##C": 122,
      "##B": 123,
      "##H": 124,
      "##p": 125,
      "##Z": 126,
      "##D": 127,
      "##Y": 128,
      "##z": 129,
      "##Q": 130,
      "##R": 131,
      "##T": 132,
      "##A": 133,
      "##L": 134,
      "##U": 135,
      "##V": 136,
      "##N": 137,
      "##M": 138,
      "##O": 139,
      "##E": 140,
      "##k": 141,
      "##X": 142,
      "##I": 143,
      "##l": 144,
      "##b": 145,
      "##2": 146,
      "##j": 147,
      "##u": 148,
      "##J": 149,
      "##W": 150,
      "##P": 151,
      "##S": 152,
      "##g": 153,
      "##1": 154,
      "##.": 155,
      "##/": 156,
      "##q": 157,
      "##K": 158,
      "##'": 159,
      "##(": 160,
      "##%": 161,
      "##:": 162,
      "##]": 163,
      "##@": 164,
      "##-": 165,
      "##\"": 166,
      "##)": 167,
      "##;": 168,
      "##=": 169,
      "##?": 170,
      "##,": 171,
      "##}": 172,
      "###": 173,
      "##{": 174,
      "##$": 175,
      "##xe": 176,
      "exe": 177,
      "##er": 178,
      "##ff": 179,
      "##ho": 180,
      "##st": 181,
      "##ra": 182,
      "##on": 183,
      "##in": 184,
      "--": 185,
      "##en": 186,
      "##AA": 187,
      "##te": 188,
      "##me": 189,
      "##pp": 190,
      "##le": 191,
      "##ro": 192,
      "##ur": 193,
      "##ram": 194,
      "##ic": 195,
      "##min": 196,
      "##at": 197,
      "##ute": 198,
      "##UH": 199,
      "##LL": 200,
      "##DS": 201,
      "DE": 202,
      "##hour": 203,
      "##minute": 204,
      "DES": 205,
      "##KT": 206,
      "7UH": 207,
      "##OP": 208,
      "##DSLL": 209,
      "DESKT": 210,
      "7UHDSLL": 211,
      "DESKTOP": 212,
      "##be": 213,
      "##host": 214,
      "Ha": 215,
      "##ea": 216,
      "##rambe": 217,
      "Harambe": 218,
      "##or": 219,
      "##ffff": 220,
      "##end": 221,
      "##ue": 222,
      "##gue": 223,
      "##eague": 224,
      "##vc": 225,
      "##an": 226,
      "##ft": 227,
      "##og": 228,
      "##em": 229,
      "##32": 230,
      "##AAAA": 231,
      "##ent": 232,
      "con": 233,
      "##li": 234,
      "##ame": 235,
      "App": 236,
      "conhost": 237,
      "##yst": 238,
      "##ystem": 239,
      "##no": 240,
      "League": 241,
      "##ystem32": 242,
      "##AW": 243,
      "##pper": 244,
      "##rapper": 245,
      "##AWrapper": 246,
      "##ht": 247,
      "OAWrapper": 248,
      "##ig": 249,
      "##DO": 250,
      "aft": 251,
      "##erno": 252,
      "afterno": 253,
      "afternoon": 254,
      "##IN": 255,
      "WIN": 256,
      "##WS": 257,
      "##DOWS": 258,
      "WINDOWS": 259,
      "##al": 260,
      "##ac": 261,
      "##gend": 262,
      "##gends": 263,
      "##ight": 264,
      "night": 265,
      "##ion": 266,
      "ch": 267,
      "system32": 268,
      "##ot": 269,
      "##el": 270,
      "##ice": 271,
      "##un": 272,
      "##lient": 273,
      "##OR": 274,
      "##GR": 275,
      "##iot": 276,
      "##OU": 277,
      "WOR": 278,
      "WORK": 279,
      "##GROU": 280,
      "WORKGROU": 281,
      "WORKGROUP": 282,
      "##ce": 283,
      "##rome": 284,
      "##and": 285,
      "Riot": 286,
      "##ile": 287,
      "##ata": 288,
      "svc": 289,
      "##ers": 290,
      "svchost": 291,
      "Game": 292,
      "##ch": 293,
      "##ation": 294,
      "##ack": 295,
      "##erv": 296,
      "0x": 297,
      "en": 298,
      "##it": 299,
      "##egends": 300,
      "Games": 301,
      "of": 302,
      "##lic": 303,
      "Legends": 304,
      "chrome": 305,
      "##pe": 306,
      "##orce": 307,
      "##re": 308,
      "Us": 309,
      "##Client": 310,
      "##V1": 311,
      "##as": 312,
      "Force": 313,
      "##ffffffff": 314,
      "0xffffffff": 315,
      "ForceV1": 316,
      "##21": 317,
      "##et": 318,
      "##ing": 319,
      "##oc": 320,
      "Applic": 321,
      "Application": 322,
      "Users": 323,
      "##ain": 324,
      "##ti": 325,
      "##Data": 326,
      "##ble": 327,
      "AppData": 328,
      "##ask": 329,
      "File": 330,
      "Loc": 331,
      "##able": 332,
      "20": 333,
      "Local": 334,
      "hand": 335,
      "handle": 336,
      "##ervice": 337,
      "Pro": 338,
      "##ost": 339,
      "##Host": 340,
      "##gram": 341,
      "Program": 342,
      "log": 343,
      "##ype": 344,
      "Files": 345,
      "type": 346,
      "##ow": 347,
      "14": 348,
      "##On": 349,
      "LeagueClient": 350,
      "##od": 351,
      "##ol": 352,
      "git": 353,
      "##44": 354,
      "##12": 355,
      "16": 356,
      "##AAAAAAAA": 357,
      "##for": 358,
      "##ID": 359,
      "##ender": 360,
      "##und": 361,
      "##IA": 362,
      "enable": 363,
      "Nv": 364,
      "17": 365,
      "NV": 366,
      "##ut": 367,
      "##ont": 368,
      "##IDIA": 369,
      "NVIDIA": 370,
      "##gro": 371,
      "##ackgro": 372,
      "##ackground": 373,
      "##jo": 374,
      "##Back": 375,
      "NvBack": 376,
      "NvBackend": 377,
      "##ainer": 378,
      "##ontainer": 379,
      "##ri": 380,
      "nvc": 381,
      "##621": 382,
      "nvcontainer": 383,
      "##olog": 384,
      "##tolog": 385,
      "ApplicationOn": 386,
      "##tology": 387,
      "ApplicationOntology": 388,
      "##91": 389,
      "##Task": 390,
      "service": 391,
      "14hour": 392,
      "##ackgroundTask": 393,
      "##ackgroundTaskHost": 394,
      "##64": 395,
      "##07": 396,
      "##_o": 397,
      "mo": 398,
      "mojo": 399,
      "##86": 400,
      "##f_": 401,
      "##_of_": 402,
      "pre": 403,
      "##sh": 404,
      "league": 405,
      "##legends": 406,
      "##_of_legends": 407,
      "league_of_legends": 408,
      "##3hour": 409,
      "##so": 410,
      "=\"": 411,
      "##svc": 412,
      "##8minute": 413,
      "##rash": 414,
      "##lit": 415,
      "##ang": 416,
      "##enderer": 417,
      "##ogs": 418,
      "di": 419,
      "##Ux": 420,
      "##29": 421,
      "##ec": 422,
      "##2hour": 423,
      "##roso": 424,
      "##icroso": 425,
      "##icrosoft": 426,
      "de": 427,
      "renderer": 428,
      "Logs": 429,
      "##83": 430,
      "##15": 431,
      "pref": 432,
      "##ar": 433,
      "file": 434,
      "Microsoft": 435,
      "##ks": 436,
      "##lat": 437,
      "fi": 438,
      "US": 439,
      "##form": 440,
      "##latform": 441,
      "##etch": 442,
      "##ann": 443,
      "lang": 444,
      "sc": 445,
      "15": 446,
      "chann": 447,
      "channel": 448,
      "##87": 449,
      "##80": 450,
      "prefetch": 451,
      "platform": 452,
      "##36": 453,
      "tri": 454,
      "##eld": 455,
      "field": 456,
      "trial": 457,
      "##ime": 458,
      "time": 459,
      "##31": 460,
      "##rea": 461,
      "tic": 462,
      "x86": 463,
      "ticks": 464,
      "##ed": 465,
      "crash": 466,
      "36": 467,
      "##52": 468,
      "##ind": 469,
      "app": 470,
      "re": 471,
      "##ode": 472,
      "##ast": 473,
      "##ate": 474,
      "##49": 475,
      "LeagueClientUx": 476,
      "##08": 477,
      "##indow": 478,
      "##ker": 479,
      "##ffice": 480,
      "##2minute": 481,
      "##42": 482,
      "##indows": 483,
      "##7minute": 484,
      "##9minute": 485,
      "##oog": 486,
      "##lity": 487,
      "##oogle": 488,
      "Google": 489,
      "##es": 490,
      "##om": 491,
      "##507": 492,
      "##vi": 493,
      "16hour": 494,
      "##27": 495,
      "backgroundTaskHost": 496,
      "services": 497,
      "##ds": 498,
      "##23": 499,
      "Windows": 500,
      "uti": 501,
      "2621": 502,
      "262144": 503,
      "##ipe": 504,
      "##dd": 505,
      "##um": 506,
      "##md": 507,
      "main": 508,
      "##tor": 509,
      "22hour": 510,
      "Run": 511,
      "##sc": 512,
      "##00": 513,
      "utility": 514,
      "Serv": 515,
      "##1minute": 516,
      "##hrome": 517,
      "##time": 518,
      "Runtime": 519,
      "Chrome": 520,
      "15hour": 521,
      "##hel": 522,
      "##In": 523,
      "##Bro": 524,
      "RuntimeBro": 525,
      "RuntimeBroker": 526,
      "##vice": 527,
      "##ale": 528,
      "##ss": 529,
      "##2921": 530,
      "##8708": 531,
      "##3227": 532,
      "##ning": 533,
      "id": 534,
      "2012": 535,
      "##1283": 536,
      "178708": 537,
      "##6219": 538,
      "##913227": 539,
      "##151283": 540,
      "##8036": 541,
      "36507": 542,
      "##522921": 543,
      "1787088036": 544,
      "##9132276219": 545,
      "##15128342": 546,
      "36507522921": 547,
      "17870880369132276219": 548,
      "3650752292115128342": 549,
      "data": 550,
      "mor": 551,
      "##per": 552,
      "morning": 553,
      "##ox": 554,
      "device": 555,
      "23hour": 556,
      "client": 557,
      "at": 558,
      ":/": 559,
      "name": 560,
      "##rch": 561,
      "##actor": 562,
      "##earch": 563,
      "Search": 564,
      "##Name": 565,
      "##pd": 566,
      "##mbe": 567,
      "##mbedd": 568,
      "factor": 569,
      "scale": 570,
      "##hell": 571,
      "##ad": 572,
      "Embedd": 573,
      "##erName": 574,
      "Embedding": 575,
      "13hour": 576,
      "BackgroundTaskHost": 577,
      "##box": 578,
      "##andbox": 579,
      "##lt": 580,
      "##3minute": 581,
      "##14": 582,
      "##art": 583,
      "##rame": 584,
      "ServerName": 585,
      "pow": 586,
      "##ge": 587,
      "##omm": 588,
      "System32": 589,
      "sandbox": 590,
      "##ub": 591,
      "##ath": 592,
      "th": 593,
      "be": 594,
      "ac": 595,
      "cmd": 596,
      "##are": 597,
      "##tiv": 598,
      "un": 599,
      "##fore": 600,
      "num": 601,
      "activ": 602,
      "frame": 603,
      "rast": 604,
      "##reads": 605,
      "threads": 606,
      "before": 607,
      "activation": 608,
      "raster": 609,
      "##Pro": 610,
      "##eb": 611,
      "##5minute": 612,
      "##ershell": 613,
      "##647": 614,
      "powershell": 615,
      "18minute": 616,
      "##4minute": 617,
      "ux": 618,
      "##po": 619,
      "##gent": 620,
      "0hour": 621,
      "gp": 622,
      "la": 623,
      "##pdate": 624,
      "dis": 625,
      "path": 626,
      "##unch": 627,
      "Code": 628,
      "11": 629,
      "06": 630,
      "2023": 631,
      "launch": 632,
      "##ix": 633,
      "20hour": 634,
      "##mg": 635,
      "##ZW": 636,
      "=-": 637,
      "us": 638,
      "##849": 639,
      "dir": 640,
      "##mgr": 641,
      "##ok": 642,
      "##oder": 643,
      "disable": 644,
      "04": 645,
      "no": 646,
      "##am": 647,
      "epo": 648,
      "16849": 649,
      "unix": 650,
      "epoch": 651,
      "16849647": 652,
      "##319": 653,
      "1684964791": 654,
      "##0minute": 655,
      "##ort": 656,
      "04T": 657,
      "##Service": 658,
      "##all": 659,
      "office": 660,
      "##60": 661,
      "##svcmgr": 662,
      "1684964791319": 663,
      "officesvcmgr": 664,
      "##ecoder": 665,
      "cart": 666,
      "00": 667,
      "##cess": 668,
      "19": 669,
      "##elper": 670,
      "##b2": 671,
      "##ord": 672,
      "pro": 673,
      "##443": 674,
      "##aW": 675,
      "##19": 676,
      "1684964791319443": 677,
      "##Co": 678,
      "##pad": 679,
      "##ll": 680,
      "gpu": 681,
      "##bG": 682,
      "##der": 683,
      "##xt": 684,
      "##scord": 685,
      "18": 686,
      "sub": 687,
      "12hour": 688,
      "##th": 689,
      "##put": 690,
      "##6minute": 691,
      "##ry": 692,
      "##ite": 693,
      "##ug": 694,
      "crashpad": 695,
      "##ct": 696,
      "##01": 697,
      "##YX": 698,
      "##ment": 699,
      "17hour": 700,
      "##AAAAAAAAA": 701,
      "pipe": 702,
      "##YW": 703,
      "##AAAAAAAAAA": 704,
      "net": 705,
      "##fa": 706,
      "##ust": 707,
      "##10": 708,
      "##ure": 709,
      "%(": 710,
      ")%": 711,
      "##_L": 712,
      "##GF": 713,
      "##20": 714,
      "##Site": 715,
      "##litz": 716,
      "##uth": 717,
      "##thr": 718,
      "AppX": 719,
      "##37": 720,
      "user": 721,
      "##ware": 722,
      "agent": 723,
      "##app": 724,
      "mojom": 725,
      "##cc": 726,
      "##htask": 727,
      "schtask": 728,
      "schtasks": 729,
      "st": 730,
      "##orm": 731,
      "Blitz": 732,
      "##50": 733,
      "##pl": 734,
      "##ey": 735,
      "##90": 736,
      "##ve": 737,
      "##bug": 738,
      "##stall": 739,
      "debug": 740,
      "No": 741,
      "Office": 742,
      "##SI": 743,
      "5hour": 744,
      "##Render": 745,
      "##eagueClient": 746,
      "##unt": 747,
      "##_LeagueClient": 748,
      "18hour": 749,
      "##last": 750,
      "##lastic": 751,
      "in": 752,
      "##_d": 753,
      "28minute": 754,
      "##ies": 755,
      "enabled": 756,
      "##24": 757,
      "Comm": 758,
      "##ount": 759,
      "##ream": 760,
      "Web": 761,
      "##tt": 762,
      "##Acc": 763,
      "##team": 764,
      "##Account": 765,
      "##ameSite": 766,
      "##svcs": 767,
      "LeagueClientUxRender": 768,
      "##vider": 769,
      "##Provider": 770,
      "##okies": 771,
      "Data": 772,
      "##lo": 773,
      "netsvcs": 774,
      "Di": 775,
      "##ag": 776,
      "up": 777,
      "##Auth": 778,
      "WebAccount": 779,
      "WebAccountProvider": 780,
      "##ric": 781,
      "##Update": 782,
      "##us": 783,
      "##stream": 784,
      "ref": 785,
      "Discord": 786,
      "##ia": 787,
      "upstream": 788,
      "##Gthr": 789,
      "##Hand": 790,
      "##Pipe": 791,
      "19hour": 792,
      "##46": 793,
      "##ys": 794,
      "Client": 795,
      "In": 796,
      "##eat": 797,
      "##Handl": 798,
      "##ca": 799,
      "##ult": 800,
      "FileCo": 801,
      "FileCoAuth": 802,
      "21": 803,
      "##anag": 804,
      "##76": 805,
      "##28": 806,
      "##fault": 807,
      "##ZX": 808,
      "rem": 809,
      "tr": 810,
      "##AAA": 811,
      "true": 812,
      "39minute": 813,
      "##35": 814,
      "##ersion": 815,
      "11hour": 816,
      "##ormat": 817,
      "comm": 818,
      "Git": 819,
      "##dG": 820,
      "##04": 821,
      "##lc": 822,
      "##ase": 823,
      "##De": 824,
      "17minute": 825,
      "ms": 826,
      "##id": 827,
      "##ures": 828,
      "feat": 829,
      "##56": 830,
      "##Helper": 831,
      "features": 832,
      "##39": 833,
      "##ext": 834,
      "##34": 835,
      "##ud": 836,
      "##beat": 837,
      "##ach": 838,
      "##Oi": 839,
      "7minute": 840,
      "##olic": 841,
      "##olicy": 842,
      "mca": 843,
      "##utput": 844,
      "##072": 845,
      "131": 846,
      "42minute": 847,
      "59minute": 848,
      "##se": 849,
      "##edia": 850,
      "##ew": 851,
      "##ron": 852,
      "##entry": 853,
      "23": 854,
      "57minute": 855,
      "##jec": 856,
      "##GF0": 857,
      "port": 858,
      "sch": 859,
      "##38": 860,
      "##Decoder": 861,
      "##eck": 862,
      "data_d": 863,
      "DataDecoder": 864,
      "131072": 865,
      "data_decoder": 866,
      "DataDecoderService": 867,
      "##77": 868,
      "##du": 869,
      "##BE": 870,
      "##16": 871,
      "htt": 872,
      "##EF": 873,
      "http": 874,
      "NA": 875,
      "vsc": 876,
      "##c4": 877,
      "##By": 878,
      "RiotClient": 879,
      "vscode": 880,
      "27minute": 881,
      "##rust": 882,
      "##mx": 883,
      "##Rh": 884,
      "check": 885,
      "envi": 886,
      "##own": 887,
      "##ronment": 888,
      "##rusted": 889,
      "environment": 890,
      "37minute": 891,
      "##iOi": 892,
      "##Ex": 893,
      "##2x": 894,
      "22minute": 895,
      "##port": 896,
      "##ject": 897,
      "ws": 898,
      "##_1": 899,
      "##de": 900,
      "##zL": 901,
      "1hour": 902,
      "##88": 903,
      "##rd": 904,
      "##sIn": 905,
      "13": 906,
      "##dge": 907,
      "##one": 908,
      "##edge": 909,
      "msedge": 910,
      "##duct": 911,
      "##gAAAAAAAAA": 912,
      "##Key": 913,
      "##ence": 914,
      "23minute": 915,
      "##Ii": 916,
      "##_p": 917,
      "##11": 918,
      "##hon": 919,
      "10": 920,
      "task": 921,
      "##Media": 922,
      "Hard": 923,
      "##wareMedia": 924,
      "##Handling": 925,
      "##KeyHandling": 926,
      "HardwareMedia": 927,
      "HardwareMediaKeyHandling": 928,
      "py": 929,
      "##alse": 930,
      "##54": 931,
      "##ted": 932,
      "24minute": 933,
      "##ay": 934,
      "##up": 935,
      "elastic": 936,
      "##hb": 937,
      "##hostw": 938,
      "taskhostw": 939,
      "com": 940,
      "##89": 941,
      "##cm": 942,
      "##ore": 943,
      "20minute": 944,
      "Ro": 945,
      "helper": 946,
      "##fig": 947,
      "##Crash": 948,
      "filebeat": 949,
      "##appx": 950,
      "wsappx": 951,
      "64": 952,
      "Down": 953,
      "serv": 954,
      "##WV": 955,
      "false": 956,
      "set": 957,
      "05": 958,
      "##74": 959,
      "tem": 960,
      "##_s": 961,
      "##vZ": 962,
      "##_44": 963,
      "##d1": 964,
      "##Run": 965,
      "##_4460": 966,
      "30minute": 967,
      "product": 968,
      "32": 969,
      "##ange": 970,
      "report": 971,
      "base": 972,
      "##thon": 973,
      "##bf": 974,
      "NA1": 975,
      "reporting": 976,
      "output": 977,
      "win": 978,
      "##CJ": 979,
      "##2F": 980,
      "##xec": 981,
      "LeagueClientUxHelper": 982,
      "21hour": 983,
      "remot": 984,
      "##Svc": 985,
      "##stric": 986,
      "47minute": 987,
      "##7c": 988,
      "50minute": 989,
      "Un": 990,
      "##Li": 991,
      "##ld": 992,
      "##ecure": 993,
      "Exec": 994,
      "##orker": 995,
      "##ution": 996,
      "##view": 997,
      "##001": 998,
      "##ebview": 999,
      "##stricted": 1000,
      "##eD": 1001,
      "##94": 1002,
      "sho": 1003,
      "Command": 1004,
      "##iOiJ": 1005,
      "11minute": 1006,
      "##Log": 1007,
      "##Wit": 1008,
      "##Policy": 1009,
      "##_pro": 1010,
      "Text": 1011,
      "##vel": 1012,
      "##Format": 1013,
      "##restricted": 1014,
      "##putFormat": 1015,
      "##staller": 1016,
      "NoEx": 1017,
      "NoLog": 1018,
      "InputFormat": 1019,
      "Unrestricted": 1020,
      "Execution": 1021,
      "NoExit": 1022,
      "NoLogo": 1023,
      "ExecutionPolicy": 1024,
      "CEF": 1025,
      "##uZ": 1026,
      "config": 1027,
      "##AAAAAAAAAAAAAAAA": 1028,
      "##tach": 1029,
      "##Be": 1030,
      "##Im": 1031,
      "attach": 1032,
      "attachment": 1033,
      "26minute": 1034,
      "##sion": 1035,
      "##pi": 1036,
      "pre_pro": 1037,
      "##cessing": 1038,
      "pre_processing": 1039,
      "91": 1040,
      "##mar": 1041,
      "##26": 1042,
      "##rimar": 1043,
      "##rimary": 1044,
      "35minute": 1045,
      "common": 1046,
      "10hour": 1047,
      "41minute": 1048,
      "ig": 1049,
      "run": 1050,
      "##nore": 1051,
      "##DB": 1052,
      "##SU": 1053,
      "##ming": 1054,
      "ignore": 1055,
      "Steam": 1056,
      "Trusted": 1057,
      "Update": 1058,
      "steam": 1059,
      "##bra": 1060,
      "##Installer": 1061,
      "##apps": 1062,
      "##Libra": 1063,
      "SteamLibra": 1064,
      "TrustedInstaller": 1065,
      "steamapps": 1066,
      "SteamLibrary": 1067,
      "30": 1068,
      "Co": 1069,
      "SameSite": 1070,
      "primary": 1071,
      "##fL": 1072,
      "##GO": 1073,
      "##Fi": 1074,
      "##LCJ": 1075,
      "##Version": 1076,
      "##Must": 1077,
      "##OfL": 1078,
      "##SameSite": 1079,
      "##Secure": 1080,
      "##hout": 1081,
      "LeagueOfL": 1082,
      "##egendsClient": 1083,
      "##Cookies": 1084,
      "##_LeagueClientUx": 1085,
      "##okiesWit": 1086,
      "##faultCookies": 1087,
      "##DefaultCookies": 1088,
      "##ByDefaultCookies": 1089,
      "##BeSecure": 1090,
      "CookiesWit": 1091,
      "SameSiteByDefaultCookies": 1092,
      "##MustBeSecure": 1093,
      "##SameSiteMustBeSecure": 1094,
      "##houtSameSiteMustBeSecure": 1095,
      "LeagueOfLegendsClient": 1096,
      "CookiesWithoutSameSiteMustBeSecure": 1097,
      "21minute": 1098,
      "49minute": 1099,
      "##Worker": 1100,
      "##17": 1101,
      "##icing": 1102,
      "04T20": 1103,
      "##bGV": 1104,
      "servicing": 1105,
      "Ti": 1106,
      "manag": 1107,
      "##cy": 1108,
      "##sZW": 1109,
      "##b3": 1110,
      "refs": 1111,
      "##udi": 1112,
      "##GF0Y": 1113,
      "setup": 1114,
      "TiWorker": 1115,
      "95": 1116,
      "Glo": 1117,
      "On": 1118,
      "##dm": 1119,
      "##bal": 1120,
      "##erHost": 1121,
      "##rive": 1122,
      "##eDrive": 1123,
      "Global": 1124,
      "OneDrive": 1125,
      "48minute": 1126,
      "##name": 1127,
      "##ZV": 1128,
      "##lZ": 1129,
      "56minute": 1130,
      "Get": 1131,
      "##30": 1132,
      "##ml": 1133,
      "##8300": 1134,
      "101": 1135,
      "##toc": 1136,
      "##xVersion": 1137,
      "##Flt": 1138,
      "##ZS": 1139,
      "##Mss": 1140,
      "##Ij": 1141,
      "##ory": 1142,
      "##ement": 1143,
      "AppxVersion": 1144,
      "0x7": 1145,
      "UsGthr": 1146,
      "##olHost": 1147,
      "://": 1148,
      "SearchPro": 1149,
      "##YW1": 1150,
      "Common": 1151,
      "##GthrPipe": 1152,
      "##PipeMss": 1153,
      "##tocolHost": 1154,
      "##FltPipeMss": 1155,
      "SearchProtocolHost": 1156,
      "##FltPipeMssGthrPipe": 1157,
      "32minute": 1158,
      "##hare": 1159,
      "##fic": 1160,
      "2minute": 1161,
      "mem": 1162,
      "##ui": 1163,
      "##lid": 1164,
      "52minute": 1165,
      "webview": 1166,
      "##bi": 1167,
      "36minute": 1168,
      "##hared": 1169,
      "0001": 1170,
      "riot": 1171,
      "##rl": 1172,
      "##18": 1173,
      "0514": 1174,
      "511": 1175,
      "##eme": 1176,
      "scheme": 1177,
      "6414": 1178,
      "schemes": 1179,
      "##evel": 1180,
      "##To": 1181,
      "##xer": 1182,
      "##ati": 1183,
      "##AAAAAAA": 1184,
      "GameB": 1185,
      "##lick": 1186,
      "##Inde": 1187,
      "SearchInde": 1188,
      "##_18300": 1189,
      "SearchIndexer": 1190,
      "25minute": 1191,
      "53minute": 1192,
      "##ads": 1193,
      "##aming": 1194,
      "##lb": 1195,
      "##plate": 1196,
      "comp": 1197,
      "template": 1198,
      "wlid": 1199,
      "##ToRun": 1200,
      "##lickToRun": 1201,
      "wlidsvc": 1202,
      "##_R": 1203,
      "##2t": 1204,
      "Shared": 1205,
      "##dc": 1206,
      "##zd": 1207,
      "##I6": 1208,
      "##ging": 1209,
      "##urce": 1210,
      "logging": 1211,
      "100": 1212,
      "ClickToRun": 1213,
      "PBE": 1214,
      "##play": 1215,
      "55minute": 1216,
      "Agent": 1217,
      "Elastic": 1218,
      "##UI": 1219,
      "##res": 1220,
      "SearchFi": 1221,
      "##lterHost": 1222,
      "SearchFilterHost": 1223,
      "##53": 1224,
      "##ver": 1225,
      "##13": 1226,
      "54minute": 1227,
      "##48": 1228,
      "##5k": 1229,
      "##Ijo": 1230,
      "##2V": 1231,
      "##aW90": 1232,
      "##Ijoi": 1233,
      "fc4": 1234,
      "##a15": 1235,
      "##ul": 1236,
      "##source": 1237,
      "##udio": 1238,
      "fc4a15": 1239,
      "6hour": 1240,
      "dll": 1241,
      "##68": 1242,
      "##etric": 1243,
      "management": 1244,
      "mod": 1245,
      "metric": 1246,
      "##CU": 1247,
      "##log": 1248,
      "##2e": 1249,
      "##64_": 1250,
      "38minute": 1251,
      "##9sZW": 1252,
      "##pb2": 1253,
      "##DX": 1254,
      "##ule": 1255,
      "##AAAAAAAAAAB": 1256,
      "31minute": 1257,
      "Sys": 1258,
      "for": 1259,
      "AppXSvc": 1260,
      "##anager": 1261,
      "__s": 1262,
      "cer": 1263,
      "er": 1264,
      "##rs": 1265,
      "##rit": 1266,
      "##z1": 1267,
      "##Tk": 1268,
      "##Writ": 1269,
      "##rors": 1270,
      "##tific": 1271,
      "14minute": 1272,
      "##enceWrit": 1273,
      "memory": 1274,
      "GameBar": 1275,
      "##resenceWrit": 1276,
      "__sentry": 1277,
      "certific": 1278,
      "errors": 1279,
      "##resenceWriter": 1280,
      "certificate": 1281,
      "0minute": 1282,
      "45minute": 1283,
      "Edge": 1284,
      "##69": 1285,
      "##58": 1286,
      "##RI": 1287,
      "python": 1288,
      "an": 1289,
      "sys": 1290,
      "tn": 1291,
      "##0i": 1292,
      "##wor": 1293,
      "change": 1294,
      "default": 1295,
      "##ef": 1296,
      "##con": 1297,
      "##78": 1298,
      "Downlo": 1299,
      "12minute": 1300,
      "9minute": 1301,
      "sentry": 1302,
      "##_A": 1303,
      "##lX": 1304,
      "install": 1305,
      "checkin": 1306,
      "##work": 1307,
      "39": 1308,
      "Manager": 1309,
      "##icea": 1310,
      "Programs": 1311,
      "Servicea": 1312,
      "##bility": 1313,
      "Serviceability": 1314,
      "##55": 1315,
      "##Jp": 1316,
      "##ension": 1317,
      "discord": 1318,
      "gpsvc": 1319,
      "##xtension": 1320,
      "##YXRh": 1321,
      "##YXRhL": 1322,
      "##si": 1323,
      "##mU": 1324,
      "##zi": 1325,
      "project": 1326,
      "Win": 1327,
      "extension": 1328,
      "get": 1329,
      "##y_": 1330,
      "req": 1331,
      "Mo": 1332,
      "##40": 1333,
      "##sus": 1334,
      "##vY": 1335,
      "##Y29": 1336,
      "##ules": 1337,
      "Downloads": 1338,
      "34minute": 1339,
      "##R1": 1340,
      "##liz": 1341,
      "04T14": 1342,
      "##SI6": 1343,
      "##Jpb3": 1344,
      "44minute": 1345,
      "Asus": 1346,
      "##pS": 1347,
      "process": 1348,
      "modules": 1349,
      "51minute": 1350,
      "##72": 1351,
      "##mR": 1352,
      "##G9": 1353,
      "##ction": 1354,
      "619": 1355,
      "##06": 1356,
      "##59": 1357,
      "##ote": 1358,
      "##mod": 1359,
      "##b6": 1360,
      "##red": 1361,
      "RiotClientUx": 1362,
      "61946": 1363,
      "29": 1364,
      "##9S": 1365,
      "##sv": 1366,
      "0x3": 1367,
      "6minute": 1368,
      "NT": 1369,
      "##79": 1370,
      "##MI": 1371,
      "##b9": 1372,
      "##ames": 1373,
      "##md64_": 1374,
      "AsusUpdate": 1375,
      "ASU": 1376,
      "format": 1377,
      "##iLCJ": 1378,
      "##rc": 1379,
      "##AQ": 1380,
      "##Per": 1381,
      "##oken": 1382,
      "##lla": 1383,
      "##GF0YS": 1384,
      "##zilla": 1385,
      "Mozilla": 1386,
      "ASUS": 1387,
      "##364": 1388,
      "##5_": 1389,
      "##TI": 1390,
      "##tection": 1391,
      "Roaming": 1392,
      "##ZV9": 1393,
      "requi": 1394,
      "46minute": 1395,
      "csv": 1396,
      "##nQ": 1397,
      "reg": 1398,
      "winlog": 1399,
      "show": 1400,
      "43minute": 1401,
      "windows": 1402,
      "##3R": 1403,
      "##8D": 1404,
      "##mal": 1405,
      "##nomal": 1406,
      "ProgramData": 1407,
      "Windows_A": 1408,
      "##Detection": 1409,
      "##y_Detection": 1410,
      "##nomaly_Detection": 1411,
      "Windows_Anomaly_Detection": 1412,
      "sm": 1413,
      "##i9": 1414,
      "GameCrash": 1415,
      "##uto": 1416,
      "##eyJ": 1417,
      "GameCrashes": 1418,
      "29minute": 1419,
      "8minute": 1420,
      "cam": 1421,
      "##xs": 1422,
      "##iI": 1423,
      "##_v": 1424,
      "##CS": 1425,
      "##AR": 1426,
      "##UO": 1427,
      "##UGO": 1428,
      "##edul": 1429,
      "36_4460": 1430,
      "appmod": 1431,
      "##Process": 1432,
      "crashpad_4460": 1433,
      "##DBMI": 1434,
      "##_RCS": 1435,
      "##CUDBMI": 1436,
      "##DXUGO": 1437,
      "##AQAAAA": 1438,
      "camsvc": 1439,
      "##eduler": 1440,
      "36_4460_LeagueClient": 1441,
      "appmodel": 1442,
      "crashpad_4460_RCS": 1443,
      "##CUDBMIUO": 1444,
      "##DXUGOCUDBMIUO": 1445,
      "crashpad_4460_RCSDXUGOCUDBMIUO": 1446,
      "46": 1447,
      "##tation": 1448,
      "##71": 1449,
      "##03": 1450,
      "##ial": 1451,
      "##a1": 1452,
      "##BY": 1453,
      "##HV": 1454,
      "##ZD": 1455,
      "##IE": 1456,
      "##notation": 1457,
      "remote": 1458,
      "https": 1459,
      "##Iiw": 1460,
      "annotation": 1461,
      "ua": 1462,
      "##cH": 1463,
      "##51": 1464,
      "##pt": 1465,
      "##AC": 1466,
      "installsource": 1467,
      "19minute": 1468,
      "13minute": 1469,
      "5minute": 1470,
      "58minute": 1471,
      "515": 1472,
      "##iOn": 1473,
      "##_st": 1474,
      "##dlb": 1475,
      "##Ev": 1476,
      "##ER": 1477,
      "##lYW": 1478,
      "files": 1479,
      "scheduler": 1480,
      "0x7ff": 1481,
      "##aW90IE": 1482,
      "##9SaW90IE": 1483,
      "##dlbmR": 1484,
      "##lYWd1": 1485,
      "8hour": 1486,
      "So": 1487,
      "##client": 1488,
      "##h0": 1489,
      "##bject": 1490,
      "##22": 1491,
      "##ftware": 1492,
      "extensions": 1493,
      "Software": 1494,
      "##ha": 1495,
      "##3V": 1496,
      "##4AAAAAAAAA": 1497,
      "##age": 1498,
      "##dC": 1499,
      "##Qz": 1500,
      "##AAAAAAAAAAAAAAA": 1501,
      "##868": 1502,
      "##347": 1503,
      "##rt": 1504,
      "##dfa": 1505,
      "##Fn": 1506,
      "##WO": 1507,
      "stat": 1508,
      "##tc": 1509,
      "##0sIn": 1510,
      "##583": 1511,
      "##nB": 1512,
      "##aX": 1513,
      "##Bw": 1514,
      "##BO": 1515,
      "##px": 1516,
      "##p7": 1517,
      "##l9sZW": 1518,
      "##games": 1519,
      "##DOi9": 1520,
      "Process": 1521,
      "##013": 1522,
      "##Handler": 1523,
      "##2xlYWd1": 1524,
      "##vZl9sZW": 1525,
      "##iOiJDOi9": 1526,
      "##Ijp7": 1527,
      "riotgames": 1528,
      "##siYX": 1529,
      "##ZV9vZl9sZW": 1530,
      "##iOnsiYX": 1531,
      "##dlbmRzL": 1532,
      "##2xlYWd1ZV9vZl9sZW": 1533,
      "##2xlYWd1ZV9vZl9sZWdlbmRzL": 1534,
      ":{": 1535,
      "Dll": 1536,
      "brea": 1537,
      "##_10": 1538,
      "##Hub": 1539,
      "##Edge": 1540,
      "MicrosoftEdge": 1541,
      "dllhost": 1542,
      "Processid": 1543,
      "DllHost": 1544,
      "ls": 1545,
      "norm": 1546,
      "os": 1547,
      "text": 1548,
      "##hZ": 1549,
      "##im": 1550,
      "##yJ": 1551,
      "##rum": 1552,
      "##saW": 1553,
      "##HM": 1554,
      "##Nlc": 1555,
      "##X2x": 1556,
      "##PresenceWriter": 1557,
      "##ename": 1558,
      "stage": 1559,
      "##CrashHandler": 1560,
      "##dcrum": 1561,
      "GameBarPresenceWriter": 1562,
      "##conv": 1563,
      "breadcrum": 1564,
      "textconv": 1565,
      "40minute": 1566,
      "93": 1567,
      "9013": 1568,
      "Tem": 1569,
      "hea": 1570,
      "object": 1571,
      "to": 1572,
      "##est": 1573,
      "##3N": 1574,
      "##mp": 1575,
      "##wZ": 1576,
      "##river": 1577,
      "GoogleUpdate": 1578,
      "##192": 1579,
      "##AAAAAAAAAD": 1580,
      "Temp": 1581,
      "290": 1582,
      "9hour": 1583,
      "auto": 1584,
      "##lh": 1585,
      "##Jl": 1586,
      "##ack_": 1587,
      "##helper": 1588,
      "##YXJ": 1589,
      "commit": 1590,
      "##lcy": 1591,
      "##uZHM": 1592,
      "##lZ2V": 1593,
      "##SI6eyJ": 1594,
      "51510": 1595,
      "status": 1596,
      "##hZ3V": 1597,
      "##lZ2VuZHM": 1598,
      "214": 1599,
      "33minute": 1600,
      "Crash": 1601,
      "amd64_": 1602,
      "gest": 1603,
      "none": 1604,
      "policy": 1605,
      "version": 1606,
      "##e35": 1607,
      "##c7c": 1608,
      "##7dd": 1609,
      "##fo": 1610,
      "##none": 1611,
      "##_7dd": 1612,
      "##sxs": 1613,
      "##microsoft": 1614,
      "##CA": 1615,
      "##HR": 1616,
      "##stack_": 1617,
      "##rac": 1618,
      "##646": 1619,
      "##31bf": 1620,
      "##pdmU": 1621,
      "##ad364": 1622,
      "1904": 1623,
      "##56ad364": 1624,
      "##39c4": 1625,
      "##3856ad364": 1626,
      "winsxs": 1627,
      "servicingstack_": 1628,
      "##b9dfa": 1629,
      "##5_none": 1630,
      "required": 1631,
      "MicrosoftEdgeUpdate": 1632,
      "2905_none": 1633,
      "autoplay": 1634,
      "amd64_microsoft": 1635,
      "gesture": 1636,
      "##e35_10": 1637,
      "##c7cb9dfa": 1638,
      "##_7dd39c4": 1639,
      "##31bf3856ad364": 1640,
      "19041": 1641,
      "servicingstack_31bf3856ad364": 1642,
      "2905_none_7dd39c4": 1643,
      "##c7cb9dfa0": 1644,
      "servicingstack_31bf3856ad364e35_10": 1645,
      "2905_none_7dd39c4c7cb9dfa0": 1646,
      "77": 1647,
      "=%": 1648,
      "each": 1649,
      "trac": 1650,
      "uall": 1651,
      "##47": 1652,
      "##sIm": 1653,
      "##Gl": 1654,
      "##Fp": 1655,
      "##pn": 1656,
      "##eref": 1657,
      "refname": 1658,
      "##7483": 1659,
      "remotename": 1660,
      "remoteref": 1661,
      "short": 1662,
      "remotes": 1663,
      "heads": 1664,
      "objectname": 1665,
      "=%(": 1666,
      "track": 1667,
      "MS": 1668,
      "MSI": 1669,
      "##trl": 1670,
      "##_t": 1671,
      "##aem": 1672,
      "##Ctrl": 1673,
      "##ph": 1674,
      "##Daem": 1675,
      "##Level": 1676,
      "##EL": 1677,
      "##bot": 1678,
      "##gthr": 1679,
      "##ell": 1680,
      "usgthr": 1681,
      "##378": 1682,
      "Robot": 1683,
      "DownLevel": 1684,
      "UsGthrFltPipeMssGthrPipe": 1685,
      "UsGthrCtrl": 1686,
      "##atible": 1687,
      "compatible": 1688,
      "2147483": 1689,
      "MSIE": 1690,
      "##Daemon": 1691,
      "usgthrsvc": 1692,
      "DownLevelDaemon": 1693,
      "UsGthrCtrlFltPipeMssGthrPipe": 1694,
      "2147483646": 1695,
      "code": 1696,
      "##93": 1697,
      "##nN": 1698,
      "##oot": 1699,
      "##dWV": 1700,
      "##ZT": 1701,
      "##LE": 1702,
      "##ery": 1703,
      "##erence": 1704,
      "16minute": 1705,
      "preference": 1706,
      "##496": 1707,
      "##bG9": 1708,
      "##mxpdmU": 1709,
      "##pSV": 1710,
      "##2xlYWd1ZV9vZl9sZWdlbmRzLmxpdmU": 1711,
      "preferences": 1712,
      "token": 1713,
      "##ak": 1714,
      "##mk": 1715,
      "##AAAAE": 1716,
      "##YXR": 1717,
      "Cli": 1718,
      "force": 1719,
      "sp": 1720,
      "##h2e": 1721,
      "##fj": 1722,
      "##fb2": 1723,
      "##fbGV": 1724,
      "##5ha": 1725,
      "##8j": 1726,
      "##nZW": 1727,
      "##is": 1728,
      "##_O": 1729,
      "##vz1": 1730,
      "##mon": 1731,
      "##For": 1732,
      "##wdm": 1733,
      "##CI6": 1734,
      "##ZfbGV": 1735,
      "##DRI": 1736,
      "##RGF0YS": 1737,
      "##LK": 1738,
      "##NW": 1739,
      "##MT": 1740,
      "##Office": 1741,
      "##XP": 1742,
      "##loc": 1743,
      "##bnQ": 1744,
      "##JEL": 1745,
      "##ions": 1746,
      "##etpx": 1747,
      "MicrosoftOffice": 1748,
      "##87vz1": 1749,
      "datab": 1750,
      "00_18300": 1751,
      "crashpad_18300": 1752,
      "##YWx": 1753,
      "AppX54": 1754,
      "##50fj": 1755,
      "checking": 1756,
      "##8987vz1": 1757,
      "##cm9": 1758,
      "##7czd": 1759,
      "##5kcy": 1760,
      "##BYJEL": 1761,
      "##FndWV": 1762,
      "##BOH": 1763,
      "##pSVC": 1764,
      "ClipSVC": 1765,
      "spell": 1766,
      "##h2e8j": 1767,
      "##fb2ZfbGV": 1768,
      "##5ha8987vz1": 1769,
      "##nZW5kcy": 1770,
      "##_OLK": 1771,
      "##wdm50fj": 1772,
      "##DRIXP": 1773,
      "##etpx7czd": 1774,
      "MicrosoftOfficeHub": 1775,
      "00_18300_LeagueClient": 1776,
      "crashpad_18300_OLK": 1777,
      "AppX54h2e8j": 1778,
      "##BYJELBOH": 1779,
      "##FndWVfb2ZfbGV": 1780,
      "##5ha8987vz1etpx7czd": 1781,
      "##wdm50fj5ha8987vz1etpx7czd": 1782,
      "##DRIXPBYJELBOH": 1783,
      "crashpad_18300_OLKDRIXPBYJELBOH": 1784,
      "AppX54h2e8jwdm50fj5ha8987vz1etpx7czd": 1785,
      "##FndWVfb2ZfbGVnZW5kcy": 1786,
      "44": 1787,
      "7hour": 1788,
      "824": 1789,
      "url": 1790,
      "##sp": 1791,
      "##D8": 1792,
      "##UT": 1793,
      "##ly": 1794,
      "##ations": 1795,
      "15minute": 1796,
      "107": 1797,
      "820": 1798,
      "804": 1799,
      "src": 1800,
      "##cent": 1801,
      "##57": 1802,
      "##_S": 1803,
      "##F1": 1804,
      "##Qt": 1805,
      "##g5": 1806,
      "##ents": 1807,
      "##cmF": 1808,
      "832": 1809,
      "828": 1810,
      "8192": 1811,
      "EX": 1812,
      "gc": 1813,
      "level": 1814,
      "##3e": 1815,
      "##516": 1816,
      "##nn": 1817,
      "##da": 1818,
      "##Q0": 1819,
      "##AT": 1820,
      "##AAAAAAAAAAAAAAAAAAB": 1821,
      "##525": 1822,
      "##gAAAAAAAAAC": 1823,
      "metrics": 1824,
      "WinR": 1825,
      "EXE": 1826,
      "##AAAAAAAAAAAAAAAAAABg": 1827,
      "UX": 1828,
      "auth": 1829,
      "mit": 1830,
      "v8": 1831,
      "##e4": 1832,
      "##tZX": 1833,
      "##trusted": 1834,
      "##_on": 1835,
      "##dhb": 1836,
      "##GC": 1837,
      "##GV": 1838,
      "##BAAAAAAAAAA": 1839,
      "##QAAAAAAAAAAAAAAA": 1840,
      "##LX": 1841,
      "##OD": 1842,
      "##k9": 1843,
      "##igations": 1844,
      "untrusted": 1845,
      "##llbnQ": 1846,
      "##bGllbnQ": 1847,
      "##AAABAAAAAAAAAA": 1848,
      "##WVzL": 1849,
      "##2FtZX": 1850,
      "##9SaW90IEdhb": 1851,
      "Crashes": 1852,
      "##cmFt": 1853,
      "mitigations": 1854,
      "##9SaW90IEdhbWVzL": 1855,
      "=$": 1856,
      "Ar": 1857,
      "host": 1858,
      "il": 1859,
      "np": 1860,
      "qu": 1861,
      "##ter": 1862,
      "##_ch": 1863,
      "##_per": 1864,
      "##_GO": 1865,
      "##_helper": 1866,
      "##U9": 1867,
      "##Vud": 1868,
      "##My": 1869,
      "##Mv": 1870,
      "##b1": 1871,
      "##start": 1872,
      "##onents": 1873,
      "##Only": 1874,
      "##_output": 1875,
      "restart": 1876,
      "##ump": 1877,
      "##derr": 1878,
      "info": 1879,
      "##BEAT": 1880,
      ":///": 1881,
      "components": 1882,
      "##_stderr": 1883,
      "to_stderr": 1884,
      "gc_per": 1885,
      "##_on_output": 1886,
      "=${": 1887,
      "ilm": 1888,
      "npipe": 1889,
      "##_change": 1890,
      "##_GOGC": 1891,
      "restart_on_output": 1892,
      "##BEAT_GOGC": 1893,
      "gc_percent": 1894,
      "restart_on_output_change": 1895,
      "1minute": 1896,
      "Py": 1897,
      "Sp": 1898,
      "lim": 1899,
      "##eve": 1900,
      "##96": 1901,
      "##sS": 1902,
      "##d6": 1903,
      "##d8": 1904,
      "##Dem": 1905,
      "##Qcm9": 1906,
      "##Renderer": 1907,
      "##Mj": 1908,
      "##X3": 1909,
      "##2h": 1910,
      "##JvZ": 1911,
      "##Wx": 1912,
      "##Sug": 1913,
      "##stions": 1914,
      "##etri": 1915,
      "##OnDem": 1916,
      "##64583": 1917,
      "##0718": 1918,
      "##507516": 1919,
      "##23507516": 1920,
      "##gestions": 1921,
      "##areRenderer": 1922,
      "##b2R1": 1923,
      "##SitePer": 1924,
      "std": 1925,
      "##Byb2R1": 1926,
      "30496": 1927,
      "3923507516": 1928,
      "770718": 1929,
      "##ForSitePer": 1930,
      "WinRetri": 1931,
      "##OnlyOnDem": 1932,
      "Python": 1933,
      "SpareRenderer": 1934,
      "limit": 1935,
      "##eveSug": 1936,
      "##gestionsOnlyOnDem": 1937,
      "##Byb2R1Y": 1938,
      "3049664583": 1939,
      "770718868": 1940,
      "##ForSitePerProcess": 1941,
      "WinRetrieveSug": 1942,
      "SpareRendererForSitePerProcess": 1943,
      "##gestionsOnlyOnDemand": 1944,
      "WinRetrieveSuggestionsOnlyOnDemand": 1945,
      "Net": 1946,
      "VS": 1947,
      "ex": 1948,
      "##464": 1949,
      "##5y": 1950,
      "##nz": 1951,
      "##ZF": 1952,
      "##W64": 1953,
      "##GFk": 1954,
      "SysWO": 1955,
      "SysWOW64": 1956,
      "12": 1957,
      "2hour": 1958,
      "478": 1959,
      "791": 1960,
      "Shell": 1961,
      "audio": 1962,
      "cat": 1963,
      "##eed": 1964,
      "##65k": 1965,
      "##nj": 1966,
      "##ncmFt": 1967,
      "##rnz": 1968,
      "##aw": 1969,
      "##api": 1970,
      "##ov": 1971,
      "##sUI": 1972,
      "##vdC": 1973,
      "##dH": 1974,
      "##Feed": 1975,
      "##ZSI": 1976,
      "##Uml": 1977,
      "##2d1": 1978,
      "##2nn": 1979,
      "##jbGllbnQ": 1980,
      "##ZWd": 1981,
      "##ctmk": 1982,
      "##01ld": 1983,
      "AppXnj": 1984,
      "##tt2t": 1985,
      "##76pn": 1986,
      "##2Fs": 1987,
      "##uZml": 1988,
      "riotclient": 1989,
      "##IjoiQz": 1990,
      "metricbeat": 1991,
      "##vY2Fs": 1992,
      "##Y29uZml": 1993,
      "##lization": 1994,
      "##Jpb3Q": 1995,
      "##a1rnz": 1996,
      "##iOiJDOi9Qcm9": 1997,
      "riotgamesapi": 1998,
      "##RGF0YS9SaW90IEdhbWVzL": 1999,
      "##g5ctmk": 2000,
      "##3e76pn": 2001,
      "##GFkYXRhL": 2002,
      "ShellFeed": 2003,
      "##65k2d1": 2004,
      "##ncmFtRGF0YS9SaW90IEdhbWVzL": 2005,
      "##vdCB": 2006,
      "##UmlvdCB": 2007,
      "##2nng5ctmk": 2008,
      "##01ldGFkYXRhL": 2009,
      "AppXnj65k2d1": 2010,
      "##tt2t2nng5ctmk": 2011,
      "##IjoiQzov": 2012,
      "##Y29uZmln": 2013,
      "##a1rnztt2t2nng5ctmk": 2014,
      "##iOiJDOi9Qcm9ncmFtRGF0YS9SaW90IEdhbWVzL": 2015,
      "ShellFeedsUI": 2016,
      "AppXnj65k2d1a1rnztt2t2nng5ctmk": 2017,
      "##iOiJDOi9Qcm9ncmFtRGF0YS9SaW90IEdhbWVzL01ldGFkYXRhL": 2018,
      "AppXnj65k2d1a1rnztt2t2nng5ctmk3e76pn": 2019,
      "3minute": 2020,
      "776": 2021,
      "7347": 2022,
      "8D": 2023,
      "##0h": 2024,
      "##C8D": 2025,
      "##YAAAA": 2026,
      "##E12": 2027,
      "##IAAAAAAAAAA": 2028,
      "##lay": 2029,
      "##2R": 2030,
      "##49D8": 2031,
      "##3713": 2032,
      "##5094": 2033,
      "##veW": 2034,
      "##EF49D8": 2035,
      "##DBC8D": 2036,
      "##AAAAAAAAAABAAAA": 2037,
      "Sysmon": 2038,
      "sentry_": 2039,
      "##AAAAEAAAAAAAAAABAAAA": 2040,
      "query": 2041,
      "478C": 2042,
      "791E12": 2043,
      "776DBC8D": 2044,
      "8D71": 2045,
      "791E12EF49D8": 2046,
      "57": 2047,
      "63713": 2048,
      "system": 2049,
      "##fS": 2050,
      "##dX": 2051,
      "##LT": 2052,
      "##Logs": 2053,
      "##V0": 2054,
      "##VT": 2055,
      "##NsaW": 2056,
      "##ILE": 2057,
      "##jA": 2058,
      "##otal": 2059,
      "GameLogs": 2060,
      "##erver": 2061,
      "Use": 2062,
      "2040": 2063,
      "##4903": 2064,
      "##50724": 2065,
      "##64726": 2066,
      "##aWQ": 2067,
      "##10525": 2068,
      "##35464": 2069,
      "46378": 2070,
      "6371350724": 2071,
      "##NsaWVud": 2072,
      "##6472610525": 2073,
      "##354645094": 2074,
      "463786472610525": 2075,
      "6371350724354645094": 2076,
      "4637864726105254903": 2077,
      "js": 2078,
      "##98": 2079,
      "##mV": 2080,
      "##wc": 2081,
      "##BQ": 2082,
      "##Nz": 2083,
      "##2l": 2084,
      "##lX29": 2085,
      "##ci": 2086,
      "##vbGV": 2087,
      "##mX2x": 2088,
      "##HYW1": 2089,
      "##NC": 2090,
      "##JQ0": 2091,
      "##Server": 2092,
      "##reen": 2093,
      "##screen": 2094,
      "##artscreen": 2095,
      "##dGEv": 2096,
      "##RhdGEv": 2097,
      "##ZS1": 2098,
      "##pb24": 2099,
      "##pb25": 2100,
      "smartscreen": 2101,
      "##BwLX": 2102,
      "##Ijp7In": 2103,
      "##iOnsiYXBwLX": 2104,
      "##CrashHandler64": 2105,
      "##hZ3VlX29": 2106,
      "##ZSIsIn": 2107,
      "##UmlvdCBHYW1": 2108,
      "##vbGVhZ3VlX29": 2109,
      "##mX2xlZ2VuZHM": 2110,
      "##UmlvdCBHYW1lcy": 2111,
      "##vbGVhZ3VlX29mX2xlZ2VuZHM": 2112,
      "4hour": 2113,
      "Background": 2114,
      "driver": 2115,
      "spp": 2116,
      "##9u": 2117,
      "##Zh": 2118,
      "##Mz": 2119,
      "##318": 2120,
      "##aW9u": 2121,
      "Install": 2122,
      "sppsvc": 2123,
      "##xb6": 2124,
      "##70": 2125,
      "##7k9": 2126,
      "##fbf": 2127,
      "##3d": 2128,
      "##8hb": 2129,
      "##n8hb": 2130,
      "##y7k9": 2131,
      "##_id": 2132,
      "##oice": 2133,
      "##mtc": 2134,
      "##zz1": 2135,
      "##zh0": 2136,
      "##LW": 2137,
      "##US": 2138,
      "##VX": 2139,
      "##M0": 2140,
      "##MD": 2141,
      "##OCA": 2142,
      "##kn8hb": 2143,
      "##b0": 2144,
      "##ua": 2145,
      "##an0h": 2146,
      "##AAAAAA": 2147,
      "##AAAAAAAAAAAAAA": 2148,
      "##perat": 2149,
      "AppXmtc": 2150,
      "##dmzz1": 2151,
      "##2tfbf": 2152,
      "discord_v": 2153,
      "##pture": 2154,
      "##xb6dmzz1": 2155,
      "##y7k9kn8hb": 2156,
      "##OCAL": 2157,
      "##an0h2tfbf": 2158,
      "AppXmtcan0h2tfbf": 2159,
      "discord_voice": 2160,
      "##xb6dmzz1zh0": 2161,
      "##y7k9kn8hbxb6dmzz1zh0": 2162,
      "AppXmtcan0h2tfbfy7k9kn8hbxb6dmzz1zh0": 2163,
      "##fox": 2164,
      "##99": 2165,
      "##5d": 2166,
      "##ook": 2167,
      "##Hook": 2168,
      "##pc": 2169,
      "##UAAAA": 2170,
      "##itial": 2171,
      "##refox": 2172,
      "##916": 2173,
      "stand": 2174,
      "initial": 2175,
      "DiscordHook": 2176,
      "##workService": 2177,
      "##AAABAAAAAAAAAAAQAAAA": 2178,
      "NetworkService": 2179,
      "!=": 2180,
      "FILE": 2181,
      "Play": 2182,
      "cloc": 2183,
      "pci": 2184,
      "##5s": 2185,
      "##nJ": 2186,
      "##_w": 2187,
      "##_US": 2188,
      "##aliz": 2189,
      "##wd": 2190,
      "##wic": 2191,
      "##2ZS": 2192,
      "LeagueCrashHandler64": 2193,
      "en_US": 2194,
      "resp": 2195,
      "utilization": 2196,
      "power": 2197,
      "##ubGl": 2198,
      "##ZW50": 2199,
      "##aW5": 2200,
      "##dGg": 2201,
      "##iOiI": 2202,
      "temperat": 2203,
      "##Jpb3R": 2204,
      "##0sInJpb3R": 2205,
      "normaliz": 2206,
      "##Nlc3N": 2207,
      "##nNv": 2208,
      "##bG9j": 2209,
      "##2xlYWd1ZV9vZl9sZWdlbmRzLmxpdmUvbGVhZ3VlX29mX2xlZ2VuZHM": 2210,
      "##awn": 2211,
      "##iOiJDOi9Qcm9ncmFtRGF0YS9SaW90IEdhbWVzL01ldGFkYXRhL2xlYWd1ZV9vZl9sZWdlbmRzLmxpdmUvbGVhZ3VlX29mX2xlZ2VuZHM": 2212,
      "##fSwic": 2213,
      "FILEBEAT_GOGC": 2214,
      "clocks": 2215,
      "respawn": 2216,
      "##ubGl2ZS": 2217,
      "temperature": 2218,
      "normalize": 2219,
      "##iOiJDOi9Qcm9ncmFtRGF0YS9SaW90IEdhbWVzL01ldGFkYXRhL2xlYWd1ZV9vZl9sZWdlbmRzLmxpdmUvbGVhZ3VlX29mX2xlZ2VuZHMubGl2ZS": 2220,
      "root": 2221,
      "##N0": 2222,
      "##b8": 2223,
      "database": 2224,
      "##AAAAAAAAAAAAAAAAAABgAAAAAAA": 2225,
      "txt": 2226,
      "wua": 2227,
      "##0l": 2228,
      "##nal": 2229,
      "##rig": 2230,
      "##apture": 2231,
      "##FV": 2232,
      "##VU": 2233,
      "##Vu": 2234,
      "##g0": 2235,
      "##orer": 2236,
      "##plorer": 2237,
      "##Iiwi": 2238,
      "explorer": 2239,
      "##AAAAAAAAAAAAAAB": 2240,
      "10minute": 2241,
      "42": 2242,
      "nvi": 2243,
      "##oZW": 2244,
      "##s_": 2245,
      "##d4": 2246,
      "##dia": 2247,
      "##F6": 2248,
      "##F9": 2249,
      "##RlZ": 2250,
      "##TS": 2251,
      "##Vy": 2252,
      "##St": 2253,
      "##tore": 2254,
      "##AAAAAAAAADg": 2255,
      "nvidia": 2256,
      "$(": 2257,
      "4minute": 2258,
      "BUI": 2259,
      "Gra": 2260,
      "St": 2261,
      "loc": 2262,
      "min": 2263,
      "sel": 2264,
      "ui": 2265,
      "##75": 2266,
      "##67": 2267,
      "##61": 2268,
      "##9N": 2269,
      "##oAAAAAAAAAAAAAAAA": 2270,
      "##GAAAAEAAAAAAAAAABAAAA": 2271,
      "##BAAAAAAAAAAAAAAAA": 2272,
      "##HgAAAAAAAAA": 2273,
      "##Yj": 2274,
      "##LD": 2275,
      "##Mm": 2276,
      "##MAAAAAAAAAA": 2277,
      "##ON": 2278,
      "##Wl": 2279,
      "##gw": 2280,
      "##KAAAA": 2281,
      "04T23": 2282,
      "##902": 2283,
      "##gAAAAAAAAAMAAAAAAAAAA": 2284,
      "##_Riot": 2285,
      "##AQAAAAgAAAAAAAAAC": 2286,
      "##ACgw": 2287,
      "##4AAAAAAAAABAAAAAAAAAAAAAAAA": 2288,
      "##4AAAAAAAAAHgAAAAAAAAA": 2289,
      "##QAAAAAAAAAAAAAAAGAAAAEAAAAAAAAAABAAAA": 2290,
      "Arg0": 2291,
      "##YAAAAIAAAAAAAAAA": 2292,
      "##veWin": 2293,
      "##BQAAABAAAAAAAAAAAQAAAA": 2294,
      "##UAAAAQAAAAAAAAAAAAAAAGAAAAEAAAAAAAAAABAAAA": 2295,
      "##AAAAAAAAAAAAAAB4AAAAAAAAAHgAAAAAAAAA": 2296,
      "BUILD": 2297,
      "self": 2298,
      "##oAAAAAAAAAAAAAAAAAAAAAAAAAAAAAAB4AAAAAAAAAHgAAAAAAAAA": 2299,
      "##KAAAAAQAAAAgAAAAAAAAAC": 2300,
      "##gAAAAAAAAAMAAAAAAAAAA4AAAAAAAAABAAAAAAAAAAAAAAAA": 2301,
      "##YAAAAIAAAAAAAAAAgAAAAAAAAA": 2302,
      "##BQAAABAAAAAAAAAAAQAAAAYAAAAIAAAAAAAAAAgAAAAAAAAA": 2303,
      "##UAAAAQAAAAAAAAAAAAAAAGAAAAEAAAAAAAAAABAAAABQAAABAAAAAAAAAAAQAAAAYAAAAIAAAAAAAAAAgAAAAAAAAA": 2304,
      "##oAAAAAAAAAAAAAAAAAAAAAAAAAAAAAAB4AAAAAAAAAHgAAAAAAAAAKAAAAAQAAAAgAAAAAAAAAC": 2305,
      "##gAAAAAAAAAMAAAAAAAAAA4AAAAAAAAABAAAAAAAAAAAAAAAAUAAAAQAAAAAAAAAAAAAAAGAAAAEAAAAAAAAAABAAAABQAAABAAAAAAAAAAAQAAAAYAAAAIAAAAAAAAAAgAAAAAAAAA": 2306,
      "##oAAAAAAAAAAAAAAAAAAAAAAAAAAAAAAB4AAAAAAAAAHgAAAAAAAAAKAAAAAQAAAAgAAAAAAAAACgAAAAAAAAAMAAAAAAAAAA4AAAAAAAAABAAAAAAAAAAAAAAAAUAAAAQAAAAAAAAAAAAAAAGAAAAEAAAAAAAAAABAAAABQAAABAAAAAAAAAAAQAAAAYAAAAIAAAAAAAAAAgAAAAAAAAA": 2307,
      "Service": 2308,
      "ev": 2309,
      "##336": 2310,
      "##0Y": 2311,
      "##s2": 2312,
      "##Re": 2313,
      "##Rk": 2314,
      "##ND": 2315,
      "use": 2316,
      "04T16": 2317,
      "event": 2318,
      "Gaming": 2319,
      "PresenceWriter": 2320,
      "vm": 2321,
      "##e_": 2322,
      "##05": 2323,
      "##iZS": 2324,
      "##vb": 2325,
      "##m5": 2326,
      "##pb": 2327,
      "##zZX": 2328,
      "##VR": 2329,
      "##M3": 2330,
      "##MU": 2331,
      "##X1": 2332,
      "##IsIn": 2333,
      "##atch": 2334,
      "##SIg": 2335,
      "Inter": 2336,
      "##IiB": 2337,
      "##9sZWFndWVfb2ZfbGVnZW5kcy": 2338,
      "EdgeUpdate": 2339,
      "smi": 2340,
      "##nBr": 2341,
      "breadcrumb2": 2342,
      "breadcrumb1": 2343,
      "locale": 2344,
      "PresenceWriterServer": 2345,
      "Internal": 2346,
      "/?": 2347,
      "api": 2348,
      "##c0": 2349,
      "##fb": 2350,
      "##EY": 2351,
      "##key": 2352,
      "##Jz": 2353,
      "##296": 2354,
      "##196": 2355,
      "##idump": 2356,
      "##cmV": 2357,
      "##0644": 2358,
      "stdin": 2359,
      "sentry_key": 2360,
      "minidump": 2361,
      ")/": 2362,
      "34": 2363,
      "Mp": 2364,
      "fre": 2365,
      "io": 2366,
      "nv": 2367,
      "ngent": 2368,
      "rate": 2369,
      "update": 2370,
      "##fSvc": 2371,
      "##62": 2372,
      "##9I": 2373,
      "##5S": 2374,
      "##8c": 2375,
      "##ifSwic": 2376,
      "##_2": 2377,
      "##sent": 2378,
      "##sPer": 2379,
      "##CE": 2380,
      "##HS": 2381,
      "##zB": 2382,
      "##RW": 2383,
      "##TW": 2384,
      "##New": 2385,
      "##Ep": 2386,
      "##icsPer": 2387,
      "##eader": 2388,
      "consent": 2389,
      "161": 2390,
      "resource": 2391,
      "display": 2392,
      "##Services": 2393,
      "##b2N": 2394,
      "##userv": 2395,
      "230644": 2396,
      "RiotClientServices": 2397,
      "##uild": 2398,
      "1002": 2399,
      "##wZGF0": 2400,
      "##phicsPer": 2401,
      "##X3D": 2402,
      "UseNew": 2403,
      "##_war": 2404,
      "wuauserv": 2405,
      "GraphicsPer": 2406,
      "ngentask": 2407,
      "resources": 2408,
      "23064477": 2409,
      "UseNewX3D": 2410,
      "GraphicsPerfSvc": 2411,
      "24": 2412,
      "949": 2413,
      "find": 2414,
      "##coder": 2415,
      "##ii": 2416,
      "##_en": 2417,
      "##Q1": 2418,
      "##M1": 2419,
      "##ET": 2420,
      "##Ig": 2421,
      "##Web": 2422,
      "##str": 2423,
      "##ran": 2424,
      "##alone": 2425,
      "##079": 2426,
      "##804": 2427,
      "gpu_en": 2428,
      "netsh": 2429,
      "network": 2430,
      "OfficeC": 2431,
      "server": 2432,
      "findstr": 2433,
      "##coder_helper": 2434,
      "gpu_encoder_helper": 2435,
      "02": 2436,
      "115": 2437,
      "136": 2438,
      "49": 2439,
      "total": 2440,
      "##e2": 2441,
      "##tdG": 2442,
      "##c29": 2443,
      "##header": 2444,
      "##fX": 2445,
      "##4N": 2446,
      "##0x": 2447,
      "##84": 2448,
      "##ir": 2449,
      "##_ho": 2450,
      "##ab": 2451,
      "##aG9": 2452,
      "##o_d": 2453,
      "##dF9": 2454,
      "##Cmd": 2455,
      "##pZW50": 2456,
      "##Z2FtZX": 2457,
      "##Ymx": 2458,
      "##YmU": 2459,
      "##R0": 2460,
      "##L1": 2461,
      "##l9": 2462,
      "##ling": 2463,
      "##update": 2464,
      "##PSI": 2465,
      "##4677": 2466,
      "##2814": 2467,
      "##2xpZW50": 2468,
      "##lbl9": 2469,
      "##aW90Z2FtZX": 2470,
      "discord_ho": 2471,
      "##3Rf": 2472,
      "##Iiwic": 2473,
      "##Event": 2474,
      "##HRf": 2475,
      "##_to_d": 2476,
      "##F1b": 2477,
      "DiscordHookHelper": 2478,
      "##aW5n": 2479,
      "MpCmd": 2480,
      "discord_hook": 2481,
      "##_to_df": 2482,
      "MpCmdRun": 2483,
      "58": 2484,
      "87": 2485,
      "94": 2486,
      "if": 2487,
      "im": 2488,
      "orig": 2489,
      "##eg": 2490,
      "##B1": 2491,
      "##pk": 2492,
      "##Nati": 2493,
      "##Mu": 2494,
      "##OT": 2495,
      "##25": 2496,
      "##Store": 2497,
      "04T15": 2498,
      "##284": 2499,
      "31": 2500,
      "50": 2501,
      "HK": 2502,
      "War": 2503,
      "];": 2504,
      "cwd": 2505,
      "node": 2506,
      "vmx": 2507,
      "##ting": 2508,
      "##c2V": 2509,
      "##hdG": 2510,
      "##3J": 2511,
      "##5q": 2512,
      "##sbG": 2513,
      "##Gh": 2514,
      "##Uz": 2515,
      "##VV": 2516,
      "##lI": 2517,
      "##lJ": 2518,
      "##ual": 2519,
      "##);": 2520,
      "##UHJvZ": 2521,
      "0x4": 2522,
      "firefox": 2523,
      "##2460": 2524,
      "##dGl": 2525,
      "##HVj": 2526,
      "##2RClient": 2527,
      "json": 2528,
      "OfficeC2RClient": 2529,
      "DiscordHookHelper64": 2530,
      "import": 2531,
      "Ad": 2532,
      "Platform": 2533,
      "##e8": 2534,
      "##c9": 2535,
      "##73": 2536,
      "##f4": 2537,
      "##9In": 2538,
      "##0P": 2539,
      "##060": 2540,
      "##obe": 2541,
      "##sf": 2542,
      "##mJ": 2543,
      "##webview": 2544,
      "##Down": 2545,
      "##RD": 2546,
      "##Th": 2547,
      "##U1": 2548,
      "##jN": 2549,
      "##SJ": 2550,
      "##Set": 2551,
      "##176": 2552,
      "##368": 2553,
      "##420": 2554,
      "##374": 2555,
      "##ZXJz": 2556,
      "msedgewebview": 2557,
      "##IjE": 2558,
      "##verw": 2559,
      "##0iM": 2560,
      "UsGthrFltPipeMssGthrPipe_S": 2561,
      "UsGthrCtrlFltPipeMssGthrPipe_S": 2562,
      "443": 2563,
      "Python38": 2564,
      "##tings": 2565,
      "Adobe": 2566,
      "09": 2567,
      "22": 2568,
      "342": 2569,
      "317": 2570,
      "51": 2571,
      "ALL": 2572,
      "Audio": 2573,
      "VM": 2574,
      "eyJ": 2575,
      "gl": 2576,
      "lite": 2577,
      "pid": 2578,
      "rg": 2579,
      "rads": 2580,
      "##tIn": 2581,
      "##tY29uZmln": 2582,
      "##c8": 2583,
      "##715": 2584,
      "##fZ": 2585,
      "##3Qt": 2586,
      "##66": 2587,
      "##9B": 2588,
      "##0sIm": 2589,
      "##8vY": 2590,
      "##nMv": 2591,
      "##naW9u": 2592,
      "##iI6": 2593,
      "##ydG": 2594,
      "##yYW1": 2595,
      "##yYXR": 2596,
      "##y5y": 2597,
      "##yZWd": 2598,
      "##a8": 2599,
      "##vt": 2600,
      "##vbi": 2601,
      "##mpi": 2602,
      "##mF1b": 2603,
      "##Fwc": 2604,
      "##FydG": 2605,
      "##BZ": 2606,
      "##Bz": 2607,
      "##Build": 2608,
      "##Zl": 2609,
      "##ZGF0YS": 2610,
      "##QW": 2611,
      "##R2FtZX": 2612,
      "##TY": 2613,
      "##Ag": 2614,
      "##LU": 2615,
      "##LnJ": 2616,
      "##Utc": 2617,
      "##URhdGEv": 2618,
      "##VwZGF0": 2619,
      "##Not": 2620,
      "##Mt": 2621,
      "##OQ": 2622,
      "##kIjoi": 2623,
      "##Imx": 2624,
      "##ICE": 2625,
      "##la": 2626,
      "##bCI6": 2627,
      "##2p": 2628,
      "##jm": 2629,
      "##ucH": 2630,
      "##WF": 2631,
      "##SGF": 2632,
      "##gR2FtZX": 2633,
      "##level": 2634,
      "##rott": 2635,
      "##214": 2636,
      "##InJpb3Q": 2637,
      "##ZW5": 2638,
      "disabled": 2639,
      "##aW50": 2640,
      "##bGU": 2641,
      "##bGl": 2642,
      "##YXQ": 2643,
      "##104": 2644,
      "##load": 2645,
      "##ZXRh": 2646,
      "##lciI6": 2647,
      "##Oi8vY": 2648,
      "##GF0dX": 2649,
      "##BEYXRhL": 2650,
      "##8846": 2651,
      "##sIn0sIn": 2652,
      "##hbW": 2653,
      "##hbURhdGEv": 2654,
      "settings": 2655,
      "remoting": 2656,
      "##iOiJsZW": 2657,
      "##Imh0": 2658,
      "##SUN": 2659,
      "##cy55": 2660,
      "##GF0YSI6eyJ": 2661,
      "##YW1sIn0sIn": 2662,
      "##zdGF0dX": 2663,
      "##TkN": 2664,
      "##Y29tIn": 2665,
      "##SI6Im": 2666,
      "##iLCJyZWd": 2667,
      "csv_to_df": 2668,
      "region": 2669,
      "##cHBEYXRhL": 2670,
      "##Ijp7Im": 2671,
      "##NlcnMv": 2672,
      "##wZy5y": 2673,
      "##JlL": 2674,
      "##JlYXQ": 2675,
      "##YWxz": 2676,
      "##FndWVfb2ZfbGVnZW5kcyIsIn": 2677,
      "##2hlciI6": 2678,
      "##JvZHVj": 2679,
      "##Byb2R1Y3Rf": 2680,
      "##Byb2R1Y3Qt": 2681,
      "##dHBz": 2682,
      "##jbGllbnQtY29uZmln": 2683,
      "##ZWdyYXR": 2684,
      "##vY2FsL1": 2685,
      "##Jpb3QgR2FtZX": 2686,
      "##IjoiQzovVX": 2687,
      "##IjoiQzovUHJvZ": 2688,
      "##Y29uZmlnLnJ": 2689,
      "##aWQiOiJsZW": 2690,
      "##ZS1zdGF0dX": 2691,
      "##pb24iOnsiYXBwLX": 2692,
      "##pb25fZ": 2693,
      "##Ijp7InVy": 2694,
      "##ZSIsInByb2R1Y3Qt": 2695,
      "##UmlvdCBHYW1lcy9N": 2696,
      "##pc2hlciI6": 2697,
      "standalone": 2698,
      "Player": 2699,
      "##VuX1": 2700,
      "##oZWFydG": 2701,
      "##RlZmF1b": 2702,
      "##iZS9B": 2703,
      "##zZXR0": 2704,
      "##cmVnaW9u": 2705,
      "##c29u": 2706,
      "##0xvY2FsL1": 2707,
      "##dF9zZXR0": 2708,
      "##Ymxpc2hlciI6": 2709,
      "##2xpZW50Y29uZmlnLnJ": 2710,
      "##lbl9VU": 2711,
      "##aW90Z2FtZXMu": 2712,
      "##HRfcmVnaW9u": 2713,
      "##aW5ncy55": 2714,
      "##B1Ymxpc2hlciI6": 2715,
      "##3JhbURhdGEv": 2716,
      "##5qc29u": 2717,
      "##Thrott": 2718,
      "AudioService": 2719,
      "VMware": 2720,
      "eyJjbGllbnQtY29uZmln": 2721,
      "rga": 2722,
      "##0sImRlZmF1b": 2723,
      "##yYW1iZS9B": 2724,
      "##BZ0l": 2725,
      "##ZGF0YS9sZWFndWVfb2ZfbGVnZW5kcy": 2726,
      "##VwZGF0ZS1zdGF0dX": 2727,
      "##Noti": 2728,
      "##bCI6Imh0": 2729,
      "##ucHJvZHVj": 2730,
      "##SGFyYW1iZS9B": 2731,
      "##InJpb3QiLCJyZWd": 2732,
      "##aW50ZWdyYXR": 2733,
      "##ZXRhZGF0YS9sZWFndWVfb2ZfbGVnZW5kcy": 2734,
      "##Oi8vY2xpZW50Y29uZmlnLnJ": 2735,
      "##YW1sIn0sInByb2R1Y3Rf": 2736,
      "##Y29tIn0sImRlZmF1b": 2737,
      "##cHBEYXRhL0xvY2FsL1": 2738,
      "##NlcnMvSGFyYW1iZS9B": 2739,
      "##wZy5yaW90Z2FtZXMu": 2740,
      "##FndWVfb2ZfbGVnZW5kcyIsInB1Ymxpc2hlciI6": 2741,
      "##dHBzOi8vY2xpZW50Y29uZmlnLnJ": 2742,
      "##Jpb3QgR2FtZXMv": 2743,
      "##IjoiQzovVXNlcnMvSGFyYW1iZS9B": 2744,
      "##IjoiQzovUHJvZ3JhbURhdGEv": 2745,
      "##aWQiOiJsZWFndWVfb2ZfbGVnZW5kcyIsInB1Ymxpc2hlciI6": 2746,
      "##pb24iOnsiYXBwLXVwZGF0ZS1zdGF0dX": 2747,
      "##pb25fZGF0YSI6eyJ": 2748,
      "##Ijp7InVybCI6Imh0": 2749,
      "##ZSIsInByb2R1Y3QtaW50ZWdyYXR": 2750,
      "##UmlvdCBHYW1lcy9NZXRhZGF0YS9sZWFndWVfb2ZfbGVnZW5kcy": 2751,
      "##VuX1VT": 2752,
      "##oZWFydGJlYXQ": 2753,
      "##dF9zZXR0aW5ncy55": 2754,
      "##HRfcmVnaW9uIjoi": 2755,
      "##Throttling": 2756,
      "eyJjbGllbnQtY29uZmlnIjp7InVybCI6Imh0": 2757,
      "##ucHJvZHVjdF9zZXR0aW5ncy55": 2758,
      "##InJpb3QiLCJyZWdpb25fZGF0YSI6eyJ": 2759,
      "##YW1sIn0sInByb2R1Y3RfaWQiOiJsZWFndWVfb2ZfbGVnZW5kcyIsInB1Ymxpc2hlciI6": 2760,
      "##Y29tIn0sImRlZmF1bHRfcmVnaW9uIjoi": 2761,
      "##cHBEYXRhL0xvY2FsL1Jpb3QgR2FtZXMv": 2762,
      "##wZy5yaW90Z2FtZXMuY29tIn0sImRlZmF1bHRfcmVnaW9uIjoi": 2763,
      "##dHBzOi8vY2xpZW50Y29uZmlnLnJwZy5yaW90Z2FtZXMuY29tIn0sImRlZmF1bHRfcmVnaW9uIjoi": 2764,
      "##IjoiQzovVXNlcnMvSGFyYW1iZS9BcHBEYXRhL0xvY2FsL1Jpb3QgR2FtZXMv": 2765,
      "##IjoiQzovUHJvZ3JhbURhdGEvUmlvdCBHYW1lcy9NZXRhZGF0YS9sZWFndWVfb2ZfbGVnZW5kcy": 2766,
      "##pb24iOnsiYXBwLXVwZGF0ZS1zdGF0dXM": 2767,
      "##ZSIsInByb2R1Y3QtaW50ZWdyYXRpb24iOnsiYXBwLXVwZGF0ZS1zdGF0dXM": 2768,
      "eyJjbGllbnQtY29uZmlnIjp7InVybCI6Imh0dHBzOi8vY2xpZW50Y29uZmlnLnJwZy5yaW90Z2FtZXMuY29tIn0sImRlZmF1bHRfcmVnaW9uIjoi": 2769,
      "##ucHJvZHVjdF9zZXR0aW5ncy55YW1sIn0sInByb2R1Y3RfaWQiOiJsZWFndWVfb2ZfbGVnZW5kcyIsInB1Ymxpc2hlciI6": 2770,
      "##ucHJvZHVjdF9zZXR0aW5ncy55YW1sIn0sInByb2R1Y3RfaWQiOiJsZWFndWVfb2ZfbGVnZW5kcyIsInB1Ymxpc2hlciI6InJpb3QiLCJyZWdpb25fZGF0YSI6eyJ": 2771,
      "129": 2772,
      "4318": 2773,
      "56": 2774,
      "SDX": 2775,
      "Vis": 2776,
      "vend": 2777,
      "##td4": 2778,
      "##he": 2779,
      "##xNC": 2780,
      "##7ak": 2781,
      "##5b2": 2782,
      "##848": 2783,
      "##n7ak": 2784,
      "##ive": 2785,
      "##ae": 2786,
      "##a2": 2787,
      "##ser": 2788,
      "##wser": 2789,
      "##C9": 2790,
      "##Td": 2791,
      "##AM": 2792,
      "##U5": 2793,
      "##VF": 2794,
      "##lin": 2795,
      "##291": 2796,
      "##j30": 2797,
      "##1n7ak": 2798,
      "##qrc": 2799,
      "##pp1n7ak": 2800,
      "##rowser": 2801,
      "##328": 2802,
      "##ress": 2803,
      "##ass2": 2804,
      "##298846": 2805,
      "##31qrc": 2806,
      "revi": 2807,
      "##sset": 2808,
      "04T13": 2809,
      "AppXass2": 2810,
      "##ys_p": 2811,
      "##_sys_p": 2812,
      "##7c5b2": 2813,
      "##303": 2814,
      "##dcj30": 2815,
      "##06pp1n7ak": 2816,
      "##iIG": 2817,
      "0x7ff7c5b2": 2818,
      "##AAAAAAAAADo": 2819,
      "##5y31qrc": 2820,
      "8710": 2821,
      "orig_sys_p": 2822,
      "msedgewebview2": 2823,
      "342298846": 2824,
      "3179": 2825,
      "##jm06pp1n7ak": 2826,
      "SDXHelper": 2827,
      "Visual": 2828,
      "vendor": 2829,
      "##td4dcj30": 2830,
      "revision": 2831,
      "AppXass2jm06pp1n7ak": 2832,
      "0x7ff7c5b280": 2833,
      "##5y31qrc54": 2834,
      "orig_sys_path": 2835,
      "##td4dcj305y31qrc54": 2836,
      "AppXass2jm06pp1n7aktd4dcj305y31qrc54": 2837,
      "08": 2838,
      "28": 2839,
      "92": 2840,
      "==": 2841,
      "AUT": 2842,
      "II": 2843,
      "LOCAL": 2844,
      "SER": 2845,
      "cred": 2846,
      "capture": 2847,
      "mks": 2848,
      "##tk": 2849,
      "##cGR": 2850,
      "##ham": 2851,
      "##752": 2852,
      "##f5": 2853,
      "##532": 2854,
      "##5al": 2855,
      "##8f": 2856,
      "##sit": 2857,
      "##mh": 2858,
      "##mo": 2859,
      "##mer": 2860,
      "##B6": 2861,
      "##BZF": 2862,
      "##HOR": 2863,
      "##ps": 2864,
      "##Yz": 2865,
      "##QnBr": 2866,
      "##RK": 2867,
      "##TA": 2868,
      "##VICE": 2869,
      "##OTI": 2870,
      "##El": 2871,
      "##kZW": 2872,
      "##ITY": 2873,
      "##JHV": 2874,
      "##Wa": 2875,
      "##Wp": 2876,
      "##Sandbox": 2877,
      "##1i": 2878,
      "##ential": 2879,
      "##129": 2880,
      "##879": 2881,
      "##805": 2882,
      "##posit": 2883,
      "##ZX3R": 2884,
      "command": 2885,
      "manager": 2886,
      "##a1p": 2887,
      "##YXJZX3R": 2888,
      "##ZTU9": 2889,
      "##ake": 2890,
      "##NWE": 2891,
      "##Wx0": 2892,
      "##mVh": 2893,
      "##F6QnBr": 2894,
      "##Reposit": 2895,
      "vmware": 2896,
      "##GhQ": 2897,
      "##Download": 2898,
      "AUTHOR": 2899,
      "SERVICE": 2900,
      "credential": 2901,
      "capture_helper": 2902,
      "mksSandbox": 2903,
      "##cGRhdG": 2904,
      "##hammer": 2905,
      "##5alF6QnBr": 2906,
      "##BZFJHV": 2907,
      "##El5alF6QnBr": 2908,
      "##YXJZX3R3": 2909,
      "##ZTU9BZFJHV": 2910,
      "##Repository": 2911,
      "AUTHORITY": 2912,
      "##El5alF6QnBrYXJZX3R3": 2913,
      "##ZTU9BZFJHVEl5alF6QnBrYXJZX3R3": 2914,
      "47": 2915,
      "42814": 2916,
      "AB": 2917,
      "AU": 2918,
      "Cal": 2919,
      "Overw": 2920,
      "audi": 2921,
      "blitz": 2922,
      "boot": 2923,
      "browser": 2924,
      "ec": 2925,
      "par": 2926,
      "spe": 2927,
      "##c3": 2928,
      "##cul": 2929,
      "##5D": 2930,
      "##5lX": 2931,
      "##DI": 2932,
      "##T00": 2933,
      "##Og": 2934,
      "##Occ": 2935,
      "##Et": 2936,
      "##E1": 2937,
      "##lan": 2938,
      "##lus": 2939,
      "##jYW": 2940,
      "##odg": 2941,
      "##12_LeagueClientUx": 2942,
      "1753": 2943,
      "##62149": 2944,
      "##075": 2945,
      "##5262149": 2946,
      "##ateNati": 2947,
      "noheader": 2948,
      "1684964791715": 2949,
      "04T21": 2950,
      "04T22": 2951,
      "192": 2952,
      "1952": 2953,
      "Office16": 2954,
      "##_de": 2955,
      "05T00": 2956,
      "##17848": 2957,
      "0x708": 2958,
      "0x7e4": 2959,
      "##6817848": 2960,
      "##Processor": 2961,
      "##ODG": 2962,
      "##veWinOcc": 2963,
      "##4677303": 2964,
      "##7526817848": 2965,
      "428147526817848": 2966,
      "AUDI": 2967,
      "Calcul": 2968,
      "audiodg": 2969,
      "##lusion": 2970,
      "17535262149": 2971,
      "##ateNativeWinOcc": 2972,
      "##467730386": 2973,
      "4281475268178482460": 2974,
      "AUDIODG": 2975,
      "CalculateNativeWinOcc": 2976,
      "17535262149467730386": 2977,
      "CalculateNativeWinOcclusion": 2978,
      "000": 2979,
      "35": 2980,
      "4B": 2981,
      "52": 2982,
      ":\"": 2983,
      "Cent": 2984,
      "De": 2985,
      "Driver": 2986,
      "Feat": 2987,
      "HAR": 2988,
      "Pan": 2989,
      "System": 2990,
      "SAAAAAAAAADg": 2991,
      "as": 2992,
      "background": 2993,
      "bus": 2994,
      "dra": 2995,
      "fl": 2996,
      "fan": 2997,
      "gr": 2998,
      "rp": 2999,
      "##ex": 3000,
      "##e34": 3001,
      "##ejA": 3002,
      "##taWQ": 3003,
      "##c23": 3004,
      "##ctor": 3005,
      "##cted": 3006,
      "##hdm": 3007,
      "##xy": 3008,
      "##x64_": 3009,
      "##7d": 3010,
      "##fbG9j": 3011,
      "##33": 3012,
      "##3_": 3013,
      "##3Rh": 3014,
      "##3TkN": 3015,
      "##9r": 3016,
      "##9fX": 3017,
      "##4iOiJ": 3018,
      "##4iLCJ": 3019,
      "##0M": 3020,
      "##0lt": 3021,
      "##0Fwc": 3022,
      "##5a1p": 3023,
      "##8F": 3024,
      "##nZ": 3025,
      "##nYW1": 3026,
      "##nbG9": 3027,
      "##iYWxz": 3028,
      "##ycy": 3029,
      "##yaX": 3030,
      "##_M": 3031,
      "##_060": 3032,
      "##rZ": 3033,
      "##rZX": 3034,
      "##a86": 3035,
      "##a87": 3036,
      "##amd64_": 3037,
      "##aSI6eyJ": 3038,
      "##oIjoiQzovVXNlcnMvSGFyYW1iZS9BcHBEYXRhL0xvY2FsL1Jpb3QgR2FtZXMv": 3039,
      "##sZSIsIn": 3040,
      "##vUmlvdCBHYW1lcy": 3041,
      "##mI": 3042,
      "##m1": 3043,
      "##dLCJ": 3044,
      "##dHV": 3045,
      "##dJQ0": 3046,
      "##dWx0": 3047,
      "##wW": 3048,
      "##wYXR": 3049,
      "##wZXJz": 3050,
      "##waSI6eyJ": 3051,
      "##wvUmlvdCBHYW1lcy": 3052,
      "##CRI": 3053,
      "##Bvc": 3054,
      "##HIN": 3055,
      "##pQW": 3056,
      "##pbGU": 3057,
      "##ZJQ0": 3058,
      "##ZSI6Im": 3059,
      "##ZpbGU": 3060,
      "##DW": 3061,
      "##zR": 3062,
      "##zb2": 3063,
      "##zIjoiQzovUHJvZ3JhbURhdGEvUmlvdCBHYW1lcy9NZXRhZGF0YS9sZWFndWVfb2ZfbGVnZW5kcy": 3064,
      "##RQ": 3065,
      "##TF": 3066,
      "##TJ": 3067,
      "##TG9": 3068,
      "##TGV": 3069,
      "##TVR": 3070,
      "##TZJQ0": 3071,
      "##L2xlYWd1ZV9vZl9sZWdlbmRzLmxpdmU": 3072,
      "##LSUN": 3073,
      "##Lmh": 3074,
      "##Ulh": 3075,
      "##Vw": 3076,
      "##Vc2V": 3077,
      "##Nld": 3078,
      "##NpS": 3079,
      "##MV": 3080,
      "##MlJ": 3081,
      "##OG": 3082,
      "##OE": 3083,
      "##EYXRhL": 3084,
      "##EiLCJ": 3085,
      "##ERhdGEv": 3086,
      "##kiOiJ": 3087,
      "##X2F": 3088,
      "##ler": 3089,
      "##lad": 3090,
      "##lYXJ": 3091,
      "##lProcessor": 3092,
      "##bjA": 3093,
      "##2ZSIsInByb2R1Y3QtaW50ZWdyYXRpb24iOnsiYXBwLXVwZGF0ZS1zdGF0dXM": 3094,
      "##jZS1": 3095,
      "##J6": 3096,
      "##WU": 3097,
      "##WW": 3098,
      "##WOR": 3099,
      "##WTI": 3100,
      "##WyJ": 3101,
      "##PTI": 3102,
      "##Ses": 3103,
      "##1dGg": 3104,
      "##1Nlc3N": 3105,
      "##1rZX": 3106,
      "##ralProcessor": 3107,
      "##onit": 3108,
      "##tected": 3109,
      "##DSmpi": 3110,
      "DESCRI": 3111,
      "WINWOR": 3112,
      "##act": 3113,
      "##unit": 3114,
      "##itch": 3115,
      "##rector": 3116,
      "FileRepository": 3117,
      "handler": 3118,
      "##640": 3119,
      "##f_amd64_": 3120,
      "director": 3121,
      "prefix": 3122,
      "##mdzIjoiQzovUHJvZ3JhbURhdGEvUmlvdCBHYW1lcy9NZXRhZGF0YS9sZWFndWVfb2ZfbGVnZW5kcy": 3123,
      "##004": 3124,
      "##In0sInJpb3R": 3125,
      "##vice_id": 3126,
      "clientcon": 3127,
      "##ZW4iOiJ": 3128,
      "used": 3129,
      "nounit": 3130,
      "##60c23": 3131,
      "proxy": 3132,
      "##aWEp": 3133,
      "##bGFi": 3134,
      "sub_de": 3135,
      "##ther": 3136,
      "##ureSet": 3137,
      "##_LOCAL": 3138,
      "##504": 3139,
      "inf_amd64_": 3140,
      "##_dis": 3141,
      "##4688": 3142,
      "##lc2F": 3143,
      "##566": 3144,
      "##ExlZ2VuZHM": 3145,
      "##zLmp": 3146,
      "##hone": 3147,
      "##vZ0lt": 3148,
      "##CJ9fX": 3149,
      "##ldzB": 3150,
      "##SU5D": 3151,
      "##bGVfbG9j": 3152,
      "##GF0Y2h": 3153,
      "setupact": 3154,
      "##mlsZSIsIn": 3155,
      "##I6WyJ": 3156,
      "##TkEiLCJ": 3157,
      "WinEvent": 3158,
      "##G9mI": 3159,
      "##b660c23": 3160,
      "RiotClientUxRender": 3161,
      "##nQiOiI": 3162,
      "##_version": 3163,
      "##ARE": 3164,
      "##51cGRhdG": 3165,
      "##ACHIN": 3166,
      "0x7ff7": 3167,
      "##9SaW90IENsaWVud": 3168,
      "##dC5qc29u": 3169,
      "##WOTJ": 3170,
      "##aXN0": 3171,
      "##aXZl": 3172,
      "##iOiJDOi9Vc2V": 3173,
      "##iOnsiYXV0": 3174,
      "##yJdLCJ": 3175,
      "##saW5lX": 3176,
      "##X2xvY2Fs": 3177,
      "##YXJhbW": 3178,
      "##lcyI6WyJ": 3179,
      "##SI6eyJhdm": 3180,
      "##hZ3VlI": 3181,
      "##HRpb": 3182,
      "##sImF1": 3183,
      "##FpWTI": 3184,
      "##FpbGFi": 3185,
      "##phdGl": 3186,
      "##CI6Imx": 3187,
      "##YWxlcyI6WyJ": 3188,
      "##UTR": 3189,
      "##sSWp": 3190,
      "##WxW": 3191,
      "##jbGllbnQiOnsiYXBwLX": 3192,
      "##NsaWVudCI6Imx": 3193,
      "##2lkIjoi": 3194,
      "##pb24taWQ": 3195,
      "##pb25zL": 3196,
      "##Ijp7InNlc3N": 3197,
      "BackgroundDownload": 3198,
      "driver_version": 3199,
      "##ZhdWx0": 3200,
      "##5sb2N": 3201,
      "##5saXZl": 3202,
      "##dGgtdG": 3203,
      "##0sInJpb3RjbGllbnQiOnsiYXBwLX": 3204,
      "##nNvIjp7Im": 3205,
      "##nNvX2F": 3206,
      "##bG9ja2": 3207,
      "##iOiJDOi9Qcm9ncmFtRGF0YS9SaW90IEdhbWVzL01ldGFkYXRhL2xlYWd1ZV9vZl9sZWdlbmRzLmxpdmUvbGVhZ3VlX29mX2xlZ2VuZHMubGl2ZS51cGRhdG": 3208,
      "##iOiJDOi9Qcm9ncmFtRGF0YS9SaW90IEdhbWVzL01ldGFkYXRhL2xlYWd1ZV9vZl9sZWdlbmRzLmxpdmUvbGVhZ3VlX29mX2xlZ2VuZHMubGl2ZS5sb2N": 3209,
      "##AAAAAAAAAAAAAAAAAABgAAAAAAAoAAAAAAAAAAAAAAAAAAAAAAAAAAAAAAB4AAAAAAAAAHgAAAAAAAAAKAAAAAQAAAAgAAAAAAAAACgAAAAAAAAAMAAAAAAAAAA4AAAAAAAAABAAAAAAAAAAAAAAAAUAAAAQAAAAAAAAAAAAAAAGAAAAEAAAAAAAAAABAAAABQAAABAAAAAAAAAAAQAAAAYAAAAIAAAAAAAAAAgAAAAAAAAA": 3210,
      "##IiwibG9ja2": 3211,
      "##Wl3TkN": 3212,
      "##ACgwAAAAAAAAAAAAAAAAAABgAAAAAAAoAAAAAAAAAAAAAAAAAAAAAAAAAAAAAAB4AAAAAAAAAHgAAAAAAAAAKAAAAAQAAAAgAAAAAAAAACgAAAAAAAAAMAAAAAAAAAA4AAAAAAAAABAAAAAAAAAAAAAAAAUAAAAQAAAAAAAAAAAAAAAGAAAAEAAAAAAAAAABAAAABQAAABAAAAAAAAAAAQAAAAYAAAAIAAAAAAAAAAgAAAAAAAAA": 3213,
      "##0YmVh": 3214,
      "##vbCJ9fX": 3215,
      "##EY_LOCAL": 3216,
      "free": 3217,
      "nv_dis": 3218,
      "##9IYXJhbW": 3219,
      "##5SWl3TkN": 3220,
      "##ifSwicnNvX2F": 3221,
      "##aG9yaX": 3222,
      "##IiwicnNvIjp7Im": 3223,
      "HKEY_LOCAL": 3224,
      "##sbGNpS": 3225,
      "##9In19": 3226,
      "##42023": 3227,
      "##vbi1rZX": 3228,
      "##Utc3Rh": 3229,
      "##OQSI6eyJhdm": 3230,
      "##ZW5jZS1": 3231,
      "##bGl2ZSIsInByb2R1Y3QtaW50ZWdyYXRpb24iOnsiYXBwLXVwZGF0ZS1zdGF0dXM": 3232,
      "##JlL0Fwc": 3233,
      "##lbl9VUyJdLCJ": 3234,
      "##BZ0lDSmpi": 3235,
      "##Notific": 3236,
      "##VuX1VTIiwicnNvIjp7Im": 3237,
      "##oZWFydGJlYXQiOiJDOi9Vc2V": 3238,
      "eyJjbGllbnQtY29uZmlnIjp7InVybCI6Imh0dHBzOi8vY2xpZW50Y29uZmlnLnJwZy5yaW90Z2FtZXMuY29tIn0sImRlZmF1bHRfcmVnaW9uIjoiTkEiLCJ": 3239,
      "##ucHJvZHVjdF9zZXR0aW5ncy55YW1sIn0sInByb2R1Y3RfaWQiOiJsZWFndWVfb2ZfbGVnZW5kcyIsInB1Ymxpc2hlciI6InJpb3QiLCJyZWdpb25fZGF0YSI6eyJOQSI6eyJhdm": 3240,
      "##C9EYXRhL": 3241,
      "##tkejA": 3242,
      "##kZWZhdWx0": 3243,
      "echo": 3244,
      "speed": 3245,
      "##jYWwvUmlvdCBHYW1lcy": 3246,
      "CentralProcessor": 3247,
      "Detected": 3248,
      "DriverStore": 3249,
      "FeatureSet": 3250,
      "HARDW": 3251,
      "Panther": 3252,
      "SAAAAAAAAADgACgwAAAAAAAAAAAAAAAAAABgAAAAAAAoAAAAAAAAAAAAAAAAAAAAAAAAAAAAAAB4AAAAAAAAAHgAAAAAAAAAKAAAAAQAAAAgAAAAAAAAACgAAAAAAAAAMAAAAAAAAAA4AAAAAAAAABAAAAAAAAAAAAAAAAUAAAAQAAAAAAAAAAAAAAAGAAAAEAAAAAAAAAABAAAABQAAABAAAAAAAAAAAQAAAAYAAAAIAAAAAAAAAAgAAAAAAAAA": 3253,
      "bus_id": 3254,
      "draw": 3255,
      "flag": 3256,
      "rpg": 3257,
      "##e34a87": 3258,
      "##9rZW4iOiJ": 3259,
      "##4iLCJoZWFydGJlYXQiOiJDOi9Vc2V": 3260,
      "##5a1pWOTJ": 3261,
      "##nYW1lc2F": 3262,
      "##nbG9iYWxz": 3263,
      "##ycy9IYXJhbW": 3264,
      "##_MACHIN": 3265,
      "##_06042023": 3266,
      "##rZmlsZSIsIn": 3267,
      "##a86b660c23": 3268,
      "##oIjoiQzovVXNlcnMvSGFyYW1iZS9BcHBEYXRhL0xvY2FsL1Jpb3QgR2FtZXMvTGV": 3269,
      "##m1sbGNpS": 3270,
      "##dHVzLmp": 3271,
      "##dJQ0FpWTI": 3272,
      "##wWm1sbGNpS": 3273,
      "##wYXRoIjoiQzovVXNlcnMvSGFyYW1iZS9BcHBEYXRhL0xvY2FsL1Jpb3QgR2FtZXMvTGV": 3274,
      "##wZXJzaXN0": 3275,
      "##waSI6eyJwZXJzaXN0": 3276,
      "##BvcnQiOiI": 3277,
      "##pQWdJQ0FpWTI": 3278,
      "##ZSI6ImVuX1VTIiwicnNvIjp7Im": 3279,
      "##ZpbGUiOiJDOi9Qcm9ncmFtRGF0YS9SaW90IEdhbWVzL01ldGFkYXRhL2xlYWd1ZV9vZl9sZWdlbmRzLmxpdmUvbGVhZ3VlX29mX2xlZ2VuZHMubGl2ZS5sb2N": 3280,
      "##zb24iLCJoZWFydGJlYXQiOiJDOi9Vc2V": 3281,
      "##TG9jYWwvUmlvdCBHYW1lcy": 3282,
      "##TZJQ0p": 3283,
      "##L2xlYWd1ZV9vZl9sZWdlbmRzLmxpdmUucHJvZHVjdF9zZXR0aW5ncy55YW1sIn0sInByb2R1Y3RfaWQiOiJsZWFndWVfb2ZfbGVnZW5kcyIsInB1Ymxpc2hlciI6InJpb3QiLCJyZWdpb25fZGF0YSI6eyJOQSI6eyJhdm": 3284,
      "##LSUNBZ0lDSmpi": 3285,
      "##LmhlYXJ": 3286,
      "##UlhWW": 3287,
      "##NldHRpb": 3288,
      "##MlJsSWp": 3289,
      "##ERhdGEvTG9jYWwvUmlvdCBHYW1lcy": 3290,
      "##kiOiJldzB": 3291,
      "##bjA9In19": 3292,
      "##PTION": 3293,
      "##Session": 3294,
      "##1dGgiOnsiYXV0": 3295,
      "##1Nlc3Npb25zL": 3296,
      "##onitor": 3297,
      "DESCRIPTION": 3298,
      "WINWORD": 3299,
      "directory": 3300,
      "##mdzIjoiQzovUHJvZ3JhbURhdGEvUmlvdCBHYW1lcy9NZXRhZGF0YS9sZWFndWVfb2ZfbGVnZW5kcy5saXZl": 3301,
      "##In0sInJpb3RnYW1lc2F": 3302,
      "clientconfig": 3303,
      "nounits": 3304,
      "##aWEpwWm1sbGNpS": 3305,
      "sub_device_id": 3306,
      "inf_amd64_e34a87": 3307,
      "##4688_06042023": 3308,
      "##ExlZ2VuZHMifSwicnNvX2F": 3309,
      "##vZ0ltUlhWW": 3310,
      "##SU5DbjA9In19": 3311,
      "##bGVfbG9jYWxlcyI6WyJ": 3312,
      "##GF0Y2hsaW5lX": 3313,
      "WinEvent4688_06042023": 3314,
      "##G9mIExlZ2VuZHMifSwicnNvX2F": 3315,
      "##9SaW90IENsaWVudC9EYXRhL": 3316,
      "##dC5qc29uIiwibG9ja2": 3317,
      "##X2xvY2FsZSI6ImVuX1VTIiwicnNvIjp7Im": 3318,
      "##hZ3VlIG9mIExlZ2VuZHMifSwicnNvX2F": 3319,
      "##sImF1dGgtdG": 3320,
      "##FpbGFibGVfbG9jYWxlcyI6WyJ": 3321,
      "##phdGlvbi1rZX": 3322,
      "##NsaWVudCI6ImxvbCJ9fX": 3323,
      "##2lkIjoibGl2ZSIsInByb2R1Y3QtaW50ZWdyYXRpb24iOnsiYXBwLXVwZGF0ZS1zdGF0dXM": 3324,
      "##pb24taWQiOiI": 3325,
      "##Ijp7InNlc3Npb24taWQiOiI": 3326,
      "##0sInJpb3RjbGllbnQiOnsiYXBwLXBvcnQiOiI": 3327,
      "##iOiJDOi9Qcm9ncmFtRGF0YS9SaW90IEdhbWVzL01ldGFkYXRhL2xlYWd1ZV9vZl9sZWdlbmRzLmxpdmUvbGVhZ3VlX29mX2xlZ2VuZHMubGl2ZS51cGRhdGUtc3Rh": 3328,
      "##0YmVhdC5qc29uIiwibG9ja2": 3329,
      "nv_dispi": 3330,
      "##5SWl3TkNpQWdJQ0FpWTI": 3331,
      "##aG9yaXphdGlvbi1rZX": 3332,
      "HKEY_LOCAL_MACHIN": 3333,
      "##ZW5jZS1wYXRoIjoiQzovVXNlcnMvSGFyYW1iZS9BcHBEYXRhL0xvY2FsL1Jpb3QgR2FtZXMvTGV": 3334,
      "##JlL0FwcERhdGEvTG9jYWwvUmlvdCBHYW1lcy": 3335,
      "##lbl9VUyJdLCJkZWZhdWx0": 3336,
      "eyJjbGllbnQtY29uZmlnIjp7InVybCI6Imh0dHBzOi8vY2xpZW50Y29uZmlnLnJwZy5yaW90Z2FtZXMuY29tIn0sImRlZmF1bHRfcmVnaW9uIjoiTkEiLCJnbG9iYWxz": 3337,
      "##tkejA5SWl3TkNpQWdJQ0FpWTI": 3338,
      "HARDWARE": 3339,
      "##5a1pWOTJaWEpwWm1sbGNpS": 3340,
      "##ycy9IYXJhbWJlL0FwcERhdGEvTG9jYWwvUmlvdCBHYW1lcy": 3341,
      "##rZmlsZSIsInNldHRpb": 3342,
      "##dHVzLmpzb24iLCJoZWFydGJlYXQiOiJDOi9Vc2V": 3343,
      "##waSI6eyJwZXJzaXN0ZW5jZS1wYXRoIjoiQzovVXNlcnMvSGFyYW1iZS9BcHBEYXRhL0xvY2FsL1Jpb3QgR2FtZXMvTGV": 3344,
      "##ZpbGUiOiJDOi9Qcm9ncmFtRGF0YS9SaW90IEdhbWVzL01ldGFkYXRhL2xlYWd1ZV9vZl9sZWdlbmRzLmxpdmUvbGVhZ3VlX29mX2xlZ2VuZHMubGl2ZS5sb2NrZmlsZSIsInNldHRpb": 3345,
      "##L2xlYWd1ZV9vZl9sZWdlbmRzLmxpdmUucHJvZHVjdF9zZXR0aW5ncy55YW1sIn0sInByb2R1Y3RfaWQiOiJsZWFndWVfb2ZfbGVnZW5kcyIsInB1Ymxpc2hlciI6InJpb3QiLCJyZWdpb25fZGF0YSI6eyJOQSI6eyJhdmFpbGFibGVfbG9jYWxlcyI6WyJ": 3346,
      "##LSUNBZ0lDSmpiMlJsSWp": 3347,
      "##LmhlYXJ0YmVhdC5qc29uIiwibG9ja2": 3348,
      "##kiOiJldzBLSUNBZ0lDSmpiMlJsSWp": 3349,
      "##1dGgiOnsiYXV0aG9yaXphdGlvbi1rZX": 3350,
      "##mdzIjoiQzovUHJvZ3JhbURhdGEvUmlvdCBHYW1lcy9NZXRhZGF0YS9sZWFndWVfb2ZfbGVnZW5kcy5saXZlL2xlYWd1ZV9vZl9sZWdlbmRzLmxpdmUucHJvZHVjdF9zZXR0aW5ncy55YW1sIn0sInByb2R1Y3RfaWQiOiJsZWFndWVfb2ZfbGVnZW5kcyIsInB1Ymxpc2hlciI6InJpb3QiLCJyZWdpb25fZGF0YSI6eyJOQSI6eyJhdmFpbGFibGVfbG9jYWxlcyI6WyJ": 3351,
      "##In0sInJpb3RnYW1lc2FwaSI6eyJwZXJzaXN0ZW5jZS1wYXRoIjoiQzovVXNlcnMvSGFyYW1iZS9BcHBEYXRhL0xvY2FsL1Jpb3QgR2FtZXMvTGV": 3352,
      "inf_amd64_e34a87a86b660c23": 3353,
      "##vZ0ltUlhWWGhQ": 3354,
      "##GF0Y2hsaW5lX2lkIjoibGl2ZSIsInByb2R1Y3QtaW50ZWdyYXRpb24iOnsiYXBwLXVwZGF0ZS1zdGF0dXM": 3355,
      "##9SaW90IENsaWVudC9EYXRhL1Nlc3Npb25zL": 3356,
      "##X2xvY2FsZSI6ImVuX1VTIiwicnNvIjp7ImNsaWVudCI6ImxvbCJ9fX": 3357,
      "##hZ3VlIG9mIExlZ2VuZHMifSwicnNvX2F1dGgiOnsiYXV0aG9yaXphdGlvbi1rZX": 3358,
      "##sImF1dGgtdG9rZW4iOiJ": 3359,
      "##iOiJDOi9Qcm9ncmFtRGF0YS9SaW90IEdhbWVzL01ldGFkYXRhL2xlYWd1ZV9vZl9sZWdlbmRzLmxpdmUvbGVhZ3VlX29mX2xlZ2VuZHMubGl2ZS51cGRhdGUtc3RhdHVzLmpzb24iLCJoZWFydGJlYXQiOiJDOi9Vc2V": 3360,
      "HKEY_LOCAL_MACHINE": 3361,
      "##lbl9VUyJdLCJkZWZhdWx0X2xvY2FsZSI6ImVuX1VTIiwicnNvIjp7ImNsaWVudCI6ImxvbCJ9fX": 3362,
      "eyJjbGllbnQtY29uZmlnIjp7InVybCI6Imh0dHBzOi8vY2xpZW50Y29uZmlnLnJwZy5yaW90Z2FtZXMuY29tIn0sImRlZmF1bHRfcmVnaW9uIjoiTkEiLCJnbG9iYWxzIjp7InNlc3Npb24taWQiOiI": 3363,
      "##tkejA5SWl3TkNpQWdJQ0FpWTI5a1pWOTJaWEpwWm1sbGNpS": 3364,
      "##ycy9IYXJhbWJlL0FwcERhdGEvTG9jYWwvUmlvdCBHYW1lcy9SaW90IENsaWVudC9EYXRhL1Nlc3Npb25zL": 3365,
      "##ZpbGUiOiJDOi9Qcm9ncmFtRGF0YS9SaW90IEdhbWVzL01ldGFkYXRhL2xlYWd1ZV9vZl9sZWdlbmRzLmxpdmUvbGVhZ3VlX29mX2xlZ2VuZHMubGl2ZS5sb2NrZmlsZSIsInNldHRpbmdzIjoiQzovUHJvZ3JhbURhdGEvUmlvdCBHYW1lcy9NZXRhZGF0YS9sZWFndWVfb2ZfbGVnZW5kcy5saXZlL2xlYWd1ZV9vZl9sZWdlbmRzLmxpdmUucHJvZHVjdF9zZXR0aW5ncy55YW1sIn0sInByb2R1Y3RfaWQiOiJsZWFndWVfb2ZfbGVnZW5kcyIsInB1Ymxpc2hlciI6InJpb3QiLCJyZWdpb25fZGF0YSI6eyJOQSI6eyJhdmFpbGFibGVfbG9jYWxlcyI6WyJ": 3366,
      "##LmhlYXJ0YmVhdC5qc29uIiwibG9ja2ZpbGUiOiJDOi9Qcm9ncmFtRGF0YS9SaW90IEdhbWVzL01ldGFkYXRhL2xlYWd1ZV9vZl9sZWdlbmRzLmxpdmUvbGVhZ3VlX29mX2xlZ2VuZHMubGl2ZS5sb2NrZmlsZSIsInNldHRpbmdzIjoiQzovUHJvZ3JhbURhdGEvUmlvdCBHYW1lcy9NZXRhZGF0YS9sZWFndWVfb2ZfbGVnZW5kcy5saXZlL2xlYWd1ZV9vZl9sZWdlbmRzLmxpdmUucHJvZHVjdF9zZXR0aW5ncy55YW1sIn0sInByb2R1Y3RfaWQiOiJsZWFndWVfb2ZfbGVnZW5kcyIsInB1Ymxpc2hlciI6InJpb3QiLCJyZWdpb25fZGF0YSI6eyJOQSI6eyJhdmFpbGFibGVfbG9jYWxlcyI6WyJ": 3367,
      "##kiOiJldzBLSUNBZ0lDSmpiMlJsSWpvZ0ltUlhWWGhQ": 3368,
      "##In0sInJpb3RnYW1lc2FwaSI6eyJwZXJzaXN0ZW5jZS1wYXRoIjoiQzovVXNlcnMvSGFyYW1iZS9BcHBEYXRhL0xvY2FsL1Jpb3QgR2FtZXMvTGVhZ3VlIG9mIExlZ2VuZHMifSwicnNvX2F1dGgiOnsiYXV0aG9yaXphdGlvbi1rZX": 3369,
      "##GF0Y2hsaW5lX2lkIjoibGl2ZSIsInByb2R1Y3QtaW50ZWdyYXRpb24iOnsiYXBwLXVwZGF0ZS1zdGF0dXMiOiJDOi9Qcm9ncmFtRGF0YS9SaW90IEdhbWVzL01ldGFkYXRhL2xlYWd1ZV9vZl9sZWdlbmRzLmxpdmUvbGVhZ3VlX29mX2xlZ2VuZHMubGl2ZS51cGRhdGUtc3RhdHVzLmpzb24iLCJoZWFydGJlYXQiOiJDOi9Vc2V": 3370,
      "##lbl9VUyJdLCJkZWZhdWx0X2xvY2FsZSI6ImVuX1VTIiwicnNvIjp7ImNsaWVudCI6ImxvbCJ9fX0sInJpb3RjbGllbnQiOnsiYXBwLXBvcnQiOiI": 3371,
      "##tkejA5SWl3TkNpQWdJQ0FpWTI5a1pWOTJaWEpwWm1sbGNpSTZJQ0p": 3372,
      "##LmhlYXJ0YmVhdC5qc29uIiwibG9ja2ZpbGUiOiJDOi9Qcm9ncmFtRGF0YS9SaW90IEdhbWVzL01ldGFkYXRhL2xlYWd1ZV9vZl9sZWdlbmRzLmxpdmUvbGVhZ3VlX29mX2xlZ2VuZHMubGl2ZS5sb2NrZmlsZSIsInNldHRpbmdzIjoiQzovUHJvZ3JhbURhdGEvUmlvdCBHYW1lcy9NZXRhZGF0YS9sZWFndWVfb2ZfbGVnZW5kcy5saXZlL2xlYWd1ZV9vZl9sZWdlbmRzLmxpdmUucHJvZHVjdF9zZXR0aW5ncy55YW1sIn0sInByb2R1Y3RfaWQiOiJsZWFndWVfb2ZfbGVnZW5kcyIsInB1Ymxpc2hlciI6InJpb3QiLCJyZWdpb25fZGF0YSI6eyJOQSI6eyJhdmFpbGFibGVfbG9jYWxlcyI6WyJlbl9VUyJdLCJkZWZhdWx0X2xvY2FsZSI6ImVuX1VTIiwicnNvIjp7ImNsaWVudCI6ImxvbCJ9fX0sInJpb3RjbGllbnQiOnsiYXBwLXBvcnQiOiI": 3373,
      "##In0sInJpb3RnYW1lc2FwaSI6eyJwZXJzaXN0ZW5jZS1wYXRoIjoiQzovVXNlcnMvSGFyYW1iZS9BcHBEYXRhL0xvY2FsL1Jpb3QgR2FtZXMvTGVhZ3VlIG9mIExlZ2VuZHMifSwicnNvX2F1dGgiOnsiYXV0aG9yaXphdGlvbi1rZXkiOiJldzBLSUNBZ0lDSmpiMlJsSWpvZ0ltUlhWWGhQ": 3374,
      "##GF0Y2hsaW5lX2lkIjoibGl2ZSIsInByb2R1Y3QtaW50ZWdyYXRpb24iOnsiYXBwLXVwZGF0ZS1zdGF0dXMiOiJDOi9Qcm9ncmFtRGF0YS9SaW90IEdhbWVzL01ldGFkYXRhL2xlYWd1ZV9vZl9sZWdlbmRzLmxpdmUvbGVhZ3VlX29mX2xlZ2VuZHMubGl2ZS51cGRhdGUtc3RhdHVzLmpzb24iLCJoZWFydGJlYXQiOiJDOi9Vc2Vycy9IYXJhbWJlL0FwcERhdGEvTG9jYWwvUmlvdCBHYW1lcy9SaW90IENsaWVudC9EYXRhL1Nlc3Npb25zL": 3375,
      "54": 3376,
      "Reg": 3377,
      "Zd6": 3378,
      "monitor": 3379,
      "##tion": 3380,
      "##cb": 3381,
      "##x2e": 3382,
      "##95": 3383,
      "##92": 3384,
      "##9j": 3385,
      "##972": 3386,
      "##iew": 3387,
      "##_ii": 3388,
      "##aa": 3389,
      "##v0P": 3390,
      "##Gro": 3391,
      "##GAAAAAAAAAA": 3392,
      "##B4": 3393,
      "##Bx2e": 3394,
      "##Dir": 3395,
      "##z0i": 3396,
      "##Upd": 3397,
      "##View": 3398,
      "##ki": 3399,
      "##ky": 3400,
      "##ba": 3401,
      "##223": 3402,
      "##gen": 3403,
      "##ration": 3404,
      "##ater": 3405,
      "##ases": 3406,
      "##ock": 3407,
      "##shOg": 3408,
      "##606": 3409,
      "##48c": 3410,
      "databases": 3411,
      "##QtN": 3412,
      "##gAAAAAAAAACAAAAAAAAAA": 3413,
      "02_": 3414,
      "##e2v0P": 3415,
      "##RQBx2e": 3416,
      "Zd6RQBx2e": 3417,
      "##9je2v0P": 3418,
      "##Group": 3419,
      "##Updater": 3420,
      "##shOg9je2v0P": 3421,
      "Zd6RQBx2eshOg9je2v0P": 3422,
      "Zd6RQBx2eshOg9je2v0PIA": 3423,
      "40": 3424,
      "952": 3425,
      "A8F": 3426,
      "B78": 3427,
      "Frame": 3428,
      "Media": 3429,
      "NET": 3430,
      "fetch": 3431,
      "nati": 3432,
      "ngen": 3433,
      "v4": 3434,
      "##e1": 3435,
      "##hK": 3436,
      "##5c": 3437,
      "##529": 3438,
      "##8902": 3439,
      "##yp": 3440,
      "##rement": 3441,
      "##dU": 3442,
      "##HX3": 3443,
      "##Rl": 3444,
      "##A8D": 3445,
      "##UV": 3446,
      "##VJ": 3447,
      "##lY": 3448,
      "##bc": 3449,
      "##bu": 3450,
      "##PAC": 3451,
      "##SE": 3452,
      "##SPAC": 3453,
      "##115": 3454,
      "##187": 3455,
      "##att": 3456,
      "WORKSPAC": 3457,
      "##ClientUx": 3458,
      "LocalService": 3459,
      "##448": 3460,
      "##ard": 3461,
      "fir": 3462,
      "rev": 3463,
      "##peri": 3464,
      "113": 3465,
      "##392": 3466,
      "##udnZ": 3467,
      "230": 3468,
      "##775": 3469,
      "RiotClientCrashHandler": 3470,
      "##mxBY": 3471,
      "##547": 3472,
      "##bf2": 3473,
      "30319": 3474,
      "##LCJy": 3475,
      "##ZVM0": 3476,
      "##59079": 3477,
      "requirement": 3478,
      "##lock": 3479,
      "##s_lock": 3480,
      "##_RiotClientUx": 3481,
      "##WebView": 3482,
      "##RDhK": 3483,
      "09CA": 3484,
      "##TdB": 3485,
      "AB8902": 3486,
      "4BB6": 3487,
      "##VwRDhK": 3488,
      "##OEQtN": 3489,
      "flags": 3490,
      "##SessionService": 3491,
      "A8F59079": 3492,
      "B78D": 3493,
      "Framework": 3494,
      "MediaSessionService": 3495,
      "native": 3496,
      "##HX3ZVM0": 3497,
      "##A8D5": 3498,
      "WORKSPACE": 3499,
      "##udnZHX3ZVM0": 3500,
      "##mxBYTdB": 3501,
      "requirements_lock": 3502,
      "AB8902B4": 3503,
      "##VwRDhKOEQtN": 3504,
      "A8F59079A8D5": 3505,
      "##udnZHX3ZVM0VwRDhKOEQtN": 3506,
      "##udnZHX3ZVM0VwRDhKOEQtNmxBYTdB": 3507,
      "65": 3508,
      "79": 3509,
      "74": 3510,
      "97": 3511,
      "96": 3512,
      "90": 3513,
      "Mus": 3514,
      "byp": 3515,
      "cor": 3516,
      "secure": 3517,
      "wer": 3518,
      "worker": 3519,
      "##4V": 3520,
      "##519": 3521,
      "##ist": 3522,
      "##af": 3523,
      "##CB": 3524,
      "##pr": 3525,
      "##pY": 3526,
      "##DA": 3527,
      "##Qk": 3528,
      "##Tran": 3529,
      "##Uy": 3530,
      "##UM": 3531,
      "##NG": 3532,
      "##NE": 3533,
      "##OM": 3534,
      "##bH": 3535,
      "##gress": 3536,
      "##324": 3537,
      "0x1": 3538,
      "##assc": 3539,
      "##olf": 3540,
      "1608": 3541,
      "##29b": 3542,
      "##reaming": 3543,
      "##148": 3544,
      "##b2a": 3545,
      "##2087": 3546,
      "streaming": 3547,
      "1236": 3548,
      "BackgroundTran": 3549,
      "standard": 3550,
      "##AAAAAAAAADgAAA": 3551,
      "##7334": 3552,
      "##sferHost": 3553,
      "Overwolf": 3554,
      "##Notification": 3555,
      "MusNotification": 3556,
      "bypassc": 3557,
      "cors": 3558,
      "BackgroundTransferHost": 3559,
      "bypasscsp": 3560,
      "123": 3561,
      "37": 3562,
      "59": 3563,
      "Com": 3564,
      "En": 3565,
      "Lo": 3566,
      "SAAAAAAAAADo": 3567,
      "Ski": 3568,
      "SUM": 3569,
      "asset": 3570,
      "dmp": 3571,
      "sh": 3572,
      "##e49": 3573,
      "##ten": 3574,
      "##f9": 3575,
      "##f8": 3576,
      "##3M": 3577,
      "##3b": 3578,
      "##404": 3579,
      "##net": 3580,
      "##_19": 3581,
      "##r3d": 3582,
      "##oy": 3583,
      "##dW": 3584,
      "##d5d": 3585,
      "##GJ": 3586,
      "##Frame": 3587,
      "##F69": 3588,
      "##Cra": 3589,
      "##pBuild": 3590,
      "##Y2": 3591,
      "##Qx": 3592,
      "##QAAA": 3593,
      "##RV": 3594,
      "##Token": 3595,
      "##Lz": 3596,
      "##NTk": 3597,
      "##Met": 3598,
      "##Mode": 3599,
      "##MiI": 3600,
      "##MON": 3601,
      "##X11": 3602,
      "##I5": 3603,
      "##bd6": 3604,
      "##242": 3605,
      "##224": 3606,
      "##Port": 3607,
      "##SK": 3608,
      "##ffers": 3609,
      "##ff36": 3610,
      "##stat": 3611,
      "##cept": 3612,
      "GameID": 3613,
      "UseD": 3614,
      "Locale": 3615,
      "##ableCrash": 3616,
      "Product": 3617,
      "1774": 3618,
      "##003": 3619,
      "##erNameMode": 3620,
      "##241": 3621,
      "##AuthToken": 3622,
      "##AAAQAAA": 3623,
      "##aseDir": 3624,
      "##ide": 3625,
      "##34104": 3626,
      "RiotClientPort": 3627,
      "RiotClientAuthToken": 3628,
      "##_18": 3629,
      "##de8f": 3630,
      "##001F69": 3631,
      "##b3J": 3632,
      "GameBaseDir": 3633,
      "model": 3634,
      "##ARM": 3635,
      "##_store": 3636,
      "##AAAAAAAAAAAAAAAAAABgAAAQAAA": 3637,
      "##d82087": 3638,
      "sentry_client": 3639,
      "UseMet": 3640,
      "##709": 3641,
      "##916_LeagueClientUx": 3642,
      "PlayerNameMode": 3643,
      "##aptureService": 3644,
      "##ACgwAAAAAAAAAAAAAAAAAABgAAAQAAA": 3645,
      "UseNewX3DFrame": 3646,
      "GraphicsPerfSvcGroup": 3647,
      "11508": 3648,
      "##284e49": 3649,
      "PlatformID": 3650,
      "AdobeARM": 3651,
      "PlayerID": 3652,
      "08d82087": 3653,
      "parse": 3654,
      "##075ff36": 3655,
      "000001F69": 3656,
      "##except": 3657,
      "Region": 3658,
      "##ocket": 3659,
      "##buffers": 3660,
      "wermgr": 3661,
      "1236347": 3662,
      "##7334075ff36": 3663,
      "EnableCrash": 3664,
      "LoL": 3665,
      "SAAAAAAAAADoACgwAAAAAAAAAAAAAAAAAABgAAAQAAA": 3666,
      "SkipBuild": 3667,
      "SUMMON": 3668,
      "asset_store": 3669,
      "##netstat": 3670,
      "##r3dlog": 3671,
      "UseDX11": 3672,
      "##de8f7334075ff36": 3673,
      "UseMetal": 3674,
      "UseNewX3DFramebuffers": 3675,
      "##284e49de8f7334075ff36": 3676,
      "08d82087284e49de8f7334075ff36": 3677,
      "##exception": 3678,
      "EnableCrashpad": 3679,
      "SAAAAAAAAADoACgwAAAAAAAAAAAAAAAAAABgAAAQAAAoAAAAAAAAAAAAAAAAAAAAAAAAAAAAAAB4AAAAAAAAAHgAAAAAAAAAKAAAAAQAAAAgAAAAAAAAACgAAAAAAAAAMAAAAAAAAAA4AAAAAAAAABAAAAAAAAAAAAAAAAUAAAAQAAAAAAAAAAAAAAAGAAAAEAAAAAAAAAABAAAABQAAABAAAAAAAAAAAQAAAAYAAAAIAAAAAAAAAAgAAAAAAAAA": 3680,
      "SUMMONER": 3681,
      "##netstats": 3682,
      "08d82087284e49de8f7334075ff36d5d": 3683,
      "137": 3684,
      "38": 3685,
      "45": 3686,
      "41": 3687,
      "618": 3688,
      "78": 3689,
      "Fi": 3690,
      "Fall": 3691,
      "Ke": 3692,
      "Rn": 3693,
      "The": 3694,
      "add": 3695,
      "a39": 3696,
      "ver": 3697,
      "##e07": 3698,
      "##tZh": 3699,
      "##cV": 3700,
      "##h4V": 3701,
      "##97": 3702,
      "##944": 3703,
      "##5214": 3704,
      "##_37": 3705,
      "##ound": 3706,
      "##out": 3707,
      "##Found": 3708,
      "##D0i": 3709,
      "##ze": 3710,
      "##Qot": 3711,
      "##RG": 3712,
      "##RmJ": 3713,
      "##No": 3714,
      "##IH": 3715,
      "##gQ": 3716,
      "##1k": 3717,
      "##183": 3718,
      "##lean": 3719,
      "##ystone": 3720,
      "##AWQot": 3721,
      "##ign": 3722,
      "##DOM": 3723,
      "##ationLi": 3724,
      "144": 3725,
      "##866": 3726,
      "1548": 3727,
      "=--": 3728,
      "crashpad_": 3729,
      "##d1d": 3730,
      "PBE1": 3731,
      "##5391": 3732,
      "##697": 3733,
      "and": 3734,
      "stdout": 3735,
      "##5dbf2": 3736,
      "##TSjN": 3737,
      "Studio": 3738,
      "##336_LeagueClientUx": 3739,
      "asar": 3740,
      "61814": 3741,
      "Firefox": 3742,
      "Keystone": 3743,
      "RnTSjN": 3744,
      "a39e07": 3745,
      "##tZhAWQot": 3746,
      "##h4VgQ": 3747,
      "##FoundationLi": 3748,
      "##RmJh4VgQ": 3749,
      "KeystoneFoundationLi": 3750,
      "RnTSjNtZhAWQot": 3751,
      "a39e075dbf2": 3752,
      "KeystoneFoundationLiveWin": 3753,
      "RnTSjNtZhAWQotRmJh4VgQ": 3754,
      "()": 3755,
      "));": 3756,
      "513": 3757,
      "937": 3758,
      "954": 3759,
      "930": 3760,
      "979": 3761,
      "Batt": 3762,
      "Cor": 3763,
      "MO": 3764,
      "Phone": 3765,
      "Task": 3766,
      "Total": 3767,
      "[:": 3768,
      "c0": 3769,
      "dic": 3770,
      "dump": 3771,
      "embedd": 3772,
      "e69": 3773,
      "nord": 3774,
      "saf": 3775,
      "##eF": 3776,
      "##ep": 3777,
      "##eft": 3778,
      "##t4": 3779,
      "##cF": 3780,
      "##case": 3781,
      "##cwd": 3782,
      "##hc": 3783,
      "##hN": 3784,
      "##750": 3785,
      "##fc": 3786,
      "##337": 3787,
      "##6b": 3788,
      "##5w": 3789,
      "##512": 3790,
      "##yNW": 3791,
      "##y1i": 3792,
      "##_f": 3793,
      "##rW": 3794,
      "##a4": 3795,
      "##a0": 3796,
      "##aF": 3797,
      "##vpn": 3798,
      "##ma": 3799,
      "##mb": 3800,
      "##we": 3801,
      "##wi": 3802,
      "##path": 3803,
      "##plevel": 3804,
      "##Z_L": 3805,
      "##DU": 3806,
      "##Del": 3807,
      "##Q3": 3808,
      "##TE": 3809,
      "##T2": 3810,
      "##VZ": 3811,
      "##NU": 3812,
      "##Nk": 3813,
      "##NS": 3814,
      "##I2": 3815,
      "##I1": 3816,
      "##lA": 3817,
      "##b29": 3818,
      "##JS": 3819,
      "##WQ": 3820,
      "##WFp": 3821,
      "##injec": 3822,
      "##ury": 3823,
      "##212": 3824,
      "##tide": 3825,
      "##12004": 3826,
      "##648": 3827,
      "##6434": 3828,
      "##151": 3829,
      "1580": 3830,
      "##800": 3831,
      "##ad8c": 3832,
      "##poration": 3833,
      "lamb": 3834,
      "##b2d1d": 3835,
      "##aWx": 3836,
      "##376": 3837,
      "star": 3838,
      "##lcnN": 3839,
      "##Experi": 3840,
      "##de29b": 3841,
      "##enceHost": 3842,
      "##hbm": 3843,
      "##892": 3844,
      "Root": 3845,
      "##2e48c": 3846,
      "##pb249": 3847,
      "getcwd": 3848,
      "##iIH": 3849,
      "normcase": 3850,
      "normpath": 3851,
      "toplevel": 3852,
      "##GluZ": 3853,
      "##ZT0i": 3854,
      "##MTQ": 3855,
      "##da6b": 3856,
      "##b8b29": 3857,
      "##Studio": 3858,
      "##e_x64_": 3859,
      "##0iMSIg": 3860,
      "##ae775": 3861,
      "VisualStudio": 3862,
      "##moury": 3863,
      "backgroundupdate": 3864,
      "0x7ff7da6b": 3865,
      "());": 3866,
      "Corporation": 3867,
      "MOZ_L": 3868,
      "PhoneExperi": 3869,
      "[:]": 3870,
      "dict": 3871,
      "embedded": 3872,
      "e69de29b": 3873,
      "nordvpn": 3874,
      "safe_x64_": 3875,
      "##5wYmU": 3876,
      "##injector": 3877,
      "##6434b8b29": 3878,
      "##ad8c2e48c": 3879,
      "lambda": 3880,
      "##b2d1d6434b8b29": 3881,
      "##lcnNpb249": 3882,
      "##ae775ad8c2e48c": 3883,
      "0x7ff7da6b80": 3884,
      "MOZ_LOG": 3885,
      "PhoneExperienceHost": 3886,
      "e69de29bb2d1d6434b8b29": 3887,
      "safe_x64_injector": 3888,
      "##ae775ad8c2e48c5391": 3889,
      "e69de29bb2d1d6434b8b29ae775ad8c2e48c5391": 3890,
      "01": 3891,
      "0805": 3892,
      "1868": 3893,
      "244": 3894,
      "391": 3895,
      "7176": 3896,
      "All": 3897,
      "MET": 3898,
      "media": 3899,
      "pt": 3900,
      "##tG": 3901,
      "##cGF": 3902,
      "##cz0i": 3903,
      "##hC": 3904,
      "##hub": 3905,
      "##hWeb": 3906,
      "##718": 3907,
      "##3336": 3908,
      "##9d": 3909,
      "##82": 3910,
      "##yj": 3911,
      "##_g": 3912,
      "##G5": 3913,
      "##CBEAT_GOGC": 3914,
      "##CIg": 3915,
      "##Bk": 3916,
      "##pThrottling": 3917,
      "##Dg": 3918,
      "##YAAAAAAAAAAAAAAAAAABgAAAAAAA": 3919,
      "##QAAAAAAAAAAAAAAAA": 3920,
      "##RM": 3921,
      "##App": 3922,
      "##UpThrottling": 3923,
      "##NoZW": 3924,
      "##OAAAAEAAAAAAAAAABAAAA": 3925,
      "##EE": 3926,
      "##EgAAAAAAAAA": 3927,
      "##lC": 3928,
      "##232": 3929,
      "##uc": 3930,
      "##PSJ": 3931,
      "##SAAAAAAAAAA": 3932,
      "##Socket": 3933,
      "##gy": 3934,
      "##1h": 3935,
      "##188": 3936,
      "##1LT": 3937,
      "##lect": 3938,
      "##327": 3939,
      "##AAAAgAAAAAAAAACAAAAAAAAAA": 3940,
      "##owAg": 3941,
      "168": 3942,
      "16519": 3943,
      "##914": 3944,
      "##6429": 3945,
      "##860": 3946,
      "dist": 3947,
      "##154": 3948,
      "USER": 3949,
      "##362": 3950,
      "##ess": 3951,
      "##276": 3952,
      "##1901": 3953,
      "##1955": 3954,
      "##196429": 3955,
      "##AAAAAAAAAEgAAAAAAAAA": 3956,
      "##YWN": 3957,
      "##101955": 3958,
      "##505": 3959,
      "inject": 3960,
      "##248": 3961,
      "Inten": 3962,
      "##565": 3963,
      "##770": 3964,
      "wsl": 3965,
      "pylan": 3966,
      "##897": 3967,
      "##WithWeb": 3968,
      "##69892": 3969,
      "##RICBEAT_GOGC": 3970,
      "##siveW": 3971,
      "0x3c0": 3972,
      "0x3bc": 3973,
      "##3Nz": 3974,
      "##MTg": 3975,
      "##QAAAAAAAAAAAAAAAOAAAAEAAAAAAAAAABAAAA": 3976,
      "##AAABAAAAAAAAAAGAAAAAAAAAA": 3977,
      "##YAAAAAg": 3978,
      "##LTA": 3979,
      "##9161901": 3980,
      "DiscordHook64": 3981,
      "42_1": 3982,
      "Sto": 3983,
      "##296101955": 3984,
      "51392": 3985,
      "##ThrottlingWithWeb": 3986,
      "##iveThrottlingWithWeb": 3987,
      "##akeUpThrottling": 3988,
      "##gressiveThrottlingWithWeb": 3989,
      "##4049161901": 3990,
      "7176196429": 3991,
      "AllowAg": 3992,
      "METRICBEAT_GOGC": 3993,
      "##BkYXR": 3994,
      "##DgAAAAgAAAAAAAAACAAAAAAAAAA": 3995,
      "##YAAAAAAAAAAAAAAAAAABgAAAAAAAw": 3996,
      "##QAAAAAAAAAAAAAAAAAAAAAAAAAEgAAAAAAAAA": 3997,
      "##SAAAAAAAAAAYAAAAAg": 3998,
      "##lectron": 3999,
      "165194049161901": 4000,
      "IntensiveW": 4001,
      "pylance": 4002,
      "##QAAAAAAAAAAAAAAAOAAAAEAAAAAAAAAABAAAADgAAAAgAAAAAAAAACAAAAAAAAAA": 4003,
      "##AAABAAAAAAAAAAGAAAAAAAAAAQAAAAAAAAAAAAAAAOAAAAEAAAAAAAAAABAAAADgAAAAgAAAAAAAAACAAAAAAAAAA": 4004,
      "##gressiveThrottlingWithWebSocket": 4005,
      "7176196429296101955": 4006,
      "AllowAggressiveThrottlingWithWebSocket": 4007,
      "##QAAAAAAAAAAAAAAAAAAAAAAAAAEgAAAAAAAAASAAAAAAAAAAYAAAAAg": 4008,
      "16519404916190169892": 4009,
      "IntensiveWakeUpThrottling": 4010,
      "##QAAAAAAAAAAAAAAAAAAAAAAAAAEgAAAAAAAAASAAAAAAAAAAYAAAAAgAAABAAAAAAAAAAGAAAAAAAAAAQAAAAAAAAAAAAAAAOAAAAEAAAAAAAAAABAAAADgAAAAgAAAAAAAAACAAAAAAAAAA": 4011,
      "27": 4012,
      "4f": 4013,
      "CaptureService": 4014,
      "False": 4015,
      "SC": 4016,
      "Set": 4017,
      "YM": 4018,
      "d3d": 4019,
      "ip": 4020,
      "##eG9": 4021,
      "##cery": 4022,
      "##xLW": 4023,
      "##760": 4024,
      "##fk": 4025,
      "##f1": 4026,
      "##3a": 4027,
      "##300": 4028,
      "##3ZD": 4029,
      "##6U": 4030,
      "##6a8": 4031,
      "##9IjE": 4032,
      "##9ZTU9BZFJHVEl5alF6QnBrYXJZX3R3": 4033,
      "##4c": 4034,
      "##0My": 4035,
      "##5mV": 4036,
      "##nc": 4037,
      "##nll": 4038,
      "##iM": 4039,
      "##iMT": 4040,
      "##iV0": 4041,
      "##_r3dlog": 4042,
      "##_exception": 4043,
      "##_netstats": 4044,
      "##rN": 4045,
      "##aU": 4046,
      "##aGF": 4047,
      "##version": 4048,
      "##vWl": 4049,
      "##mMTQ": 4050,
      "##dRG": 4051,
      "##drN": 4052,
      "##GU9": 4053,
      "##GtkejA5SWl3TkNpQWdJQ0FpWTI5a1pWOTJaWEpwWm1sbGNpSTZJQ0p": 4054,
      "##GWFp": 4055,
      "##FZ": 4056,
      "##FN": 4057,
      "##FK": 4058,
      "##FcH": 4059,
      "##F0Y": 4060,
      "##FNWE": 4061,
      "##FmMTQ": 4062,
      "##wWV": 4063,
      "##wQ1": 4064,
      "##witch": 4065,
      "##BC": 4066,
      "##Bpk": 4067,
      "##Hd": 4068,
      "##HE": 4069,
      "##pUV": 4070,
      "##ZC": 4071,
      "##Zq": 4072,
      "##ZlcnNpb249": 4073,
      "##ZvWl": 4074,
      "##DTA": 4075,
      "##Y3": 4076,
      "##Y_t": 4077,
      "##YxNC": 4078,
      "##zn": 4079,
      "##zZD": 4080,
      "##zFV": 4081,
      "##RX": 4082,
      "##RnB": 4083,
      "##TN": 4084,
      "##TV0": 4085,
      "##AdRG": 4086,
      "##UmJ": 4087,
      "##UWxW": 4088,
      "##VY": 4089,
      "##Vra": 4090,
      "##Vak": 4091,
      "##M5": 4092,
      "##MnBr": 4093,
      "##OWF": 4094,
      "##OaGF": 4095,
      "##OAdRG": 4096,
      "##k9S": 4097,
      "##kRW": 4098,
      "##kOT": 4099,
      "##k0M": 4100,
      "##IsImF1dGgtdG9rZW4iOiJ": 4101,
      "##IxLW": 4102,
      "##lpk": 4103,
      "##lRK": 4104,
      "##bU": 4105,
      "##bc0": 4106,
      "##bU5": 4107,
      "##2b": 4108,
      "##200": 4109,
      "##2MTg": 4110,
      "##jRlZ": 4111,
      "##jMV": 4112,
      "##uent": 4113,
      "##uys": 4114,
      "##Ja": 4115,
      "##Jj": 4116,
      "##JOU": 4117,
      "##JeF": 4118,
      "##JTV0": 4119,
      "##WR1": 4120,
      "##Wmp": 4121,
      "##WMU": 4122,
      "##WtG": 4123,
      "##Patch": 4124,
      "##S03": 4125,
      "##g1LT": 4126,
      "##132": 4127,
      "##1ZD": 4128,
      "##qm": 4129,
      "##quent": 4130,
      "##KbU5": 4131,
      "##lef": 4132,
      "##orcery": 4133,
      "##anc": 4134,
      "##elJOU": 4135,
      "0x44": 4136,
      "##til": 4137,
      "1658": 4138,
      "##1560": 4139,
      "##arY_t": 4140,
      "##876": 4141,
      "##875": 4142,
      "##360": 4143,
      "##314": 4144,
      "##424": 4145,
      "##274": 4146,
      "##amRX": 4147,
      "##YWYxNC": 4148,
      "##ducGF": 4149,
      "133": 4150,
      "##_service": 4151,
      "##cyYj": 4152,
      "##ZVlRK": 4153,
      "##IjA": 4154,
      "##zdkOT": 4155,
      "10022": 4156,
      "##player": 4157,
      "##CU2p": 4158,
      "##Tk9N": 4159,
      "##lXeG9": 4160,
      "##vY2t": 4161,
      "##R1lXeG9": 4162,
      "##596": 4163,
      "##TIyj": 4164,
      "##ZDFK": 4165,
      "##ZDg1LT": 4166,
      "##QzBpk": 4167,
      "##nBVak": 4168,
      "##BOTW": 4169,
      "##lhM1": 4170,
      "##lhjRlZ": 4171,
      "##JlND": 4172,
      "##9335": 4173,
      "##LEDTA": 4174,
      "##NWm5": 4175,
      "##YWxwQ1": 4176,
      "##da3": 4177,
      "Armoury": 4178,
      "##U9iV0": 4179,
      "##sS05": 4180,
      "##sSnBVak": 4181,
      "##dHlhM1": 4182,
      "##VTSU5DbjA9In19": 4183,
      "##wczFV": 4184,
      "##LWI1": 4185,
      "##MDlC": 4186,
      "##FVdHlhM1": 4187,
      "##MmFmMTQ": 4188,
      "##MmIxLW": 4189,
      "##RkVZ": 4190,
      "##RkF0Y": 4191,
      "vmplayer": 4192,
      "##m5GWFp": 4193,
      "##m5WMU": 4194,
      "##VRMDlC": 4195,
      "##M3BOTW": 4196,
      "##M3LWI1": 4197,
      "frequent": 4198,
      "##5SR1lXeG9": 4199,
      "##ifSwicGF0Y2hsaW5lX2lkIjoibGl2ZSIsInByb2R1Y3QtaW50ZWdyYXRpb24iOnsiYXBwLXVwZGF0ZS1zdGF0dXMiOiJDOi9Qcm9ncmFtRGF0YS9SaW90IEdhbWVzL01ldGFkYXRhL2xlYWd1ZV9vZl9sZWdlbmRzLmxpdmUvbGVhZ3VlX29mX2xlZ2VuZHMubGl2ZS51cGRhdGUtc3RhdHVzLmpzb24iLCJoZWFydGJlYXQiOiJDOi9Vc2Vycy9IYXJhbWJlL0FwcERhdGEvTG9jYWwvUmlvdCBHYW1lcy9SaW90IENsaWVudC9EYXRhL1Nlc3Npb25zL": 4200,
      "##HSk9S": 4201,
      "##HSlhjRlZ": 4202,
      "##zBjMV": 4203,
      "##RWcF": 4204,
      "##TWt4": 4205,
      "displaylevel": 4206,
      "100227": 4207,
      "##Q1MmFmMTQ": 4208,
      "##4NS03": 4209,
      "##YmU0My": 4210,
      "##VVVra": 4211,
      "##U1hC": 4212,
      "##jNy1i": 4213,
      "##MtYWN": 4214,
      "##laelJOU": 4215,
      "##laU1hC": 4216,
      "##2pOaGF": 4217,
      "##xNCIsImF1dGgtdG9rZW4iOiJ": 4218,
      "##iIGx": 4219,
      "##YzUTR": 4220,
      "##RKamRX": 4221,
      "##OTI1ZD": 4222,
      "##WazR": 4223,
      "##NWEzZD": 4224,
      "##ZTU9BZFJHVEl5alF6QnBrYXJZX3R3In0sInJpb3RnYW1lc2FwaSI6eyJwZXJzaXN0ZW5jZS1wYXRoIjoiQzovVXNlcnMvSGFyYW1iZS9BcHBEYXRhL0xvY2FsL1Jpb3QgR2FtZXMvTGVhZ3VlIG9mIExlZ2VuZHMifSwicnNvX2F1dGgiOnsiYXV0aG9yaXphdGlvbi1rZXkiOiJldzBLSUNBZ0lDSmpiMlJsSWpvZ0ltUlhWWGhQ": 4225,
      "##EtYmU0My": 4226,
      "1684964791715750": 4227,
      "##TVRHSk9S": 4228,
      "##WUm5WMU": 4229,
      "eyJjbGllbnQtY29uZmlnIjp7InVybCI6Imh0dHBzOi8vY2xpZW50Y29uZmlnLnJwZy5yaW90Z2FtZXMuY29tIn0sImRlZmF1bHRfcmVnaW9uIjoiTkEiLCJnbG9iYWxzIjp7InNlc3Npb24taWQiOiI3ZD": 4230,
      "##LmhlYXJ0YmVhdC5qc29uIiwibG9ja2ZpbGUiOiJDOi9Qcm9ncmFtRGF0YS9SaW90IEdhbWVzL01ldGFkYXRhL2xlYWd1ZV9vZl9sZWdlbmRzLmxpdmUvbGVhZ3VlX29mX2xlZ2VuZHMubGl2ZS5sb2NrZmlsZSIsInNldHRpbmdzIjoiQzovUHJvZ3JhbURhdGEvUmlvdCBHYW1lcy9NZXRhZGF0YS9sZWFndWVfb2ZfbGVnZW5kcy5saXZlL2xlYWd1ZV9vZl9sZWdlbmRzLmxpdmUucHJvZHVjdF9zZXR0aW5ncy55YW1sIn0sInByb2R1Y3RfaWQiOiJsZWFndWVfb2ZfbGVnZW5kcyIsInB1Ymxpc2hlciI6InJpb3QiLCJyZWdpb25fZGF0YSI6eyJOQSI6eyJhdmFpbGFibGVfbG9jYWxlcyI6WyJlbl9VUyJdLCJkZWZhdWx0X2xvY2FsZSI6ImVuX1VTIiwicnNvIjp7ImNsaWVudCI6ImxvbCJ9fX0sInJpb3RjbGllbnQiOnsiYXBwLXBvcnQiOiI2MTg": 4231,
      "##SE5mV": 4232,
      "##UyYWYxNC": 4233,
      "OverwolfUpdater": 4234,
      "##oyTWt4": 4235,
      "##Crate": 4236,
      "##Y2M3LWI1": 4237,
      "##QxZDg1LT": 4238,
      "##RVVTSU5DbjA9In19": 4239,
      "##NTkyNW": 4240,
      "##cVducGF": 4241,
      "##rWkRW": 4242,
      "##DULEDTA": 4243,
      "##JSZDFK": 4244,
      "##WQ4NS03": 4245,
      "##1hY2M3LWI1": 4246,
      "SCHE": 4247,
      "YMOAdRG": 4248,
      "d3d12": 4249,
      "##6U2pOaGF": 4250,
      "##9ZTU9BZFJHVEl5alF6QnBrYXJZX3R3LmhlYXJ0YmVhdC5qc29uIiwibG9ja2ZpbGUiOiJDOi9Qcm9ncmFtRGF0YS9SaW90IEdhbWVzL01ldGFkYXRhL2xlYWd1ZV9vZl9sZWdlbmRzLmxpdmUvbGVhZ3VlX29mX2xlZ2VuZHMubGl2ZS5sb2NrZmlsZSIsInNldHRpbmdzIjoiQzovUHJvZ3JhbURhdGEvUmlvdCBHYW1lcy9NZXRhZGF0YS9sZWFndWVfb2ZfbGVnZW5kcy5saXZlL2xlYWd1ZV9vZl9sZWdlbmRzLmxpdmUucHJvZHVjdF9zZXR0aW5ncy55YW1sIn0sInByb2R1Y3RfaWQiOiJsZWFndWVfb2ZfbGVnZW5kcyIsInB1Ymxpc2hlciI6InJpb3QiLCJyZWdpb25fZGF0YSI6eyJOQSI6eyJhdmFpbGFibGVfbG9jYWxlcyI6WyJlbl9VUyJdLCJkZWZhdWx0X2xvY2FsZSI6ImVuX1VTIiwicnNvIjp7ImNsaWVudCI6ImxvbCJ9fX0sInJpb3RjbGllbnQiOnsiYXBwLXBvcnQiOiI2MTg": 4251,
      "##iMTlaU1hC": 4252,
      "##drNU9iV0": 4253,
      "##GtkejA5SWl3TkNpQWdJQ0FpWTI5a1pWOTJaWEpwWm1sbGNpSTZJQ0pNWm5": 4254,
      "##FZJeF": 4255,
      "##FcHlaelJOU": 4256,
      "##FNWEwczFV": 4257,
      "##pUVWtG": 4258,
      "##ZqTk9N": 4259,
      "##ZvWlRWcF": 4260,
      "##RnBZVlRK": 4261,
      "##UmJrWkRW": 4262,
      "##UWxWcVducGF": 4263,
      "##MnBrUWxWcVducGF": 4264,
      "##k0MWQ4NS03": 4265,
      "##JTV0RKamRX": 4266,
      "##WR1JTV0RKamRX": 4267,
      "##WmpsS05": 4268,
      "##KbU5WUm5WMU": 4269,
      "##arY_tw": 4270,
      "##cyYjEtYmU0My": 4271,
      "##zdkOTQxZDg1LT": 4272,
      "##CU2pKbU5WUm5WMU": 4273,
      "##TIyjQzBpk": 4274,
      "##JlNDMtYWN": 4275,
      "##YWxwQ1ZqTk9N": 4276,
      "ArmouryCrate": 4277,
      "##sSnBVakJSZDFK": 4278,
      "##FVdHlhM1oyTWt4": 4279,
      "##MmIxLWJlNDMtYWN": 4280,
      "##RkVZM3BOTW": 4281,
      "##RkF0Ym5GWFp": 4282,
      "##VRMDlCWmpsS05": 4283,
      "frequentupdate": 4284,
      "##5SR1lXeG9WazR": 4285,
      "##ifSwicGF0Y2hsaW5lX2lkIjoibGl2ZSIsInByb2R1Y3QtaW50ZWdyYXRpb24iOnsiYXBwLXVwZGF0ZS1zdGF0dXMiOiJDOi9Qcm9ncmFtRGF0YS9SaW90IEdhbWVzL01ldGFkYXRhL2xlYWd1ZV9vZl9sZWdlbmRzLmxpdmUvbGVhZ3VlX29mX2xlZ2VuZHMubGl2ZS51cGRhdGUtc3RhdHVzLmpzb24iLCJoZWFydGJlYXQiOiJDOi9Vc2Vycy9IYXJhbWJlL0FwcERhdGEvTG9jYWwvUmlvdCBHYW1lcy9SaW90IENsaWVudC9EYXRhL1Nlc3Npb25zLzdkOTQxZDg1LT": 4286,
      "##HSlhjRlZCU2pKbU5WUm5WMU": 4287,
      "##zBjMVdrNU9iV0": 4288,
      "##Q1MmFmMTQifSwicGF0Y2hsaW5lX2lkIjoibGl2ZSIsInByb2R1Y3QtaW50ZWdyYXRpb24iOnsiYXBwLXVwZGF0ZS1zdGF0dXMiOiJDOi9Qcm9ncmFtRGF0YS9SaW90IEdhbWVzL01ldGFkYXRhL2xlYWd1ZV9vZl9sZWdlbmRzLmxpdmUvbGVhZ3VlX29mX2xlZ2VuZHMubGl2ZS51cGRhdGUtc3RhdHVzLmpzb24iLCJoZWFydGJlYXQiOiJDOi9Vc2Vycy9IYXJhbWJlL0FwcERhdGEvTG9jYWwvUmlvdCBHYW1lcy9SaW90IENsaWVudC9EYXRhL1Nlc3Npb25zLzdkOTQxZDg1LT": 4289,
      "##VVVraGtkejA5SWl3TkNpQWdJQ0FpWTI5a1pWOTJaWEpwWm1sbGNpSTZJQ0pNWm5": 4290,
      "##jNy1iNTkyNW": 4291,
      "##xNCIsImF1dGgtdG9rZW4iOiJZTU9BZFJHVEl5alF6QnBrYXJZX3R3In0sInJpb3RnYW1lc2FwaSI6eyJwZXJzaXN0ZW5jZS1wYXRoIjoiQzovVXNlcnMvSGFyYW1iZS9BcHBEYXRhL0xvY2FsL1Jpb3QgR2FtZXMvTGVhZ3VlIG9mIExlZ2VuZHMifSwicnNvX2F1dGgiOnsiYXV0aG9yaXphdGlvbi1rZXkiOiJldzBLSUNBZ0lDSmpiMlJsSWpvZ0ltUlhWWGhQ": 4292,
      "##YzUTRiMTlaU1hC": 4293,
      "##OTI1ZDUyYWYxNC": 4294,
      "##NWEzZDVRMDlCWmpsS05": 4295,
      "##TVRHSk9SRkF0Ym5GWFp": 4296,
      "eyJjbGllbnQtY29uZmlnIjp7InVybCI6Imh0dHBzOi8vY2xpZW50Y29uZmlnLnJwZy5yaW90Z2FtZXMuY29tIn0sImRlZmF1bHRfcmVnaW9uIjoiTkEiLCJnbG9iYWxzIjp7InNlc3Npb24taWQiOiI3ZDk0MWQ4NS03": 4297,
      "##SE5mVFZJeF": 4298,
      "##DULEDTASK": 4299,
      "##1hY2M3LWI1OTI1ZDUyYWYxNC": 4300,
      "SCHEDULEDTASK": 4301,
      "YMOAdRGTIyjQzBpk": 4302,
      "##6U2pOaGFsSnBVakJSZDFK": 4303,
      "##9ZTU9BZFJHVEl5alF6QnBrYXJZX3R3LmhlYXJ0YmVhdC5qc29uIiwibG9ja2ZpbGUiOiJDOi9Qcm9ncmFtRGF0YS9SaW90IEdhbWVzL01ldGFkYXRhL2xlYWd1ZV9vZl9sZWdlbmRzLmxpdmUvbGVhZ3VlX29mX2xlZ2VuZHMubGl2ZS5sb2NrZmlsZSIsInNldHRpbmdzIjoiQzovUHJvZ3JhbURhdGEvUmlvdCBHYW1lcy9NZXRhZGF0YS9sZWFndWVfb2ZfbGVnZW5kcy5saXZlL2xlYWd1ZV9vZl9sZWdlbmRzLmxpdmUucHJvZHVjdF9zZXR0aW5ncy55YW1sIn0sInByb2R1Y3RfaWQiOiJsZWFndWVfb2ZfbGVnZW5kcyIsInB1Ymxpc2hlciI6InJpb3QiLCJyZWdpb25fZGF0YSI6eyJOQSI6eyJhdmFpbGFibGVfbG9jYWxlcyI6WyJlbl9VUyJdLCJkZWZhdWx0X2xvY2FsZSI6ImVuX1VTIiwicnNvIjp7ImNsaWVudCI6ImxvbCJ9fX0sInJpb3RjbGllbnQiOnsiYXBwLXBvcnQiOiI2MTgxNCIsImF1dGgtdG9rZW4iOiJZTU9BZFJHVEl5alF6QnBrYXJZX3R3In0sInJpb3RnYW1lc2FwaSI6eyJwZXJzaXN0ZW5jZS1wYXRoIjoiQzovVXNlcnMvSGFyYW1iZS9BcHBEYXRhL0xvY2FsL1Jpb3QgR2FtZXMvTGVhZ3VlIG9mIExlZ2VuZHMifSwicnNvX2F1dGgiOnsiYXV0aG9yaXphdGlvbi1rZXkiOiJldzBLSUNBZ0lDSmpiMlJsSWpvZ0ltUlhWWGhQ": 4304,
      "##FcHlaelJOUzBjMVdrNU9iV0": 4305,
      "##FNWEwczFVSE5mVFZJeF": 4306,
      "##pUVWtGTVRHSk9SRkF0Ym5GWFp": 4307,
      "##ZvWlRWcFFVdHlhM1oyTWt4": 4308,
      "##RnBZVlRKUmJrWkRW": 4309,
      "##MnBrUWxWcVducGFWR1JTV0RKamRX": 4310,
      "##cyYjEtYmU0My1hY2M3LWI1OTI1ZDUyYWYxNC": 4311,
      "##YWxwQ1ZqTk9NRnBZVlRKUmJrWkRW": 4312,
      "##MmIxLWJlNDMtYWNjNy1iNTkyNW": 4313,
      "##RkVZM3BOTW5SR1lXeG9WazR": 4314,
      "##HSlhjRlZCU2pKbU5WUm5WMUZvWlRWcFFVdHlhM1oyTWt4": 4315,
      "##Q1MmFmMTQifSwicGF0Y2hsaW5lX2lkIjoibGl2ZSIsInByb2R1Y3QtaW50ZWdyYXRpb24iOnsiYXBwLXVwZGF0ZS1zdGF0dXMiOiJDOi9Qcm9ncmFtRGF0YS9SaW90IEdhbWVzL01ldGFkYXRhL2xlYWd1ZV9vZl9sZWdlbmRzLmxpdmUvbGVhZ3VlX29mX2xlZ2VuZHMubGl2ZS51cGRhdGUtc3RhdHVzLmpzb24iLCJoZWFydGJlYXQiOiJDOi9Vc2Vycy9IYXJhbWJlL0FwcERhdGEvTG9jYWwvUmlvdCBHYW1lcy9SaW90IENsaWVudC9EYXRhL1Nlc3Npb25zLzdkOTQxZDg1LTcyYjEtYmU0My1hY2M3LWI1OTI1ZDUyYWYxNC": 4316,
      "##VVVraGtkejA5SWl3TkNpQWdJQ0FpWTI5a1pWOTJaWEpwWm1sbGNpSTZJQ0pNWm5FNWEwczFVSE5mVFZJeF": 4317,
      "##YzUTRiMTlaU1hCNWEzZDVRMDlCWmpsS05": 4318,
      "eyJjbGllbnQtY29uZmlnIjp7InVybCI6Imh0dHBzOi8vY2xpZW50Y29uZmlnLnJwZy5yaW90Z2FtZXMuY29tIn0sImRlZmF1bHRfcmVnaW9uIjoiTkEiLCJnbG9iYWxzIjp7InNlc3Npb24taWQiOiI3ZDk0MWQ4NS03MmIxLWJlNDMtYWNjNy1iNTkyNW": 4319,
      "YMOAdRGTIyjQzBpkarY_tw": 4320,
      "##6U2pOaGFsSnBVakJSZDFKVVVraGtkejA5SWl3TkNpQWdJQ0FpWTI5a1pWOTJaWEpwWm1sbGNpSTZJQ0pNWm5FNWEwczFVSE5mVFZJeF": 4321,
      "##9ZTU9BZFJHVEl5alF6QnBrYXJZX3R3LmhlYXJ0YmVhdC5qc29uIiwibG9ja2ZpbGUiOiJDOi9Qcm9ncmFtRGF0YS9SaW90IEdhbWVzL01ldGFkYXRhL2xlYWd1ZV9vZl9sZWdlbmRzLmxpdmUvbGVhZ3VlX29mX2xlZ2VuZHMubGl2ZS5sb2NrZmlsZSIsInNldHRpbmdzIjoiQzovUHJvZ3JhbURhdGEvUmlvdCBHYW1lcy9NZXRhZGF0YS9sZWFndWVfb2ZfbGVnZW5kcy5saXZlL2xlYWd1ZV9vZl9sZWdlbmRzLmxpdmUucHJvZHVjdF9zZXR0aW5ncy55YW1sIn0sInByb2R1Y3RfaWQiOiJsZWFndWVfb2ZfbGVnZW5kcyIsInB1Ymxpc2hlciI6InJpb3QiLCJyZWdpb25fZGF0YSI6eyJOQSI6eyJhdmFpbGFibGVfbG9jYWxlcyI6WyJlbl9VUyJdLCJkZWZhdWx0X2xvY2FsZSI6ImVuX1VTIiwicnNvIjp7ImNsaWVudCI6ImxvbCJ9fX0sInJpb3RjbGllbnQiOnsiYXBwLXBvcnQiOiI2MTgxNCIsImF1dGgtdG9rZW4iOiJZTU9BZFJHVEl5alF6QnBrYXJZX3R3In0sInJpb3RnYW1lc2FwaSI6eyJwZXJzaXN0ZW5jZS1wYXRoIjoiQzovVXNlcnMvSGFyYW1iZS9BcHBEYXRhL0xvY2FsL1Jpb3QgR2FtZXMvTGVhZ3VlIG9mIExlZ2VuZHMifSwicnNvX2F1dGgiOnsiYXV0aG9yaXphdGlvbi1rZXkiOiJldzBLSUNBZ0lDSmpiMlJsSWpvZ0ltUlhWWGhQYWxwQ1ZqTk9NRnBZVlRKUmJrWkRW": 4322,
      "##FcHlaelJOUzBjMVdrNU9iV0pUVWtGTVRHSk9SRkF0Ym5GWFp": 4323,
      "##MnBrUWxWcVducGFWR1JTV0RKamRXRkVZM3BOTW5SR1lXeG9WazR": 4324,
      "##HSlhjRlZCU2pKbU5WUm5WMUZvWlRWcFFVdHlhM1oyTWt4RVVTSU5DbjA9In19": 4325,
      "##Q1MmFmMTQifSwicGF0Y2hsaW5lX2lkIjoibGl2ZSIsInByb2R1Y3QtaW50ZWdyYXRpb24iOnsiYXBwLXVwZGF0ZS1zdGF0dXMiOiJDOi9Qcm9ncmFtRGF0YS9SaW90IEdhbWVzL01ldGFkYXRhL2xlYWd1ZV9vZl9sZWdlbmRzLmxpdmUvbGVhZ3VlX29mX2xlZ2VuZHMubGl2ZS51cGRhdGUtc3RhdHVzLmpzb24iLCJoZWFydGJlYXQiOiJDOi9Vc2Vycy9IYXJhbWJlL0FwcERhdGEvTG9jYWwvUmlvdCBHYW1lcy9SaW90IENsaWVudC9EYXRhL1Nlc3Npb25zLzdkOTQxZDg1LTcyYjEtYmU0My1hY2M3LWI1OTI1ZDUyYWYxNC9ZTU9BZFJHVEl5alF6QnBrYXJZX3R3LmhlYXJ0YmVhdC5qc29uIiwibG9ja2ZpbGUiOiJDOi9Qcm9ncmFtRGF0YS9SaW90IEdhbWVzL01ldGFkYXRhL2xlYWd1ZV9vZl9sZWdlbmRzLmxpdmUvbGVhZ3VlX29mX2xlZ2VuZHMubGl2ZS5sb2NrZmlsZSIsInNldHRpbmdzIjoiQzovUHJvZ3JhbURhdGEvUmlvdCBHYW1lcy9NZXRhZGF0YS9sZWFndWVfb2ZfbGVnZW5kcy5saXZlL2xlYWd1ZV9vZl9sZWdlbmRzLmxpdmUucHJvZHVjdF9zZXR0aW5ncy55YW1sIn0sInByb2R1Y3RfaWQiOiJsZWFndWVfb2ZfbGVnZW5kcyIsInB1Ymxpc2hlciI6InJpb3QiLCJyZWdpb25fZGF0YSI6eyJOQSI6eyJhdmFpbGFibGVfbG9jYWxlcyI6WyJlbl9VUyJdLCJkZWZhdWx0X2xvY2FsZSI6ImVuX1VTIiwicnNvIjp7ImNsaWVudCI6ImxvbCJ9fX0sInJpb3RjbGllbnQiOnsiYXBwLXBvcnQiOiI2MTgxNCIsImF1dGgtdG9rZW4iOiJZTU9BZFJHVEl5alF6QnBrYXJZX3R3In0sInJpb3RnYW1lc2FwaSI6eyJwZXJzaXN0ZW5jZS1wYXRoIjoiQzovVXNlcnMvSGFyYW1iZS9BcHBEYXRhL0xvY2FsL1Jpb3QgR2FtZXMvTGVhZ3VlIG9mIExlZ2VuZHMifSwicnNvX2F1dGgiOnsiYXV0aG9yaXphdGlvbi1rZXkiOiJldzBLSUNBZ0lDSmpiMlJsSWpvZ0ltUlhWWGhQYWxwQ1ZqTk9NRnBZVlRKUmJrWkRW": 4326,
      "##YzUTRiMTlaU1hCNWEzZDVRMDlCWmpsS05FcHlaelJOUzBjMVdrNU9iV0pUVWtGTVRHSk9SRkF0Ym5GWFp": 4327,
      "eyJjbGllbnQtY29uZmlnIjp7InVybCI6Imh0dHBzOi8vY2xpZW50Y29uZmlnLnJwZy5yaW90Z2FtZXMuY29tIn0sImRlZmF1bHRfcmVnaW9uIjoiTkEiLCJnbG9iYWxzIjp7InNlc3Npb24taWQiOiI3ZDk0MWQ4NS03MmIxLWJlNDMtYWNjNy1iNTkyNWQ1MmFmMTQifSwicGF0Y2hsaW5lX2lkIjoibGl2ZSIsInByb2R1Y3QtaW50ZWdyYXRpb24iOnsiYXBwLXVwZGF0ZS1zdGF0dXMiOiJDOi9Qcm9ncmFtRGF0YS9SaW90IEdhbWVzL01ldGFkYXRhL2xlYWd1ZV9vZl9sZWdlbmRzLmxpdmUvbGVhZ3VlX29mX2xlZ2VuZHMubGl2ZS51cGRhdGUtc3RhdHVzLmpzb24iLCJoZWFydGJlYXQiOiJDOi9Vc2Vycy9IYXJhbWJlL0FwcERhdGEvTG9jYWwvUmlvdCBHYW1lcy9SaW90IENsaWVudC9EYXRhL1Nlc3Npb25zLzdkOTQxZDg1LTcyYjEtYmU0My1hY2M3LWI1OTI1ZDUyYWYxNC9ZTU9BZFJHVEl5alF6QnBrYXJZX3R3LmhlYXJ0YmVhdC5qc29uIiwibG9ja2ZpbGUiOiJDOi9Qcm9ncmFtRGF0YS9SaW90IEdhbWVzL01ldGFkYXRhL2xlYWd1ZV9vZl9sZWdlbmRzLmxpdmUvbGVhZ3VlX29mX2xlZ2VuZHMubGl2ZS5sb2NrZmlsZSIsInNldHRpbmdzIjoiQzovUHJvZ3JhbURhdGEvUmlvdCBHYW1lcy9NZXRhZGF0YS9sZWFndWVfb2ZfbGVnZW5kcy5saXZlL2xlYWd1ZV9vZl9sZWdlbmRzLmxpdmUucHJvZHVjdF9zZXR0aW5ncy55YW1sIn0sInByb2R1Y3RfaWQiOiJsZWFndWVfb2ZfbGVnZW5kcyIsInB1Ymxpc2hlciI6InJpb3QiLCJyZWdpb25fZGF0YSI6eyJOQSI6eyJhdmFpbGFibGVfbG9jYWxlcyI6WyJlbl9VUyJdLCJkZWZhdWx0X2xvY2FsZSI6ImVuX1VTIiwicnNvIjp7ImNsaWVudCI6ImxvbCJ9fX0sInJpb3RjbGllbnQiOnsiYXBwLXBvcnQiOiI2MTgxNCIsImF1dGgtdG9rZW4iOiJZTU9BZFJHVEl5alF6QnBrYXJZX3R3In0sInJpb3RnYW1lc2FwaSI6eyJwZXJzaXN0ZW5jZS1wYXRoIjoiQzovVXNlcnMvSGFyYW1iZS9BcHBEYXRhL0xvY2FsL1Jpb3QgR2FtZXMvTGVhZ3VlIG9mIExlZ2VuZHMifSwicnNvX2F1dGgiOnsiYXV0aG9yaXphdGlvbi1rZXkiOiJldzBLSUNBZ0lDSmpiMlJsSWpvZ0ltUlhWWGhQYWxwQ1ZqTk9NRnBZVlRKUmJrWkRW": 4328,
      "##6U2pOaGFsSnBVakJSZDFKVVVraGtkejA5SWl3TkNpQWdJQ0FpWTI5a1pWOTJaWEpwWm1sbGNpSTZJQ0pNWm5FNWEwczFVSE5mVFZJeFYzUTRiMTlaU1hCNWEzZDVRMDlCWmpsS05FcHlaelJOUzBjMVdrNU9iV0pUVWtGTVRHSk9SRkF0Ym5GWFp": 4329,
      "##MnBrUWxWcVducGFWR1JTV0RKamRXRkVZM3BOTW5SR1lXeG9WazR6U2pOaGFsSnBVakJSZDFKVVVraGtkejA5SWl3TkNpQWdJQ0FpWTI5a1pWOTJaWEpwWm1sbGNpSTZJQ0pNWm5FNWEwczFVSE5mVFZJeFYzUTRiMTlaU1hCNWEzZDVRMDlCWmpsS05FcHlaelJOUzBjMVdrNU9iV0pUVWtGTVRHSk9SRkF0Ym5GWFp": 4330,
      "eyJjbGllbnQtY29uZmlnIjp7InVybCI6Imh0dHBzOi8vY2xpZW50Y29uZmlnLnJwZy5yaW90Z2FtZXMuY29tIn0sImRlZmF1bHRfcmVnaW9uIjoiTkEiLCJnbG9iYWxzIjp7InNlc3Npb24taWQiOiI3ZDk0MWQ4NS03MmIxLWJlNDMtYWNjNy1iNTkyNWQ1MmFmMTQifSwicGF0Y2hsaW5lX2lkIjoibGl2ZSIsInByb2R1Y3QtaW50ZWdyYXRpb24iOnsiYXBwLXVwZGF0ZS1zdGF0dXMiOiJDOi9Qcm9ncmFtRGF0YS9SaW90IEdhbWVzL01ldGFkYXRhL2xlYWd1ZV9vZl9sZWdlbmRzLmxpdmUvbGVhZ3VlX29mX2xlZ2VuZHMubGl2ZS51cGRhdGUtc3RhdHVzLmpzb24iLCJoZWFydGJlYXQiOiJDOi9Vc2Vycy9IYXJhbWJlL0FwcERhdGEvTG9jYWwvUmlvdCBHYW1lcy9SaW90IENsaWVudC9EYXRhL1Nlc3Npb25zLzdkOTQxZDg1LTcyYjEtYmU0My1hY2M3LWI1OTI1ZDUyYWYxNC9ZTU9BZFJHVEl5alF6QnBrYXJZX3R3LmhlYXJ0YmVhdC5qc29uIiwibG9ja2ZpbGUiOiJDOi9Qcm9ncmFtRGF0YS9SaW90IEdhbWVzL01ldGFkYXRhL2xlYWd1ZV9vZl9sZWdlbmRzLmxpdmUvbGVhZ3VlX29mX2xlZ2VuZHMubGl2ZS5sb2NrZmlsZSIsInNldHRpbmdzIjoiQzovUHJvZ3JhbURhdGEvUmlvdCBHYW1lcy9NZXRhZGF0YS9sZWFndWVfb2ZfbGVnZW5kcy5saXZlL2xlYWd1ZV9vZl9sZWdlbmRzLmxpdmUucHJvZHVjdF9zZXR0aW5ncy55YW1sIn0sInByb2R1Y3RfaWQiOiJsZWFndWVfb2ZfbGVnZW5kcyIsInB1Ymxpc2hlciI6InJpb3QiLCJyZWdpb25fZGF0YSI6eyJOQSI6eyJhdmFpbGFibGVfbG9jYWxlcyI6WyJlbl9VUyJdLCJkZWZhdWx0X2xvY2FsZSI6ImVuX1VTIiwicnNvIjp7ImNsaWVudCI6ImxvbCJ9fX0sInJpb3RjbGllbnQiOnsiYXBwLXBvcnQiOiI2MTgxNCIsImF1dGgtdG9rZW4iOiJZTU9BZFJHVEl5alF6QnBrYXJZX3R3In0sInJpb3RnYW1lc2FwaSI6eyJwZXJzaXN0ZW5jZS1wYXRoIjoiQzovVXNlcnMvSGFyYW1iZS9BcHBEYXRhL0xvY2FsL1Jpb3QgR2FtZXMvTGVhZ3VlIG9mIExlZ2VuZHMifSwicnNvX2F1dGgiOnsiYXV0aG9yaXphdGlvbi1rZXkiOiJldzBLSUNBZ0lDSmpiMlJsSWpvZ0ltUlhWWGhQYWxwQ1ZqTk9NRnBZVlRKUmJrWkRWMnBrUWxWcVducGFWR1JTV0RKamRXRkVZM3BOTW5SR1lXeG9WazR6U2pOaGFsSnBVakJSZDFKVVVraGtkejA5SWl3TkNpQWdJQ0FpWTI5a1pWOTJaWEpwWm1sbGNpSTZJQ0pNWm5FNWEwczFVSE5mVFZJeFYzUTRiMTlaU1hCNWEzZDVRMDlCWmpsS05FcHlaelJOUzBjMVdrNU9iV0pUVWtGTVRHSk9SRkF0Ym5GWFp": 4331,
      "eyJjbGllbnQtY29uZmlnIjp7InVybCI6Imh0dHBzOi8vY2xpZW50Y29uZmlnLnJwZy5yaW90Z2FtZXMuY29tIn0sImRlZmF1bHRfcmVnaW9uIjoiTkEiLCJnbG9iYWxzIjp7InNlc3Npb24taWQiOiI3ZDk0MWQ4NS03MmIxLWJlNDMtYWNjNy1iNTkyNWQ1MmFmMTQifSwicGF0Y2hsaW5lX2lkIjoibGl2ZSIsInByb2R1Y3QtaW50ZWdyYXRpb24iOnsiYXBwLXVwZGF0ZS1zdGF0dXMiOiJDOi9Qcm9ncmFtRGF0YS9SaW90IEdhbWVzL01ldGFkYXRhL2xlYWd1ZV9vZl9sZWdlbmRzLmxpdmUvbGVhZ3VlX29mX2xlZ2VuZHMubGl2ZS51cGRhdGUtc3RhdHVzLmpzb24iLCJoZWFydGJlYXQiOiJDOi9Vc2Vycy9IYXJhbWJlL0FwcERhdGEvTG9jYWwvUmlvdCBHYW1lcy9SaW90IENsaWVudC9EYXRhL1Nlc3Npb25zLzdkOTQxZDg1LTcyYjEtYmU0My1hY2M3LWI1OTI1ZDUyYWYxNC9ZTU9BZFJHVEl5alF6QnBrYXJZX3R3LmhlYXJ0YmVhdC5qc29uIiwibG9ja2ZpbGUiOiJDOi9Qcm9ncmFtRGF0YS9SaW90IEdhbWVzL01ldGFkYXRhL2xlYWd1ZV9vZl9sZWdlbmRzLmxpdmUvbGVhZ3VlX29mX2xlZ2VuZHMubGl2ZS5sb2NrZmlsZSIsInNldHRpbmdzIjoiQzovUHJvZ3JhbURhdGEvUmlvdCBHYW1lcy9NZXRhZGF0YS9sZWFndWVfb2ZfbGVnZW5kcy5saXZlL2xlYWd1ZV9vZl9sZWdlbmRzLmxpdmUucHJvZHVjdF9zZXR0aW5ncy55YW1sIn0sInByb2R1Y3RfaWQiOiJsZWFndWVfb2ZfbGVnZW5kcyIsInB1Ymxpc2hlciI6InJpb3QiLCJyZWdpb25fZGF0YSI6eyJOQSI6eyJhdmFpbGFibGVfbG9jYWxlcyI6WyJlbl9VUyJdLCJkZWZhdWx0X2xvY2FsZSI6ImVuX1VTIiwicnNvIjp7ImNsaWVudCI6ImxvbCJ9fX0sInJpb3RjbGllbnQiOnsiYXBwLXBvcnQiOiI2MTgxNCIsImF1dGgtdG9rZW4iOiJZTU9BZFJHVEl5alF6QnBrYXJZX3R3In0sInJpb3RnYW1lc2FwaSI6eyJwZXJzaXN0ZW5jZS1wYXRoIjoiQzovVXNlcnMvSGFyYW1iZS9BcHBEYXRhL0xvY2FsL1Jpb3QgR2FtZXMvTGVhZ3VlIG9mIExlZ2VuZHMifSwicnNvX2F1dGgiOnsiYXV0aG9yaXphdGlvbi1rZXkiOiJldzBLSUNBZ0lDSmpiMlJsSWpvZ0ltUlhWWGhQYWxwQ1ZqTk9NRnBZVlRKUmJrWkRWMnBrUWxWcVducGFWR1JTV0RKamRXRkVZM3BOTW5SR1lXeG9WazR6U2pOaGFsSnBVakJSZDFKVVVraGtkejA5SWl3TkNpQWdJQ0FpWTI5a1pWOTJaWEpwWm1sbGNpSTZJQ0pNWm5FNWEwczFVSE5mVFZJeFYzUTRiMTlaU1hCNWEzZDVRMDlCWmpsS05FcHlaelJOUzBjMVdrNU9iV0pUVWtGTVRHSk9SRkF0Ym5GWFpHSlhjRlZCU2pKbU5WUm5WMUZvWlRWcFFVdHlhM1oyTWt4RVVTSU5DbjA9In19": 4332
    }
  }
}